<unk>	0
<s>	0
</s>	0
<SEP>	0
<CLS>	0
\n	0
\t	0
<img>	0
<img/>	0
</img>	0
<h2>	0
<h2/>	0
</h2>	0
<td>	0
<td/>	0
</td>	0
<strong>	0
<strong/>	0
</strong>	0
<table>	0
<table/>	0
</table>	0
<tr>	0
<tr/>	0
</tr>	0
<li>"	0
<li/>	0
</li>	0
<b>	0
<b/>	0
</b>	0
<h3>	0
<h3/>	0
</h3>	0
<br>	0
<br/>	0
</br>	0
<h4>	0
<h4/>	0
</h4>	0
<h5>	0
<h5/>	0
</h5>	0
<p>	0
<p/>	0
</p>	0
<h1>	0
<h1/>	0
</h1>	0
<tbody>	0
<tbody/>	0
</tbody>	0
0	0
1	0
2	0
3	0
4	0
5	0
6	0
7	0
8	0
9	0
０	0
１	0
２	0
３	0
４	0
５	0
６	0
７	0
８	0
９	0
+	0
-	0
=	0
，	0
。	0
！	0
？	0
、	0
：	0
￥	0
.	0
!	0
?	0
...	0
。。。	0
。。。。。。	0
《	0
》	0
【	0
】	0
『	0
』	0
```	0
<!--	0
-->	0
---	0
<!DOCTYPE>	0
；	0
．	0
＝	0
＜	0
＞	0
－	0
＋	0
％	0
‼	0
㊣	0
／	0
｜	0
[商品]	0
[图]	0
[视频]	0
[链接]	0
~	0
\uff5e	0
<|endoftext|>	0
<|im_start|>	0
<|im_end|>	0
<|object_ref_start|>	0
<|object_ref_end|>	0
<|box_start|>	0
<|box_end|>	0
<|quad_start|>	0
<|quad_end|>	0
<|vision_start|>	0
<|vision_end|>	0
<|vision_pad|>	0
<|image_pad|>	0
<|video_pad|>	0
<|fim_prefix|>	0
<|fim_middle|>	0
<|fim_suffix|>	0
<|fim_pad|>	0
<|repo_name|>	0
<|file_sep|>	0
<|tool_call|>	0
<|execute_start|>	0
<|execute_end|>	0
<tool_call>	0
</tool_call>	0
<tool_response>	0
</tool_response>	0
<tools>	0
</tools>	0
<think>	0
</think>	0
▁▁	0
▁▁▁▁	0
▁▁▁▁▁▁▁▁	0
▁▁▁▁▁▁▁▁▁▁▁▁▁▁▁▁	0
▁▁▁▁▁▁▁▁▁▁▁▁▁▁▁▁▁▁▁▁▁▁▁▁▁▁▁▁▁▁▁▁	0
▁▁▁▁▁▁▁▁▁▁▁▁▁▁▁▁▁▁▁▁▁▁▁▁▁▁▁▁▁▁▁▁▁▁▁▁▁▁▁▁▁▁▁▁▁▁▁▁▁▁▁▁▁▁▁▁▁▁▁▁▁▁▁▁	0
<reserved_0>	0
<reserved_1>	0
<reserved_2>	0
<reserved_3>	0
<reserved_4>	0
<reserved_5>	0
<reserved_6>	0
<reserved_7>	0
<reserved_8>	0
<reserved_9>	0
<reserved_10>	0
<reserved_11>	0
<reserved_12>	0
<reserved_13>	0
<reserved_14>	0
<reserved_15>	0
<reserved_16>	0
<reserved_17>	0
<reserved_18>	0
<reserved_19>	0
<0x00>	0
<0x01>	0
<0x02>	0
<0x03>	0
<0x04>	0
<0x05>	0
<0x06>	0
<0x07>	0
<0x08>	0
<0x09>	0
<0x0A>	0
<0x0B>	0
<0x0C>	0
<0x0D>	0
<0x0E>	0
<0x0F>	0
<0x10>	0
<0x11>	0
<0x12>	0
<0x13>	0
<0x14>	0
<0x15>	0
<0x16>	0
<0x17>	0
<0x18>	0
<0x19>	0
<0x1A>	0
<0x1B>	0
<0x1C>	0
<0x1D>	0
<0x1E>	0
<0x1F>	0
<0x20>	0
<0x21>	0
<0x22>	0
<0x23>	0
<0x24>	0
<0x25>	0
<0x26>	0
<0x27>	0
<0x28>	0
<0x29>	0
<0x2A>	0
<0x2B>	0
<0x2C>	0
<0x2D>	0
<0x2E>	0
<0x2F>	0
<0x30>	0
<0x31>	0
<0x32>	0
<0x33>	0
<0x34>	0
<0x35>	0
<0x36>	0
<0x37>	0
<0x38>	0
<0x39>	0
<0x3A>	0
<0x3B>	0
<0x3C>	0
<0x3D>	0
<0x3E>	0
<0x3F>	0
<0x40>	0
<0x41>	0
<0x42>	0
<0x43>	0
<0x44>	0
<0x45>	0
<0x46>	0
<0x47>	0
<0x48>	0
<0x49>	0
<0x4A>	0
<0x4B>	0
<0x4C>	0
<0x4D>	0
<0x4E>	0
<0x4F>	0
<0x50>	0
<0x51>	0
<0x52>	0
<0x53>	0
<0x54>	0
<0x55>	0
<0x56>	0
<0x57>	0
<0x58>	0
<0x59>	0
<0x5A>	0
<0x5B>	0
<0x5C>	0
<0x5D>	0
<0x5E>	0
<0x5F>	0
<0x60>	0
<0x61>	0
<0x62>	0
<0x63>	0
<0x64>	0
<0x65>	0
<0x66>	0
<0x67>	0
<0x68>	0
<0x69>	0
<0x6A>	0
<0x6B>	0
<0x6C>	0
<0x6D>	0
<0x6E>	0
<0x6F>	0
<0x70>	0
<0x71>	0
<0x72>	0
<0x73>	0
<0x74>	0
<0x75>	0
<0x76>	0
<0x77>	0
<0x78>	0
<0x79>	0
<0x7A>	0
<0x7B>	0
<0x7C>	0
<0x7D>	0
<0x7E>	0
<0x7F>	0
<0x80>	0
<0x81>	0
<0x82>	0
<0x83>	0
<0x84>	0
<0x85>	0
<0x86>	0
<0x87>	0
<0x88>	0
<0x89>	0
<0x8A>	0
<0x8B>	0
<0x8C>	0
<0x8D>	0
<0x8E>	0
<0x8F>	0
<0x90>	0
<0x91>	0
<0x92>	0
<0x93>	0
<0x94>	0
<0x95>	0
<0x96>	0
<0x97>	0
<0x98>	0
<0x99>	0
<0x9A>	0
<0x9B>	0
<0x9C>	0
<0x9D>	0
<0x9E>	0
<0x9F>	0
<0xA0>	0
<0xA1>	0
<0xA2>	0
<0xA3>	0
<0xA4>	0
<0xA5>	0
<0xA6>	0
<0xA7>	0
<0xA8>	0
<0xA9>	0
<0xAA>	0
<0xAB>	0
<0xAC>	0
<0xAD>	0
<0xAE>	0
<0xAF>	0
<0xB0>	0
<0xB1>	0
<0xB2>	0
<0xB3>	0
<0xB4>	0
<0xB5>	0
<0xB6>	0
<0xB7>	0
<0xB8>	0
<0xB9>	0
<0xBA>	0
<0xBB>	0
<0xBC>	0
<0xBD>	0
<0xBE>	0
<0xBF>	0
<0xC0>	0
<0xC1>	0
<0xC2>	0
<0xC3>	0
<0xC4>	0
<0xC5>	0
<0xC6>	0
<0xC7>	0
<0xC8>	0
<0xC9>	0
<0xCA>	0
<0xCB>	0
<0xCC>	0
<0xCD>	0
<0xCE>	0
<0xCF>	0
<0xD0>	0
<0xD1>	0
<0xD2>	0
<0xD3>	0
<0xD4>	0
<0xD5>	0
<0xD6>	0
<0xD7>	0
<0xD8>	0
<0xD9>	0
<0xDA>	0
<0xDB>	0
<0xDC>	0
<0xDD>	0
<0xDE>	0
<0xDF>	0
<0xE0>	0
<0xE1>	0
<0xE2>	0
<0xE3>	0
<0xE4>	0
<0xE5>	0
<0xE6>	0
<0xE7>	0
<0xE8>	0
<0xE9>	0
<0xEA>	0
<0xEB>	0
<0xEC>	0
<0xED>	0
<0xEE>	0
<0xEF>	0
<0xF0>	0
<0xF1>	0
<0xF2>	0
<0xF3>	0
<0xF4>	0
<0xF5>	0
<0xF6>	0
<0xF7>	0
<0xF8>	0
<0xF9>	0
<0xFA>	0
<0xFB>	0
<0xFC>	0
<0xFD>	0
<0xFE>	0
<0xFF>	0
▁	-1.46779
,	-3.48765
▁the	-3.92052
▁of	-4.43988
▁and	-4.54272
_	-4.55689
▁to	-4.6194
s	-4.68335
▁a	-4.89414
(	-4.95414
▁in	-4.96086
:	-4.97757
"	-4.9847
)	-5.01591
▁is	-5.29766
'	-5.42845
/	-5.46817
;	-5.55292
▁that	-5.5909
▁for	-5.62527
>	-5.76271
▁(	-5.90252
▁with	-5.94355
▁The	-6.0116
▁are	-6.02576
▁as	-6.0643
▁on	-6.08452
▁it	-6.09886
▁{	-6.10291
▁be	-6.10998
的	-6.1794
▁or	-6.27473
t	-6.31237
▁by	-6.31869
▁from	-6.32098
’	-6.32574
a	-6.34316
x	-6.34755
▁you	-6.35106
▁this	-6.36398
▁was	-6.39446
▁I	-6.42071
}	-6.45022
▁can	-6.48543
*	-6.49934
▁have	-6.52207
▁not	-6.54671
▁}	-6.59413
▁an	-6.60858
▁at	-6.63045
d	-6.64169
);	-6.68251
\	-6.69339
e	-6.69538
i	-6.71737
[	-6.72209
	-6.73368
▁<	-6.77807
{	-6.78975
▁if	-6.80104
和	-6.8244
▁#	-6.86069
]	-6.86386
▁which	-6.92707
▁their	-6.92812
”	-6.9463
▁your	-6.95025
▁they	-6.95996
ing	-6.96096
▁will	-6.97077
m	-6.99213
()	-7.0151
▁but	-7.01735
▁we	-7.02084
▁more	-7.03969
▁has	-7.04667
<	-7.07944
c	-7.08069
S	-7.0836
▁$	-7.09998
%	-7.12096
▁were	-7.12867
在	-7.13791
▁In	-7.14046
▁all	-7.15012
ed	-7.1517
▁one	-7.17657
▁A	-7.18117
f	-7.19021
n	-7.21826
▁also	-7.2393
▁This	-7.27945
y	-7.28823
b	-7.31829
▁about	-7.33332
▁other	-7.3352
▁new	-7.34109
id	-7.34236
",	-7.35368
▁“	-7.38175
▁//	-7.38238
▁It	-7.38858
▁his	-7.41017
r	-7.41119
▁when	-7.42303
▁he	-7.44135
re	-7.44335
▁do	-7.44658
p	-7.45158
D	-7.47268
▁time	-7.47698
A	-7.47702
::	-7.49047
▁so	-7.49209
▁class	-7.49268
$	-7.49719
▁been	-7.50381
▁use	-7.50451
get	-7.50477
▁than	-7.5109
▁may	-7.51645
▁into	-7.53287
▁@	-7.53525
("	-7.53754
与	-7.54901
C	-7.55238
▁who	-7.55937
),	-7.56871
▁out	-7.56957
▁return	-7.57788
▁them	-7.5833
▁import	-7.58452
in	-7.58455
▁there	-7.58784
▁[	-7.58819
▁had	-7.59237
',	-7.59539
|	-7.59566
是	-7.59827
▁would	-7.60339
com	-7.60392
▁some	-7.61422
▁these	-7.61679
▁people	-7.62974
▁|	-7.6345
▁its	-7.63798
if	-7.64549
v	-7.64659
▁up	-7.65837
“	-7.68366
o	-7.68372
name	-7.68607
`	-7.68924
▁only	-7.69226
▁like	-7.69311
://	-7.69799
h	-7.7047
▁what	-7.71484
('	-7.71661
▁used	-7.72195
▁our	-7.7233
▁*	-7.73525
▁public	-7.73606
to	-7.74204
return	-7.76411
g	-7.76811
▁such	-7.77118
▁how	-7.77133
this	-7.7896
▁no	-7.79158
▁most	-7.79996
</	-7.80123
F	-7.80197
I	-7.81288
▁first	-7.81302
er	-7.81769
对	-7.82285
▁two	-7.83078
中	-7.83448
();	-7.83486
ly	-7.84151
T	-7.84524
B	-7.84577
▁any	-7.84903
▁should	-7.88564
k	-7.88578
▁get	-7.89098
data	-7.89688
为	-7.90177
▁over	-7.90341
▁my	-7.90577
">	-7.9123
▁then	-7.91247
▁many	-7.9275
▁data	-7.9356
▁using	-7.9488
l	-7.94986
u	-7.95293
▁If	-7.9556
al	-7.95859
▁just	-7.96347
▁make	-7.96359
is	-7.96942
▁between	-7.9758
div	-7.98563
等	-8.00336
▁&	-8.00525
▁could	-8.00547
▁well	-8.01496
▁where	-8.01963
▁work	-8.01977
▁because	-8.0308
▁through	-8.0446
type	-8.0499
px	-8.05058
▁function	-8.05609
E	-8.0612
https	-8.08333
▁self	-8.10003
or	-8.10671
▁years	-8.11056
set	-8.11173
▁need	-8.11494
&	-8.11989
▁after	-8.12095
▁her	-8.13507
▁We	-8.1359
▁\	-8.14083
▁way	-8.14641
th	-8.15894
以	-8.15972
issue	-8.1657
▁very	-8.1684
▁even	-8.17712
▁end	-8.17858
int	-8.18208
▁different	-8.18228
on	-8.18407
▁each	-8.18696
▁help	-8.19023
P	-8.19614
R	-8.20512
▁water	-8.21548
//	-8.22065
▁For	-8.22237
▁being	-8.22509
年	-8.22769
了	-8.22905
▁same	-8.23228
es	-8.24345
▁system	-8.24581
j	-8.25644
▁number	-8.25733
#	-8.25762
Type	-8.26349
en	-8.26425
▁those	-8.2653
L	-8.27419
▁–	-8.27489
▁much	-8.27667
▁said	-8.29462
▁de	-8.2979
X	-8.29892
z	-8.30017
▁name	-8.31033
):	-8.31536
▁me	-8.3235
self	-8.32498
▁found	-8.33068
▁while	-8.33601
":	-8.33667
▁both	-8.33996
the	-8.34327
▁high	-8.3462
*/	-8.35156
The	-8.3569
有	-8.35745
▁information	-8.35949
")	-8.36276
▁He	-8.36312
▁value	-8.36419
')	-8.36432
String	-8.36597
▁see	-8.36622
))	-8.36663
▁const	-8.36712
▁You	-8.36725
▁set	-8.37139
M	-8.3727
size	-8.37847
▁during	-8.38014
▁under	-8.38025
['	-8.38175
▁before	-8.38737
N	-8.38967
▁know	-8.39172
string	-8.39369
▁long	-8.39377
▁They	-8.39534
▁life	-8.40193
从	-8.40281
▁now	-8.40633
▁good	-8.40734
end	-8.41269
▁world	-8.41569
Name	-8.41759
▁made	-8.42257
▁`	-8.42815
▁study	-8.4322
或	-8.43376
▁As	-8.43393
▁part	-8.43563
▁But	-8.44416
▁type	-8.45267
▁children	-8.457
▁she	-8.45828
w	-8.46455
Data	-8.4665
▁important	-8.46824
▁void	-8.46844
ve	-8.47248
而	-8.47353
G	-8.47371
性	-8.47497
▁There	-8.47935
▁else	-8.47996
($	-8.4825
▁health	-8.48497
）	-8.48767
▁take	-8.48915
H	-8.48917
code	-8.49735
▁don	-8.50179
value	-8.50764
—	-8.50983
username	-8.51124
上	-8.51595
▁true	-8.51818
▁does	-8.52492
;	-8.52592
span	-8.52699
List	-8.52867
](	-8.52939
▁must	-8.53176
▁What	-8.532
（	-8.53877
and	-8.53954
Y	-8.53995
▁him	-8.54196
▁case	-8.54558
将	-8.55363
able	-8.55497
▁students	-8.55542
V	-8.57032
▁year	-8.57087
▁still	-8.57096
**	-8.5766
▁back	-8.57812
new	-8.58242
▁example	-8.58259
Id	-8.58261
list	-8.58614
test	-8.58953
text	-8.59089
▁around	-8.5915
");	-8.59183
org	-8.59843
us	-8.60001
▁often	-8.60183
||	-8.60353
▁day	-8.60454
▁three	-8.60672
▁When	-8.60883
▁want	-8.6195
▁C	-8.61981
▁own	-8.61992
▁find	-8.62014
▁def	-8.62139
▁These	-8.62325
comment	-8.62372
▁without	-8.62411
path	-8.63404
▁process	-8.63665
add	-8.63849
时	-8.64089
▁test	-8.64144
▁right	-8.64299
不	-8.64598
▁int	-8.64707
▁To	-8.65125
user	-8.65234
param	-8.65282
▁think	-8.65341
进行	-8.65354
▁change	-8.65463
人	-8.65745
▁body	-8.65876
file	-8.66692
log	-8.67172
其	-8.67324
▁research	-8.68
▁down	-8.68013
–	-8.68506
▁result	-8.68609
▁state	-8.69616
▁us	-8.69618
▁might	-8.69783
▁null	-8.70336
],	-8.70374
▁And	-8.70455
▁here	-8.71379
▁did	-8.72053
▁However	-8.72218
key	-8.7253
▁every	-8.7351
},	-8.73531
ID	-8.73799
▁including	-8.7408
▁following	-8.74226
▁private	-8.74274
for	-8.74377
▁static	-8.74459
通过	-8.74497
K	-8.74885
ll	-8.75144
▁So	-8.75239
O	-8.75412
class	-8.75857
item	-8.76017
▁called	-8.76145
▁within	-8.76217
at	-8.76612
var	-8.767
To	-8.76831
中国	-8.77167
到	-8.77529
time	-8.77549
▁small	-8.77568
▁better	-8.77732
▁</	-8.7794
▁human	-8.7834
一	-8.78834
out	-8.78949
▁B	-8.79092
▁var	-8.79162
▁another	-8.79488
li	-8.79516
▁go	-8.79723
▁place	-8.80209
▁power	-8.80623
Z	-8.80647
@	-8.80838
no	-8.8084
q	-8.80842
▁best	-8.80844
an	-8.81229
并	-8.81504
发展	-8.81747
▁food	-8.8217
▁few	-8.82245
▁too	-8.82765
▁known	-8.82938
▁file	-8.82948
http	-8.83111
io	-8.83199
▁point	-8.83634
也	-8.83664
▁large	-8.84096
▁order	-8.85019
及	-8.85056
▁false	-8.85066
▁given	-8.85138
▁energy	-8.85269
os	-8.85269
▁New	-8.85371
include	-8.85444
index	-8.85992
▁non	-8.86589
大	-8.86773
it	-8.87094
▁/**	-8.87137
▁possible	-8.87492
▁since	-8.87597
▁things	-8.88048
github	-8.88165
▁great	-8.88375
color	-8.88379
▁support	-8.8843
地	-8.89262
后	-8.89352
▁last	-8.89361
▁U	-8.89411
▁development	-8.89525
Get	-8.8955
▁school	-8.89736
▁T	-8.89747
Test	-8.89857
as	-8.89881
▁form	-8.89888
▁results	-8.90435
▁group	-8.90536
html	-8.90702
line	-8.90747
▁‘	-8.90809
NAME	-8.91323
▁disease	-8.91599
▁less	-8.91691
label	-8.91696
▁provide	-8.91711
▁child	-8.91884
man	-8.91942
▁against	-8.92003
▁problem	-8.9223
▁control	-8.92421
U	-8.92427
▁P	-8.92444
▁common	-8.92585
要	-8.9272
▁create	-8.92767
config	-8.92848
www	-8.93083
min	-8.93242
▁area	-8.93626
企业	-8.94365
▁cells	-8.94556
▁something	-8.94651
File	-8.94742
▁M	-8.94784
▁level	-8.94796
▁p	-8.95067
▁per	-8.95557
▁really	-8.95735
▁means	-8.95793
▁model	-8.95892
▁person	-8.95971
▁risk	-8.96129
json	-8.96521
ers	-8.96899
▁/*	-8.96976
Value	-8.97156
之	-8.97185
Error	-8.97206
▁women	-8.9765
▁How	-8.97781
public	-8.98031
W	-8.98139
▁un	-8.98191
^	-8.98562
▁method	-8.98862
▁string	-8.99162
技术	-8.9919
▁become	-8.99254
▁line	-8.99468
▁current	-8.99832
In	-8.99872
Object	-9.00099
▁&&	-9.00163
▁patients	-9.00196
left	-9.00269
▁off	-9.00315
▁available	-9.00336
▁social	-9.00367
▁early	-9.0073
▁University	-9.01016
up	-9.01352
input	-9.01574
▁look	-9.01681
▁{	-9.02028
▁range	-9.0208
▁several	-9.02141
▁say	-9.02238
▁come	-9.02699
▁///	-9.02809
▁E	-9.03165
▁treatment	-9.03252
▁cause	-9.03292
▁final	-9.03607
of	-9.03646
▁blood	-9.03927
start	-9.0435
']	-9.04418
▁always	-9.04497
▁learning	-9.04579
▁little	-9.04755
问题	-9.04803
app	-9.04928
▁based	-9.04968
right	-9.04973
▁local	-9.0532
▁due	-9.05433
▁American	-9.05504
▁going	-9.05847
▁home	-9.05954
月	-9.06062
▁low	-9.0609
Set	-9.06151
新	-9.06225
table	-9.06278
');	-9.0643
国家	-9.06527
▁**	-9.06576
J	-9.06768
form	-9.06803
▁family	-9.06994
Exception	-9.07363
info	-9.0737
▁next	-9.07374
▁second	-9.0796
));	-9.08035
Service	-9.08067
▁include	-9.08171
▁history	-9.08303
▁times	-9.08455
error	-9.08484
研究	-9.08836
▁key	-9.08995
系统	-9.0931
▁One	-9.09437
▁err	-9.09513
工作	-9.09572
><	-9.0958
map	-9.09686
,”	-9.0988
法	-9.0994
▁show	-9.1001
le	-9.10234
▁An	-9.10338
▁language	-9.10372
▁above	-9.10402
define	-9.10556
▁R	-9.10678
▁try	-9.11012
api	-9.11042
▁until	-9.11183
▁care	-9.1151
▁specific	-9.11663
de	-9.11678
url	-9.11737
▁nil	-9.11738
str	-9.11756
▁government	-9.11802
被	-9.11915
可以	-9.12072
db	-9.12109
于	-9.12417
net	-9.12488
由	-9.12723
来	-9.12789
▁levels	-9.12805
▁never	-9.12969
以及	-9.1312
▁left	-9.13409
▁changes	-9.13464
可	-9.13468
▁why	-9.13499
▁project	-9.13601
js	-9.13805
▁let	-9.13809
▁give	-9.13824
Q	-9.13968
▁start	-9.14103
el	-9.14131
教育	-9.14407
▁light	-9.14586
em	-9.14609
▁others	-9.14614
但	-9.14829
＂	-9.14866
▁keep	-9.15075
▁making	-9.15317
state	-9.15524
)	-9.15558
▁##	-9.15574
▁either	-9.15762
▁fact	-9.15978
使用	-9.16184
用	-9.16247
▁done	-9.16336
▁error	-9.16381
▁days	-9.16602
model	-9.16639
化	-9.16684
▁That	-9.16805
content	-9.16811
▁open	-9.16824
▁present	-9.16904
▁among	-9.16976
())	-9.17072
▁On	-9.17139
作为	-9.17211
▁least	-9.17409
▁species	-9.17421
▁United	-9.17809
▁G	-9.17934
width	-9.18009
▁problems	-9.18085
数据	-9.18321
▁func	-9.18478
ic	-9.18481
▁J	-9.18535
▁*/	-9.18566
▁sure	-9.18627
 	-9.1874
▁Some	-9.18752
▁conditions	-9.18932
▁says	-9.19019
▁areas	-9.19123
▁already	-9.19179
ar	-9.19244
▁higher	-9.1952
by	-9.19586
具有	-9.19607
";	-9.1961
create	-9.19679
core	-9.19739
▁source	-9.1976
ation	-9.19769
];	-9.19817
▁country	-9.19889
一个	-9.20021
▁increase	-9.20273
link	-9.20363
▁field	-9.20403
length	-9.20557
▁later	-9.20599
▁having	-9.20704
▁main	-9.20846
▁run	-9.21159
▁free	-9.21323
▁et	-9.21484
function	-9.21544
▁experience	-9.21589
▁response	-9.21632
':	-9.2165
▁list	-9.21676
▁working	-9.21852
▁role	-9.2186
State	-9.21882
Request	-9.21912
▁required	-9.21921
all	-9.22116
管理	-9.22158
top	-9.22201
实现	-9.22363
▁likely	-9.22364
▁single	-9.22465
md	-9.22494
ch	-9.22681
begin	-9.22842
▁At	-9.22846
▁systems	-9.22854
▁enough	-9.22889
▁All	-9.2299
▁lot	-9.23221
▁require	-9.23264
go	-9.23339
所	-9.23353
▁href	-9.23655
View	-9.23709
▁various	-9.23822
▁text	-9.23837
▁natural	-9.23909
建设	-9.23943
▁needs	-9.24277
▁God	-9.24523
image	-9.24621
▁future	-9.24756
者	-9.24788
▁course	-9.24937
▁read	-9.25237
▁side	-9.25394
node	-9.25433
▁N	-9.25484
▁program	-9.25519
下	-9.25582
▁full	-9.25745
title	-9.25786
err	-9.25824
▁whether	-9.25835
如	-9.25877
▁understand	-9.25949
▁access	-9.2607
);	-9.26188
▁far	-9.264
▁feel	-9.26415
col	-9.26547
▁four	-9.26856
需要	-9.27057
[]	-9.27104
多	-9.27157
Key	-9.27462
▁together	-9.2757
based	-9.2758
ul	-9.27877
向	-9.27918
max	-9.28074
val	-9.2816
▁old	-9.28556
num	-9.28568
group	-9.28687
▁studies	-9.28749
▁away	-9.28803
▁States	-9.28817
request	-9.28843
社会	-9.2886
])	-9.28934
▁book	-9.28936
lib	-9.29031
▁System	-9.29033
▁similar	-9.29281
▁age	-9.29334
ism	-9.29373
const	-9.29395
Info	-9.29555
▁environment	-9.2962
▁learn	-9.29649
▁space	-9.29664
());	-9.29778
▁By	-9.29849
▁String	-9.29855
▁across	-9.29872
Text	-9.30019
▁air	-9.30054
ref	-9.30067
▁effects	-9.30122
▁object	-9.30269
▁along	-9.30315
就	-9.30518
▁real	-9.30542
三	-9.30625
经济	-9.30639
会	-9.30686
Node	-9.30842
我国	-9.30876
▁community	-9.30897
▁effect	-9.30909
▁again	-9.3101
▁put	-9.31011
▁usually	-9.31046
▁});	-9.3108
因此	-9.31092
▁cases	-9.31351
▁H	-9.31617
▁general	-9.31668
';	-9.3176
st	-9.3185
▁question	-9.31852
▁analysis	-9.31956
日	-9.31982
▁play	-9.32115
▁though	-9.32357
▁K	-9.32472
▁men	-9.32559
ion	-9.32834
▁however	-9.32868
▁population	-9.33101
}}	-9.33247
▁education	-9.33359
▁major	-9.33363
▁potential	-9.33379
▁makes	-9.33418
▁able	-9.33469
len	-9.33481
py	-9.33482
▁L	-9.33491
▁National	-9.33531
▁further	-9.33571
php	-9.33593
Context	-9.33798
▁values	-9.33806
un	-9.33854
▁period	-9.34034
我们	-9.34201
▁cancer	-9.34242
result	-9.34348
▁words	-9.34382
▁hand	-9.34384
▁significant	-9.34458
Map	-9.34464
▁actually	-9.34497
▁technology	-9.34836
array	-9.34967
▁After	-9.35003
User	-9.35076
▁###	-9.35157
▁types	-9.35421
▁While	-9.35501
summary	-9.35558
▁No	-9.357
信息	-9.35789
▁lower	-9.35814
▁certain	-9.35816
Time	-9.35847
▁word	-9.35964
▁associated	-9.36083
▁cell	-9.36152
button	-9.3627
Size	-9.36289
Path	-9.36402
}{	-9.36562
ity	-9.36615
Response	-9.36652
date	-9.36822
▁doesn	-9.36897
▁below	-9.36902
▁amount	-9.3694
Model	-9.37126
制度	-9.37199
true	-9.37284
▁once	-9.37293
把	-9.37458
▁color	-9.37888
▁design	-9.37904
▁seen	-9.38127
▁content	-9.38173
▁size	-9.38259
src	-9.38316
img	-9.38322
▁today	-9.38373
▁License	-9.38478
▁paper	-9.38499
field	-9.38511
▁especially	-9.3858
▁position	-9.38661
script	-9.38753
高	-9.38872
▁heart	-9.38898
be	-9.39291
with	-9.39331
▁short	-9.3946
▁thing	-9.39496
▁<<	-9.39565
▁lead	-9.39699
▁total	-9.39813
▁percent	-9.39897
学	-9.3993
▁English	-9.40049
要求	-9.40194
都	-9.40343
▁activity	-9.40406
▁}	-9.40409
▁individual	-9.40447
▁brain	-9.40569
row	-9.40911
▁game	-9.41103
▁rate	-9.41105
bar	-9.41312
▁whole	-9.41518
{\	-9.41597
gt	-9.41643
使	-9.41785
▁law	-9.41978
▁groups	-9.42142
▁countries	-9.42164
▁production	-9.42284
▁team	-9.42354
即	-9.42434
▁rather	-9.427
▁addition	-9.43029
base	-9.43238
status	-9.43574
▁version	-9.43768
▁physical	-9.44001
▁mean	-9.44002
▁issues	-9.44093
box	-9.44358
▁user	-9.44416
这些	-9.44469
分析	-9.44503
▁growth	-9.44615
组织	-9.44629
▁plant	-9.4474
▁million	-9.44794
文化	-9.44821
▁cannot	-9.44877
bin	-9.45034
▁knowledge	-9.45055
body	-9.45177
▁created	-9.45196
▁quality	-9.45316
from	-9.45336
该	-9.45497
ness	-9.45546
▁ways	-9.45693
age	-9.45801
▁simple	-9.45858
对于	-9.45864
能力	-9.46175
▁•	-9.46194
["	-9.46361
client	-9.46606
Index	-9.46618
▁She	-9.46618
包括	-9.46682
▁past	-9.46689
▁image	-9.46823
my	-9.46869
▁action	-9.47093
▁impact	-9.47245
▁top	-9.47294
▁increased	-9.4746
无	-9.47681
▁young	-9.47711
case	-9.47725
▁build	-9.47929
▁post	-9.47964
▁needed	-9.48101
▁approach	-9.48146
▁call	-9.48167
提供	-9.48302
▁With	-9.4844
▁surface	-9.48491
服务	-9.48564
Code	-9.48656
ist	-9.48997
Item	-9.49325
▁live	-9.49481
▁considered	-9.49697
▁service	-9.49808
filename	-9.4997
default	-9.50009
▁echo	-9.50094
count	-9.50163
学生	-9.50187
▁idea	-9.50231
post	-9.50239
▁};	-9.50395
▁came	-9.50404
not	-9.50485
▁hard	-9.50555
▁particular	-9.50561
出	-9.50631
▁resources	-9.50689
▁background	-9.50699
do	-9.50725
▁thought	-9.50746
java	-9.50801
▁sub	-9.50891
less	-9.50917
sh	-9.50958
▁check	-9.50966
▁upon	-9.51086
um	-9.51114
▁print	-9.51186
▁got	-9.51192
▁death	-9.51251
message	-9.51271
▁symptoms	-9.51275
二	-9.51314
][	-9.51384
▁factors	-9.51698
init	-9.51753
dir	-9.51788
▁report	-9.51871
▁became	-9.5204
▁man	-9.5205
(),	-9.52281
▁plants	-9.52324
one	-9.52587
或者	-9.5259
▁writing	-9.52593
Message	-9.527
▁context	-9.52744
中的	-9.52785
▁century	-9.52865
▁shown	-9.52919
"></	-9.52997
▁taken	-9.5306
…	-9.53096
Field	-9.53114
▁money	-9.53129
提高	-9.53203
▁methods	-9.53306
不同	-9.53372
▁building	-9.53491
▁Dr	-9.53521
format	-9.53523
▁developed	-9.53568
▁city	-9.53606
▁reduce	-9.53633
▁article	-9.53634
▁doing	-9.53722
page	-9.53753
▁terms	-9.53783
▁months	-9.53938
▁questions	-9.53941
方法	-9.53945
▁white	-9.53972
▁works	-9.54045
Config	-9.54052
da	-9.54055
▁am	-9.54076
This	-9.54084
){	-9.54091
▁material	-9.54255
▁package	-9.5432
▁yet	-9.54323
util	-9.54379
Class	-9.54401
▁story	-9.54414
▁code	-9.54508
▁Here	-9.54522
op	-9.54571
▁break	-9.54661
New	-9.54768
应	-9.54817
▁understanding	-9.54837
view	-9.54907
version	-9.5491
▁provided	-9.54977
ne	-9.54985
▁structure	-9.54993
▁site	-9.5504
▁O	-9.55042
则	-9.55052
能	-9.55092
▁activities	-9.55106
▁default	-9.55159
co	-9.55297
▁evidence	-9.5539
▁global	-9.55449
te	-9.55457
▁land	-9.55515
▁pressure	-9.55532
▁view	-9.55649
append	-9.55682
gh	-9.55828
main	-9.55897
▁clear	-9.55986
▁products	-9.56181
▁style	-9.56347
网络	-9.56466
object	-9.56652
▁reason	-9.56698
Add	-9.56743
▁black	-9.56747
同时	-9.56873
水	-9.56878
It	-9.57283
▁almost	-9.57318
▁positive	-9.57356
use	-9.57425
▁answer	-9.57432
▁"""	-9.57445
▁World	-9.57533
▁develop	-9.57618
▁loss	-9.57689
这	-9.57702
▁related	-9.57706
res	-9.57784
▁add	-9.57886
更	-9.57897
Event	-9.57964
▁according	-9.58038
rs	-9.58426
\\	-9.58493
Array	-9.58549
▁etc	-9.58618
▁war	-9.58755
说	-9.58766
source	-9.5886
▁medical	-9.58866
▁skills	-9.58926
Client	-9.58945
▁pain	-9.58967
For	-9.59007
na	-9.59094
▁effective	-9.59125
▁cost	-9.59128
▁necessary	-9.59147
read	-9.59203
▁expect	-9.59471
▁comes	-9.59479
▁someone	-9.59518
▁getting	-9.59629
▁five	-9.59697
▁practice	-9.59735
align	-9.6003
▁shows	-9.6003
header	-9.60189
▁software	-9.60231
▁multiple	-9.60235
▁page	-9.60254
▁business	-9.60292
Image	-9.60355
▁fun	-9.60388
open	-9.60472
根据	-9.60498
▁kind	-9.60515
block	-9.6064
▁Do	-9.6067
height	-9.60691
▁science	-9.60783
▁itself	-9.60798
▁provides	-9.60835
方式	-9.60846
公司	-9.60872
▁instead	-9.60954
▁training	-9.60968
▁themselves	-9.60992
图	-9.61034
▁event	-9.61075
style	-9.6108
▁array	-9.61402
see	-9.61556
▁sense	-9.61556
▁ever	-9.6187
void	-9.61887
自	-9.61936
▁normal	-9.61989
dev	-9.62037
内	-9.62084
▁output	-9.62171
event	-9.62207
stars	-9.62287
▁took	-9.62374
Title	-9.62387
msg	-9.62512
▁rights	-9.62551
▁close	-9.62562
like	-9.626
▁management	-9.62622
▁half	-9.62764
ca	-9.62778
形成	-9.62895
▁allow	-9.6291
▁nature	-9.62982
term	-9.63128
▁probably	-9.63137
它	-9.63247
▁Re	-9.63284
▁W	-9.63346
理论	-9.63398
政府	-9.6342
▁states	-9.63437
▁love	-9.63538
We	-9.6362
没有	-9.63694
▁improve	-9.63738
ms	-9.63842
commit	-9.63856
▁services	-9.63867
学习	-9.63879
Count	-9.63887
这种	-9.63947
/*	-9.64093
设计	-9.6411
▁skin	-9.6419
▁original	-9.6428
fa	-9.64361
关系	-9.64373
With	-9.64626
本	-9.64719
Table	-9.64824
▁mind	-9.64837
▁move	-9.64905
个	-9.65113
▁near	-9.65114
▁living	-9.65228
▁region	-9.65245
▁__	-9.65311
args	-9.65439
▁performance	-9.65612
▁step	-9.65784
▁hours	-9.6586
▁difficult	-9.65907
Base	-9.66461
▁company	-9.66508
▁taking	-9.66554
▁matter	-9.66562
▁War	-9.66637
▁condition	-9.6676
▁longer	-9.6681
推动	-9.66832
▁parts	-9.66898
利用	-9.66903
▁materials	-9.67029
}	-9.67137
System	-9.67167
pre	-9.67424
▁average	-9.67465
ant	-9.67499
市场	-9.67581
环境	-9.67673
▁head	-9.67748
update	-9.67782
▁members	-9.67861
点	-9.67897
▁healthy	-9.679
▁climate	-9.67962
▁target	-9.68028
资源	-9.68102
No	-9.68382
▁My	-9.684
Result	-9.68492
结构	-9.68524
▁$\	-9.68583
▁plan	-9.68625
▁individuals	-9.68634
▁easy	-9.68641
▁compared	-9.68683
主要	-9.68744
▁pre	-9.68756
Is	-9.68757
year	-9.68826
▁numbers	-9.689
}\	-9.68978
▁published	-9.69085
▁temperature	-9.69123
▁weight	-9.69305
▁added	-9.6933
▁ability	-9.69344
▁turn	-9.69378
▁prevent	-9.69378
▁network	-9.69428
▁points	-9.69498
▁input	-9.69502
▁complex	-9.69541
▁product	-9.69549
▁application	-9.6958
▁message	-9.69676
sub	-9.69692
当	-9.69805
context	-9.69873
成为	-9.69898
▁options	-9.69904
Manager	-9.69977
体系	-9.7016
▁political	-9.702
▁V	-9.7039
▁strong	-9.7041
null	-9.70594
me	-9.70595
小	-9.70714
▁complete	-9.70884
▁animals	-9.70934
ment	-9.71012
et	-9.71045
▁America	-9.71115
▁parents	-9.71146
▁student	-9.71182
安全	-9.71259
就是	-9.71309
▁believe	-9.7136
mm	-9.71461
pos	-9.715
Status	-9.71501
▁expected	-9.71503
▁included	-9.71574
▁started	-9.71628
▁—	-9.71634
run	-9.7177
▁Many	-9.71779
▁researchers	-9.7185
▁recent	-9.71965
前	-9.72031
query	-9.72032
第	-9.72035
service	-9.72045
▁reading	-9.72073
▁online	-9.72104
▁solution	-9.72379
▁didn	-9.72453
▁Health	-9.72536
▁events	-9.72595
▁standard	-9.7268
Element	-9.72764
▁week	-9.72782
分	-9.72938
let	-9.72944
▁looking	-9.73034
▁South	-9.73185
标准	-9.73202
df	-9.73229
▁border	-9.73243
response	-9.73249
▁produce	-9.73409
建立	-9.73465
必须	-9.73479
▁continue	-9.73513
法律	-9.73628
_{	-9.73658
else	-9.73665
▁written	-9.73748
由于	-9.73765
▁anything	-9.73842
▁economic	-9.73877
▁width	-9.73921
lt	-9.7393
false	-9.74001
land	-9.74015
保护	-9.74246
per	-9.74379
▁Your	-9.74524
活动	-9.74553
项目	-9.74568
▁std	-9.74658
ma	-9.74688
Number	-9.7488
▁difference	-9.74918
▁big	-9.74925
▁account	-9.7498
▁Although	-9.75007
▁subject	-9.75011
▁computer	-9.75029
build	-9.75062
能够	-9.75089
▁built	-9.75227
▁ensure	-9.75291
son	-9.75459
▁simply	-9.75465
▁face	-9.75478
▁instance	-9.75493
font	-9.75533
▁Most	-9.75572
ization	-9.75661
Color	-9.75663
▁national	-9.75699
current	-9.75794
▁seems	-9.75856
▁St	-9.75921
▁X	-9.75939
▁display	-9.75967
·	-9.76002
▁oil	-9.76012
est	-9.76189
byte	-9.76267
▁John	-9.76292
促进	-9.76292
实施	-9.76501
行为	-9.76534
png	-9.76603
外	-9.76628
▁His	-9.76647
▁la	-9.76713
Input	-9.76758
科学	-9.76788
▁US	-9.76803
check	-9.76807
▁margin	-9.76832
▁Now	-9.76916
({	-9.7697
ian	-9.76994
▁personal	-9.77035
True	-9.77038
▁series	-9.77052
▁modern	-9.77086
▁job	-9.77162
"]	-9.77246
target	-9.77347
▁special	-9.77389
▁damage	-9.77515
ate	-9.77532
▁focus	-9.77557
创新	-9.77586
▁tell	-9.77634
▁greater	-9.7765
▁interest	-9.778
▁height	-9.77821
output	-9.77932
ia	-9.77987
▁behavior	-9.77995
▁Then	-9.78057
write	-9.7824
▁gas	-9.78254
应用	-9.78265
ctx	-9.78357
server	-9.7839
子	-9.78433
▁base	-9.7854
If	-9.7859
▁soil	-9.78748
▁patient	-9.7875
▁reported	-9.78828
▁},	-9.78879
▁began	-9.78909
生产	-9.78912
level	-9.78919
机制	-9.79011
▁address	-9.79081
影响	-9.79086
▁outside	-9.79132
▁request	-9.7921
And	-9.79235
float	-9.7924
Server	-9.79298
▁throughout	-9.79438
▁export	-9.79496
▁caused	-9.79503
▁java	-9.79517
▁York	-9.79613
▁North	-9.7979
▁consider	-9.7986
▁force	-9.79891
▁went	-9.79897
ad	-9.79953
day	-9.79957
▁trying	-9.79967
如果	-9.79967
▁title	-9.7997
am	-9.79972
▁Research	-9.80064
▁write	-9.80075
▁industry	-9.80214
></	-9.80229
port	-9.80279
▁uses	-9.80493
arg	-9.80535
ton	-9.80559
▁market	-9.80648
作用	-9.80681
又	-9.80737
▁font	-9.80799
▁house	-9.80925
})	-9.81021
功能	-9.81062
il	-9.8111
已	-9.81114
ce	-9.81157
家	-9.81161
产品	-9.81239
im	-9.81263
▁involved	-9.81332
btn	-9.81427
▁expression	-9.8153
number	-9.81641
▁designed	-9.81655
控制	-9.81733
▁benefits	-9.8175
From	-9.81852
模式	-9.81944
政治	-9.82028
▁follow	-9.82146
▁society	-9.82203
▁Earth	-9.82232
▁additional	-9.82249
▁sometimes	-9.82393
▁ground	-9.82411
▁allows	-9.82434
方面	-9.82476
▁Also	-9.82606
▁term	-9.8264
Group	-9.82644
还	-9.82721
Page	-9.82722
▁heat	-9.82798
On	-9.82853
▁quite	-9.8291
▁stress	-9.8292
型	-9.82935
政策	-9.83032
权	-9.83159
▁avoid	-9.83161
▁determine	-9.83167
提出	-9.83232
▁essential	-9.83327
▁center	-9.83434
position	-9.83513
▁takes	-9.84101
▁directly	-9.84298
▁negative	-9.84324
gen	-9.84334
▁features	-9.84368
▁double	-9.84396
他	-9.84565
▁bit	-9.84692
加强	-9.84775
▁attention	-9.84788
Int	-9.84849
▁includes	-9.84866
推进	-9.84892
first	-9.84939
▁models	-9.84949
icon	-9.84952
▁anti	-9.84963
ui	-9.84978
▁org	-9.85045
▁inside	-9.85107
uint	-9.85169
▁Our	-9.85193
▁relationship	-9.8527
▁sleep	-9.85292
▁bad	-9.85298
▁causes	-9.85316
▁elements	-9.85413
next	-9.85637
▁property	-9.857
▁defined	-9.85786
▁basic	-9.85809
▁May	-9.85908
国	-9.85933
▁bool	-9.86052
▁protein	-9.86071
相关	-9.86219
By	-9.8622
action	-9.86346
这一	-9.86428
▁lives	-9.86462
▁helps	-9.86478
find	-9.86497
>	-9.86526
▁Q	-9.86545
▁nothing	-9.86622
▁environmental	-9.86636
▁assert	-9.86705
last	-9.86739
产业	-9.86862
▁culture	-9.87052
▁red	-9.8707
▁OF	-9.8707
▁isn	-9.8714
▁tests	-9.87193
▁record	-9.87243
Of	-9.87245
Action	-9.87292
show	-9.87311
has	-9.87328
处理	-9.87491
options	-9.87495
▁British	-9.8756
▁thus	-9.87565
params	-9.87693
▁Since	-9.87735
类	-9.87869
URL	-9.87874
section	-9.87887
内容	-9.88002
▁easily	-9.88029
四	-9.88131
env	-9.88139
同	-9.88204
▁primary	-9.88208
长	-9.88211
▁generally	-9.88366
目标	-9.8839
体	-9.88488
▁review	-9.88524
▁De	-9.88541
各	-9.88581
Update	-9.88722
▁unique	-9.88768
▁therefore	-9.88778
历史	-9.88975
App	-9.89138
▁entire	-9.89152
▁sources	-9.89167
center	-9.89225
非	-9.89229
力	-9.89304
认为	-9.89367
▁variety	-9.89394
old	-9.89394
▁particularly	-9.89561
Date	-9.89582
▁useful	-9.89592
select	-9.89607
▁command	-9.89638
时间	-9.89664
▁everything	-9.89804
lang	-9.89866
▁contains	-9.89953
▁via	-9.90009
▁movement	-9.90188
▁night	-9.90305
▁music	-9.90345
Create	-9.90431
private	-9.90457
▁video	-9.90477
char	-9.90515
区	-9.90569
bottom	-9.90606
▁According	-9.90656
▁super	-9.90668
过程	-9.90752
▁previous	-9.90889
ized	-9.91071
▁ago	-9.91076
支持	-9.91085
不能	-9.9115
▁http	-9.91225
▁||	-9.91331
领域	-9.91361
▁co	-9.91387
search	-9.91391
put	-9.91442
▁stop	-9.91454
天	-9.9154
▁policy	-9.91569
▁memory	-9.9159
▁won	-9.91623
▁contact	-9.91638
▁device	-9.91675
amp	-9.91765
▁rest	-9.91805
back	-9.91807
▁situation	-9.91826
ie	-9.91881
▁India	-9.91897
Override	-9.92006
tag	-9.92022
美国	-9.92101
▁mass	-9.92119
frac	-9.92222
文	-9.92347
Log	-9.92387
${	-9.92427
▁produced	-9.92461
▁theory	-9.9251
▁From	-9.92524
成	-9.92664
这个	-9.92735
ts	-9.92741
▁schools	-9.92748
▁First	-9.9281
好	-9.92831
▁described	-9.92852
提升	-9.92892
世界	-9.93003
root	-9.93007
▁car	-9.93015
▁running	-9.93205
é	-9.9326
行	-9.93269
▁programs	-9.93302
:	-9.93323
▁date	-9.93347
▁received	-9.93362
active	-9.93368
▁share	-9.93398
▁lines	-9.93407
▁Is	-9.93421
量	-9.93447
▁diet	-9.9348
tr	-9.93483
▁safety	-9.93521
基础	-9.93583
改革	-9.93699
▁properties	-9.93747
DB	-9.93759
▁six	-9.93907
▁China	-9.93949
水平	-9.93989
images	-9.94003
▁tree	-9.94068
▁larger	-9.94234
%;	-9.94255
已经	-9.9426
order	-9.94314
教师	-9.9438
▁kids	-9.94464
br	-9.94479
la	-9.94492
关于	-9.94513
▁task	-9.94603
风险	-9.94614
obj	-9.94624
▁status	-9.94667
pt	-9.94718
std	-9.94733
ac	-9.94764
▁third	-9.94767
▁→	-9.94807
▁table	-9.94813
head	-9.94855
规定	-9.94901
▁None	-9.9495
"><	-9.94989
▁popular	-9.9501
教学	-9.95061
▁auto	-9.95136
其中	-9.9519
▁French	-9.95192
让	-9.95305
▁forms	-9.95367
Line	-9.95377
▁sound	-9.95382
push	-9.95387
local	-9.95473
men	-9.95492
menu	-9.95619
▁functions	-9.9562
其他	-9.95627
▁towards	-9.95641
filter	-9.9584
▁element	-9.95886
****************	-9.9592
ies	-9.95927
Method	-9.96029
ine	-9.96108
All	-9.96117
▁minutes	-9.9614
load	-9.96364
free	-9.96372
▁val	-9.96427
▁developing	-9.96589
▁except	-9.96593
因	-9.96731
部分	-9.96777
▁mental	-9.96878
td	-9.96905
▁art	-9.96916
Controller	-9.96922
▁flow	-9.96961
▁told	-9.9697
Content	-9.97076
▁late	-9.97134
container	-9.97135
▁safe	-9.97166
▁THE	-9.97231
▁fire	-9.97261
▁solid	-9.97265
option	-9.97307
▁behind	-9.97313
▁files	-9.9738
Version	-9.97444
基于	-9.97739
▁character	-9.97789
▁highly	-9.97839
比	-9.97872
▁OR	-9.9797
▁Not	-9.9803
保障	-9.98035
如何	-9.98188
sum	-9.9835
▁Let	-9.98422
▁grow	-9.98436
工程	-9.98578
▁critical	-9.98636
token	-9.98653
▁media	-9.98661
ED	-9.98688
▁active	-9.98701
▁animal	-9.98705
▁daily	-9.98736
▁occur	-9.9875
pi	-9.98789
坚持	-9.98812
so	-9.98826
▁sea	-9.98902
开展	-9.99002
▁During	-9.99002
▁requires	-9.99006
▁block	-9.99106
struct	-9.99126
▁See	-9.99158
▁speed	-9.99204
scale	-9.99209
存在	-9.99239
▁section	-9.99242
print	-9.99265
▁quickly	-9.99294
▁wrong	-9.99307
▁ideas	-9.99308
▁Science	-9.99354
▁Even	-9.99429
▁feet	-9.99522
AS	-9.99585
▁Use	-9.99608
▁protect	-9.99616
最	-9.99754
生	-9.99756
off	-9.99801
Command	-9.9983
数	-9.99845
Button	-9.99863
ip	-9.99929
投资	-9.99974
式	-9.99978
ry	-10.0004
media	-10.0012
▁weeks	-10.0018
合作	-10.002
▁growing	-10.0032
Point	-10.0037
▁copy	-10.0041
▁security	-10.0042
Task	-10.0043
▁currently	-10.0043
doc	-10.0045
国际	-10.0048
▁tools	-10.0062
▁pay	-10.0067
名	-10.007
▁path	-10.0072
google	-10.0074
▁limited	-10.0077
▁everyone	-10.0084
解决	-10.0084
一些	-10.0098
▁identify	-10.0098
但是	-10.01
he	-10.0108
农业	-10.0118
▁offer	-10.0124
价值	-10.0127
▁leading	-10.0135
▁showed	-10.0151
▁author	-10.0161
web	-10.0167
▁lack	-10.0182
reponame	-10.0183
▁location	-10.0185
▁poor	-10.019
css	-10.0191
▁document	-10.0191
▁resource	-10.0197
应当	-10.0201
▁[]	-10.0203
▁eye	-10.021
▁traditional	-10.0212
知识	-10.0212
▁infection	-10.0217
▁international	-10.0223
▁bring	-10.0232
发生	-10.0235
ary	-10.0253
▁carbon	-10.0261
▁seem	-10.0262
ir	-10.0262
ally	-10.0268
▁lost	-10.0277
▁cut	-10.0278
模型	-10.0289
▁More	-10.0295
▁Get	-10.03
▁ask	-10.0302
期	-10.0309
▁Can	-10.031
实践	-10.0317
▁search	-10.0319
▁beginning	-10.0324
▁influence	-10.033
城市	-10.0331
▁applications	-10.0336
auto	-10.0342
▁significantly	-10.0347
master	-10.035
▁purpose	-10.0357
▁correct	-10.0362
细胞	-10.0364
▁whose	-10.037
▁direct	-10.0374
▁School	-10.0375
▁users	-10.038
▁thinking	-10.0395
着	-10.04
▁module	-10.04
▁companies	-10.0411
不断	-10.0413
▁affect	-10.0418
Query	-10.0421
API	-10.0421
▁/>	-10.0422
▁although	-10.0425
Output	-10.0433
▁observed	-10.0434
▁room	-10.0443
▁factor	-10.0445
重	-10.0446
思想	-10.0454
▁processes	-10.0457
▁Europe	-10.0458
心	-10.046
home	-10.046
▁teachers	-10.0463
给	-10.0465
基本	-10.0465
▁decision	-10.047
▁scientists	-10.0472
▁appropriate	-10.0475
▁meaning	-10.0487
选择	-10.0491
▁protected	-10.0494
▁Other	-10.0495
条件	-10.0496
▁overall	-10.0505
join	-10.0505
发现	-10.0515
example	-10.0519
▁soon	-10.052
▁held	-10.0521
Entity	-10.0522
▁creating	-10.0529
增加	-10.0535
▁pass	-10.0535
▁Why	-10.0537
▁objects	-10.054
red	-10.0544
▁exercise	-10.0551
ra	-10.0554
control	-10.0556
▁asked	-10.0569
▁constant	-10.0578
Options	-10.0583
平台	-10.0584
ent	-10.0586
▁established	-10.0588
▁namespace	-10.0602
直接	-10.0606
▁distribution	-10.0607
▁fish	-10.0607
▁goal	-10.0612
▁sample	-10.0617
call	-10.0621
▁NULL	-10.0625
▁European	-10.0632
我	-10.0633
▁foods	-10.0633
before	-10.0638
Source	-10.0641
执行	-10.0643
long	-10.066
▁Be	-10.0661
project	-10.0663
ling	-10.0663
▁yourself	-10.0666
需求	-10.0669
Handler	-10.0676
▁diseases	-10.0677
Block	-10.0677
制	-10.0678
▁friends	-10.0686
▁stage	-10.0687
▁gives	-10.0691
Component	-10.0691
▁initial	-10.0695
▁contain	-10.0697
专业	-10.0714
▁padding	-10.0715
spec	-10.0719
目前	-10.0721
▁completely	-10.0737
▁success	-10.0737
产生	-10.0738
也是	-10.075
▁Co	-10.075
他们	-10.076
▁tool	-10.0772
▁Because	-10.0776
Form	-10.0781
Builder	-10.0782
▁devices	-10.0785
Mode	-10.0788
▁act	-10.0792
led	-10.0802
ating	-10.0809
method	-10.0811
可能	-10.0814
mo	-10.0819
ta	-10.0821
alpha	-10.0822
docs	-10.0828
range	-10.083
([	-10.0837
▁actual	-10.0848
空间	-10.0857
▁root	-10.0864
▁choose	-10.0864
部	-10.0869
°	-10.0874
▁saw	-10.0876
▁eat	-10.0887
▁please	-10.0888
之间	-10.0892
▁financial	-10.0901
▁wide	-10.0901
Resource	-10.0904
经	-10.0905
ext	-10.0924
after	-10.0926
▁increasing	-10.0942
例如	-10.0948
▁communities	-10.0955
ha	-10.0964
point	-10.097
物	-10.0973
工业	-10.0976
email	-10.0981
▁testing	-10.0984
▁rates	-10.0984
▁unit	-10.0986
设备	-10.0989
道	-10.0993
{}	-10.0997
▁communication	-10.1004
▁distance	-10.1007
▁changed	-10.1009
▁${	-10.1013
author	-10.1013
tmp	-10.1015
光	-10.1017
▁applied	-10.1021
▁distributed	-10.1021
▁hope	-10.1028
▁central	-10.1029
▁techniques	-10.1034
新的	-10.1036
ro	-10.1042
▁deep	-10.1043
▁details	-10.1049
传统	-10.1055
▁himself	-10.1059
采用	-10.1064
▁die	-10.1066
▁performed	-10.1069
▁books	-10.1073
▁existing	-10.1076
tab	-10.108
▁collection	-10.1092
▁month	-10.1093
两	-10.1096
ty	-10.1111
▁deal	-10.1112
▁"$	-10.1116
weight	-10.1117
▁followed	-10.1117
▁describe	-10.1119
相	-10.1122
▁goes	-10.1124
论	-10.1131
▁∷	-10.1132
▁allowed	-10.1138
参与	-10.1147
You	-10.1148
▁server	-10.1154
▁State	-10.1162
▁shall	-10.1162
▁front	-10.1164
▁argument	-10.1168
▁receive	-10.1169
▁steps	-10.1178
stream	-10.1198
se	-10.1208
▁green	-10.1213
▁leave	-10.1217
▁scale	-10.1236
▁appear	-10.1238
至	-10.1245
▁length	-10.1248
▁differences	-10.1251
▁military	-10.1253
static	-10.1257
▁led	-10.1259
结合	-10.1261
ol	-10.1261
admin	-10.1269
▁therapy	-10.1271
▁supply	-10.1274
▁scientific	-10.1274
▁importance	-10.1286
mi	-10.1291
card	-10.1291
▁reference	-10.1292
▁remove	-10.1295
▁catch	-10.1299
▁node	-10.1299
Property	-10.131
低	-10.1321
结果	-10.1324
▁measure	-10.1325
▁regular	-10.1327
As	-10.1333
▁map	-10.1334
机构	-10.1336
正	-10.1342
精神	-10.1346
Token	-10.1354
▁talk	-10.1361
dict	-10.1365
ge	-10.1366
▁becomes	-10.1373
ive	-10.1374
▁interface	-10.1375
全球	-10.1376
common	-10.1378
▁clinical	-10.1379
▁trees	-10.1383
border	-10.1394
▁humans	-10.1395
","	-10.1401
Function	-10.1402
完善	-10.1402
▁basis	-10.1403
▁sent	-10.1403
▁throw	-10.1404
▁exist	-10.1411
▁reach	-10.1412
▁recently	-10.1412
随着	-10.1412
▁Center	-10.1415
None	-10.1417
过	-10.142
▁March	-10.1421
▁machine	-10.1424
▁release	-10.1432
▁rules	-10.1445
▁struct	-10.1453
▁multi	-10.1454
description	-10.1458
▁hands	-10.1466
(&	-10.1467
}$	-10.1475
ng	-10.1476
store	-10.1479
▁eyes	-10.1492
山	-10.1493
ok	-10.1498
▁costs	-10.1503
情况	-10.1511
率	-10.1515
▁anyone	-10.1517
related	-10.1517
gl	-10.1519
值	-10.1519
▁visit	-10.1526
ter	-10.1529
▁brought	-10.1538
lo	-10.1541
▁presence	-10.1551
nd	-10.1556
▁German	-10.1557
▁Institute	-10.1565
▁website	-10.1567
▁middle	-10.157
▁typically	-10.157
构建	-10.1572
▁rule	-10.1574
▁spread	-10.1576
▁alone	-10.1576
▁fall	-10.1578
过程中	-10.1579
▁pretty	-10.1579
den	-10.1582
rm	-10.1582
▁reduced	-10.1587
▁connection	-10.1588
开始	-10.1593
def	-10.1602
▁meet	-10.1608
▁component	-10.162
▁equal	-10.1623
▁solar	-10.1627
▁relative	-10.1627
delete	-10.1636
▁families	-10.1641
▁International	-10.1643
ke	-10.1646
▁forward	-10.1651
where	-10.1653
nav	-10.1657
▁located	-10.1657
▁identified	-10.1663
meta	-10.1666
bit	-10.1667
▁none	-10.167
▁smaller	-10.1674
器	-10.1677
▁extends	-10.1683
▁Each	-10.1687
书	-10.1687
再	-10.169
▁places	-10.1691
▁update	-10.1692
▁images	-10.1692
▁II	-10.1702
assert	-10.1704
Access	-10.1707
度	-10.1709
▁drug	-10.1717
科技	-10.1718
▁passed	-10.172
ci	-10.1721
▁char	-10.1722
▁parameters	-10.1728
eq	-10.1733
rate	-10.1734
▁protection	-10.1735
tree	-10.1741
受	-10.1743
property	-10.1743
计划	-10.1745
▁teaching	-10.1746
▁fine	-10.1747
▁Thus	-10.175
▁app	-10.1763
endif	-10.1768
▁serious	-10.1772
▁remains	-10.1772
▁install	-10.1777
Default	-10.1783
▁Department	-10.1784
▁General	-10.1793
▁acid	-10.1793
▁hold	-10.1803
▁degree	-10.1805
金融	-10.1805
parse	-10.1807
方	-10.1813
▁nearly	-10.1818
▁providing	-10.1819
进一步	-10.1819
break	-10.1837
vector	-10.1839
▁option	-10.184
▁construction	-10.1843
way	-10.1843
mu	-10.1843
▁projects	-10.1845
有效	-10.1846
opt	-10.1848
各种	-10.1849
▁feature	-10.1858
Buffer	-10.1859
▁choice	-10.1863
做	-10.1866
去	-10.1871
因为	-10.1876
▁items	-10.1876
▁interesting	-10.1877
▁Another	-10.1877
▁reasons	-10.1883
成本	-10.1886
▁People	-10.1894
有关	-10.1899
ting	-10.1903
实验	-10.1903
▁older	-10.1909
▁save	-10.191
▁Africa	-10.1913
▁June	-10.1913
Start	-10.1914
▁wanted	-10.192
培养	-10.1927
农村	-10.1931
▁severe	-10.1931
▁California	-10.1933
▁mother	-10.1943
▁price	-10.1944
▁member	-10.1946
display	-10.195
▁concept	-10.1959
mode	-10.196
▁cover	-10.1962
]);	-10.1969
▁La	-10.1976
▁Act	-10.1985
▁West	-10.1994
原则	-10.1994
▁digital	-10.1996
▁note	-10.1999
close	-10.2
▁benefit	-10.2008
IP	-10.2008
未	-10.2008
▁internal	-10.201
which	-10.2013
变化	-10.2019
Stream	-10.2026
▁examples	-10.2029
▁shape	-10.203
▁successful	-10.2043
线	-10.2045
▁extra	-10.2053
战略	-10.2056
▁beyond	-10.2059
▁cross	-10.206
important	-10.2064
▁waste	-10.2068
▁woman	-10.2069
▁season	-10.2071
▁fields	-10.2082
▁sun	-10.2087
Re	-10.2102
apache	-10.2105
','	-10.2106
▁workers	-10.2112
▁boolean	-10.2117
▁remember	-10.2118
一种	-10.2132
五	-10.2135
▁moment	-10.2135
位	-10.2139
人民	-10.214
▁measures	-10.2148
▁clean	-10.2151
cm	-10.2151
address	-10.2153
▁np	-10.2155
▁pattern	-10.2169
▁variable	-10.2169
▁components	-10.2171
▁web	-10.2173
▁sites	-10.2176
cc	-10.2178
▁stay	-10.2178
▁games	-10.2179
parent	-10.218
全面	-10.218
从而	-10.2184
nbsp	-10.2184
材料	-10.2186
proto	-10.2188
任务	-10.2188
▁legal	-10.2193
xml	-10.2198
▁responsible	-10.2198
▁professional	-10.2199
▁leaves	-10.2211
▁coming	-10.2218
地区	-10.222
should	-10.2223
dd	-10.2223
▁Therefore	-10.2225
▁doctor	-10.2229
▁index	-10.2233
学校	-10.2235
host	-10.2237
▁fast	-10.2243
her	-10.2244
▁float	-10.2248
we	-10.2249
ee	-10.225
Order	-10.2263
阶段	-10.2264
▁birth	-10.2269
开	-10.2276
Factory	-10.2279
▁summer	-10.2284
▁April	-10.229
▁raise	-10.229
▁apply	-10.2291
ns	-10.2293
及其	-10.2294
的发展	-10.2301
看	-10.2302
▁largest	-10.2303
di	-10.2304
▁setting	-10.231
▁African	-10.2312
▁adults	-10.2314
军	-10.2318
▁affected	-10.2319
▁gene	-10.2321
出现	-10.2323
▁direction	-10.2328
train	-10.233
计算	-10.2332
▁dog	-10.2336
au	-10.2345
用户	-10.2346
程序	-10.2346
党	-10.2348
达到	-10.235
▁Once	-10.2351
▁operation	-10.2357
质量	-10.2357
起	-10.2366
▁ones	-10.2367
▁store	-10.2371
▁named	-10.2376
▁practices	-10.2379
sql	-10.2379
总	-10.238
rd	-10.2383
module	-10.2385
background	-10.2386
txt	-10.2388
里	-10.2389
▁trade	-10.239
得	-10.2394
Address	-10.2405
明	-10.2409
第一	-10.2412
开发	-10.2413
更加	-10.2421
▁ancient	-10.2423
一般	-10.2428
发	-10.243
▁proper	-10.2432
split	-10.2443
▁gave	-10.2451
pr	-10.2465
王	-10.2468
▁cold	-10.2475
ex	-10.2494
▁Using	-10.2503
是否	-10.2507
▁names	-10.2507
▁maintain	-10.2513
types	-10.2517
▁happen	-10.2522
作	-10.2525
▁saying	-10.2532
lock	-10.2538
特征	-10.2542
▁Of	-10.2547
session	-10.255
ber	-10.2557
▁src	-10.2558
▁volume	-10.2559
izing	-10.2565
流	-10.2565
▁exposure	-10.2566
sp	-10.2566
规划	-10.2567
▁Or	-10.257
▁attack	-10.2579
中心	-10.2579
▁History	-10.2579
▁Canada	-10.2584
save	-10.2584
Link	-10.2585
▁presented	-10.259
▁bacteria	-10.259
ri	-10.2593
行业	-10.2595
▁actions	-10.2596
▁died	-10.2596
课程	-10.2596
▁suggest	-10.26
▁efforts	-10.2601
▁July	-10.2602
▁obtain	-10.2618
▁earth	-10.262
入	-10.2644
work	-10.2646
▁worked	-10.2646
市	-10.2647
ff	-10.2649
▁tissue	-10.265
tar	-10.2654
生活	-10.266
cell	-10.2661
transform	-10.2663
形式	-10.2667
ted	-10.267
▁earlier	-10.2671
▁window	-10.2674
▁father	-10.2681
ret	-10.2684
自然	-10.2694
▁occurs	-10.2701
▁King	-10.2703
'],	-10.2718
git	-10.2718
比较	-10.2718
system	-10.2722
且	-10.2733
▁remain	-10.2737
ps	-10.2737
获得	-10.2741
得到	-10.2742
▁layer	-10.2748
▁cultural	-10.2753
▁England	-10.2754
▁starting	-10.276
product	-10.276
操作	-10.2763
层	-10.2769
气	-10.2771
区域	-10.2773
attr	-10.2775
cl	-10.2777
▁database	-10.2779
▁achieve	-10.2781
ring	-10.2786
完成	-10.2794
grid	-10.2796
Length	-10.2799
space	-10.2804
▁teeth	-10.281
template	-10.2816
海	-10.2826
▁equipment	-10.2826
▁patterns	-10.2834
评价	-10.2837
ur	-10.2849
Filter	-10.2859
▁Indian	-10.2865
debug	-10.2865
light	-10.2869
ful	-10.2877
▁virus	-10.2882
▁opportunity	-10.2883
Read	-10.2891
remove	-10.2892
▁River	-10.2898
ptr	-10.2898
ka	-10.29
▁fully	-10.2903
NO	-10.2915
▁effort	-10.2921
▁organization	-10.2922
shape	-10.2928
react	-10.2934
element	-10.2941
can	-10.2942
site	-10.2951
▁moving	-10.2954
over	-10.2956
所以	-10.296
▁phase	-10.2962
表示	-10.2963
▁description	-10.2974
send	-10.2977
▁teacher	-10.298
buf	-10.2989
▁findings	-10.2995
▁parent	-10.2996
double	-10.3004
▁capacity	-10.3005
▁placed	-10.3007
▁obtained	-10.3007
史	-10.3009
End	-10.301
cast	-10.3011
▁chance	-10.302
TYPE	-10.302
items	-10.3023
echo	-10.3038
IN	-10.3048
radius	-10.3053
▁powerful	-10.3058
▁religious	-10.3065
▁forces	-10.3067
▁essay	-10.3073
cache	-10.3074
▁wrote	-10.3084
▁majority	-10.3092
ous	-10.3102
业务	-10.3102
▁separate	-10.3103
▁City	-10.3103
▁inter	-10.3106
▁proposed	-10.3107
▁dry	-10.3109
▁gets	-10.3109
▁easier	-10.3109
Ref	-10.3112
共同	-10.3113
重要	-10.3114
ti	-10.3114
▁Copyright	-10.3115
▁born	-10.3116
▁exactly	-10.3117
▁eating	-10.3119
▁sign	-10.3121
自己	-10.3127
▁challenges	-10.3129
files	-10.3132
评估	-10.3139
单	-10.3141
▁January	-10.3142
▁film	-10.3144
▁chemical	-10.3149
▁Chinese	-10.3157
values	-10.3162
tt	-10.3165
buffer	-10.3168
raw	-10.3168
offset	-10.3168
IO	-10.317
▁resistance	-10.3175
大学	-10.3182
▁toward	-10.3191
▁Jesus	-10.3194
▁Just	-10.3202
▁format	-10.3202
▁Black	-10.3205
▁sugar	-10.3206
▁progress	-10.321
网	-10.3211
▁DNA	-10.3217
▁miles	-10.3219
数字	-10.322
▁explain	-10.3222
utils	-10.3229
▁dis	-10.3231
ab	-10.3235
child	-10.3246
▁match	-10.3249
ec	-10.325
cmd	-10.3251
rem	-10.3255
▁increases	-10.3257
▁uint	-10.3259
DIR	-10.3263
▁September	-10.3263
password	-10.327
导致	-10.327
ba	-10.3271
▁immune	-10.3278
▁con	-10.3282
auth	-10.329
明确	-10.3303
Configuration	-10.3309
▁commonly	-10.3313
down	-10.3318
▁tried	-10.3319
▁drugs	-10.333
金	-10.3335
▁Al	-10.3335
False	-10.3335
▁relatively	-10.3341
▁appears	-10.3342
▁signal	-10.335
现代	-10.3353
location	-10.3356
▁figure	-10.3356
人才	-10.336
减少	-10.3366
增强	-10.3366
所有	-10.3368
▁weather	-10.3369
func	-10.3369
package	-10.3372
▁perform	-10.3374
▁limit	-10.3374
](#	-10.3374
按照	-10.3377
▁giving	-10.3381
python	-10.3385
▁August	-10.3386
▁Great	-10.3389
▁samples	-10.3401
▁mode	-10.3402
▁diabetes	-10.3407
确定	-10.3408
全	-10.3409
▁President	-10.341
人员	-10.3413
——	-10.3419
▁Day	-10.3426
ability	-10.3428
margin	-10.3431
uri	-10.3434
▁genetic	-10.3435
CR	-10.3442
▁storage	-10.3445
生态	-10.3447
application	-10.3447
为了	-10.3448
▁balance	-10.3451
▁Education	-10.3451
单位	-10.3454
▁regions	-10.3459
强调	-10.3464
ley	-10.3468
这是	-10.3471
▁strategies	-10.3474
表	-10.3482
▁economy	-10.3482
%)	-10.3484
▁rise	-10.3485
▁treated	-10.349
▁October	-10.3491
先	-10.3492
▁removed	-10.3495
fig	-10.3497
▁immediately	-10.3498
▁des	-10.3505
▁statement	-10.3507
▁standards	-10.3515
step	-10.3516
total	-10.3519
▁strength	-10.3519
empty	-10.3526
了解	-10.3527
frame	-10.353
▁wind	-10.3537
▁await	-10.3545
▁solutions	-10.3549
Url	-10.3553
运动	-10.3558
▁characters	-10.3559
der	-10.3565
▁operations	-10.3566
▁selected	-10.3569
变	-10.358
Module	-10.358
Label	-10.3583
np	-10.3583
电	-10.3589
▁variables	-10.359
▁requirements	-10.3594
▁independent	-10.3595
▁picture	-10.3599
▁failure	-10.3615
▁handle	-10.362
Max	-10.3621
德	-10.3623
▁supported	-10.3624
强	-10.3624
▁failed	-10.3632
条	-10.3634
tic	-10.3634
▁nation	-10.3636
均	-10.3638
▁San	-10.3646
entry	-10.3646
pe	-10.3651
全国	-10.3655
▁respect	-10.3657
因素	-10.3658
ize	-10.3662
ten	-10.3668
▁classes	-10.3678
重点	-10.3682
▁baby	-10.3689
Instance	-10.3691
instance	-10.3693
具体	-10.3693
}"	-10.3696
ists	-10.3696
措施	-10.37
▁definition	-10.3701
Format	-10.3709
▁laws	-10.3715
时代	-10.3716
号	-10.3719
resource	-10.3726
▁fuel	-10.3731
req	-10.3735
▁female	-10.3736
▁gain	-10.374
▁returned	-10.374
▁screen	-10.3741
风	-10.3744
进入	-10.3747
$$	-10.3748
▁combination	-10.3755
Attribute	-10.3759
上的	-10.3763
治理	-10.3766
▁load	-10.3766
make	-10.3769
column	-10.3775
▁Mr	-10.3779
cloud	-10.3785
▁fixed	-10.3787
▁client	-10.3792
▁looks	-10.3798
▁para	-10.3799
▁demand	-10.3801
Not	-10.3801
command	-10.3804
();	-10.3805
▁perhaps	-10.3815
ING	-10.3817
热	-10.382
bool	-10.3823
▁highest	-10.3823
▁continued	-10.3836
hash	-10.3841
▁party	-10.3842
▁Please	-10.3855
合同	-10.3857
▁Their	-10.3858
▁huge	-10.3863
此	-10.3874
▁micro	-10.3877
制定	-10.3882
通	-10.3883
Level	-10.389
conf	-10.389
Position	-10.3891
▁prior	-10.3891
▁East	-10.3893
治疗	-10.3894
▁buy	-10.3895
▁ms	-10.3902
的影响	-10.3912
▁Water	-10.3915
▁London	-10.3917
▁hot	-10.392
▁console	-10.3921
▁determined	-10.3924
▁road	-10.3925
▁town	-10.3925
▁offers	-10.3926
▁carried	-10.3926
▁Americans	-10.3929
▁piece	-10.3929
▁generation	-10.3931
unit	-10.3933
▁parameter	-10.3933
决定	-10.3941
▁relevant	-10.3942
▁generate	-10.3943
▁maximum	-10.3943
Open	-10.3947
▁previously	-10.3948
▁signs	-10.3949
ance	-10.3952
降低	-10.3954
▁send	-10.3959
▁Don	-10.396
按	-10.3971
Container	-10.3974
状态	-10.3978
▁office	-10.3978
主体	-10.3979
▁})	-10.3982
▁capital	-10.3982
"`	-10.3983
的重要	-10.3983
▁characteristics	-10.3987
▁friend	-10.3987
▁structures	-10.3995
▁formula	-10.3997
原	-10.3999
规范	-10.4009
▁December	-10.4017
import	-10.4018
Api	-10.4018
机	-10.4024
▁override	-10.4026
能源	-10.4032
▁formed	-10.4034
arr	-10.4037
fn	-10.4041
task	-10.4048
Header	-10.4054
ni	-10.4055
元	-10.4057
▁otherwise	-10.4058
▁blue	-10.4058
▁Journal	-10.4062
handle	-10.4066
▁Public	-10.4066
^{	-10.4067
▁extremely	-10.4071
▁happens	-10.4072
▁resulting	-10.4077
▁guide	-10.4077
▁generated	-10.408
民	-10.4081
▁implementation	-10.4083
▁tend	-10.4088
\"	-10.4089
login	-10.409
▁connected	-10.4093
头	-10.4097
ium	-10.4099
▁virtual	-10.41
device	-10.4107
▁historical	-10.411
Store	-10.4112
人类	-10.4114
but	-10.4117
面	-10.4118
▁column	-10.4119
▁participants	-10.4124
▁County	-10.4125
▁Washington	-10.4129
po	-10.4129
▁conducted	-10.4133
Web	-10.4136
▁former	-10.4139
idx	-10.4141
ish	-10.4151
Column	-10.4152
▁host	-10.4152
▁planning	-10.4154
"),	-10.4154
▁AND	-10.4156
▁feeling	-10.4157
而且	-10.4158
▁mid	-10.4159
▁specified	-10.416
两个	-10.4165
/**	-10.4167
▁federal	-10.4175
graph	-10.4183
▁muscle	-10.419
个人	-10.4191
mat	-10.4192
事	-10.4193
▁processing	-10.4193
是指	-10.4198
Tree	-10.4201
UI	-10.4209
▁cycle	-10.4211
▁ready	-10.4214
side	-10.4214
▁treat	-10.4215
种	-10.4217
then	-10.4217
▁stories	-10.4218
any	-10.4221
pp	-10.4223
▁moved	-10.4229
▁winter	-10.4235
ative	-10.4238
▁eventually	-10.4241
万	-10.4243
board	-10.4244
bind	-10.4247
▁di	-10.4249
▁Make	-10.425
cb	-10.4252
▁discovered	-10.4255
▁educational	-10.4259
scope	-10.4263
dt	-10.4265
▁frequency	-10.4267
▁str	-10.4269
▁staff	-10.4271
积极	-10.4275
▁library	-10.4277
▁released	-10.4291
▁UK	-10.4301
▁consumption	-10.4306
ea	-10.4306
▁church	-10.4307
▁experiences	-10.4309
主	-10.4313
Tag	-10.4316
▁native	-10.4322
ga	-10.4323
low	-10.4332
ml	-10.4333
▁November	-10.4333
都是	-10.4348
▁letter	-10.4349
之间的	-10.4352
张	-10.4354
▁zero	-10.4354
▁units	-10.4354
报告	-10.4356
之一	-10.4363
▁felt	-10.4366
mon	-10.4368
▁Go	-10.4371
▁worth	-10.4375
▁finding	-10.4375
book	-10.4389
▁hear	-10.439
▁Figure	-10.439
ator	-10.439
▁notice	-10.4392
▁dark	-10.4394
▁sequence	-10.4395
特	-10.4398
▁reports	-10.4408
▁opportunities	-10.4409
▁finally	-10.4409
Application	-10.4412
部门	-10.4414
reg	-10.4419
▁sort	-10.4419
Vector	-10.442
▁France	-10.4422
用于	-10.4423
KEY	-10.4426
管	-10.4427
▁mentioned	-10.4428
Range	-10.443
Sub	-10.4432
生物	-10.4432
▁fi	-10.4435
internal	-10.4437
▁alternative	-10.4439
cd	-10.4439
Windows	-10.444
▁hair	-10.444
教	-10.4444
才能	-10.4445
▁goals	-10.4453
RE	-10.4468
props	-10.4472
责任	-10.4477
▁heard	-10.4481
综合	-10.4487
▁Two	-10.4489
▁technique	-10.449
优化	-10.4502
探索	-10.4504
▁playing	-10.4505
▁fruit	-10.4506
▁clearly	-10.4509
that	-10.4513
▁introduced	-10.4517
▁Note	-10.4518
Location	-10.452
▁random	-10.4523
▁serve	-10.453
▁suggests	-10.4533
My	-10.4537
▁heavy	-10.4539
共	-10.454
▁literature	-10.454
Check	-10.4541
患者	-10.4544
Collection	-10.4544
(\	-10.4547
加	-10.4547
US	-10.455
▁bone	-10.4554
第二	-10.4557
▁challenge	-10.4563
▁drive	-10.4563
OK	-10.4564
▁topic	-10.4569
stack	-10.4572
▁containing	-10.4576
sha	-10.4578
虽然	-10.4583
▁Church	-10.4584
▁north	-10.4584
▁turned	-10.4591
Net	-10.4594
Style	-10.4602
▁fat	-10.4603
▁contrast	-10.4607
▁cities	-10.4609
▁Un	-10.461
▁genes	-10.4619
Session	-10.4624
cs	-10.4625
sec	-10.4626
路	-10.4631
Write	-10.4632
掌握	-10.4632
family	-10.4634
的问题	-10.4636
理解	-10.4637
保证	-10.4643
▁strategy	-10.4644
hr	-10.4652
测试	-10.4657
▁res	-10.4659
▁regarding	-10.4665
now	-10.4667
Target	-10.467
▁upper	-10.4672
▁shift	-10.4672
▁learned	-10.4679
▁male	-10.4681
▁House	-10.4692
ERROR	-10.4699
▁disorder	-10.4704
▁visual	-10.4705
▁billion	-10.4706
▁follows	-10.4707
usr	-10.4716
ray	-10.4721
What	-10.4724
范围	-10.4725
Delete	-10.4725
▁Union	-10.4725
fe	-10.4725
时期	-10.4728
▁Germany	-10.4733
OS	-10.4733
▁records	-10.4737
Port	-10.4739
劳动	-10.474
公	-10.4742
▁crucial	-10.4745
models	-10.4747
final	-10.4751
▁perfect	-10.4752
▁represent	-10.4752
▁charge	-10.4757
▁changing	-10.4768
sm	-10.4773
手	-10.4773
ler	-10.4774
运行	-10.4775
uk	-10.4778
▁technologies	-10.478
Reference	-10.4781
▁properly	-10.4784
▁pro	-10.4785
▁fight	-10.4789
GET	-10.4792
反	-10.4794
▁mostly	-10.4795
▁Australia	-10.4797
病	-10.4798
cat	-10.4799
At	-10.48
Body	-10.4801
ER	-10.4804
Box	-10.4805
运用	-10.4807
次	-10.4808
ko	-10.4809
▁Set	-10.4814
人们	-10.4815
▁tax	-10.4818
▁unless	-10.482
▁operator	-10.482
▁len	-10.4821
▁aspects	-10.4822
还是	-10.4822
▁depression	-10.4825
▁recommended	-10.4836
▁hit	-10.4837
Un	-10.4849
▁metal	-10.485
pdf	-10.4853
temp	-10.4855
▁Lord	-10.4855
Row	-10.4861
▁reality	-10.4866
▁dead	-10.4867
▁measured	-10.4867
▁chronic	-10.4873
利	-10.4873
▁birds	-10.4883
equal	-10.4887
近	-10.4888
▁Press	-10.4897
无法	-10.49
▁creation	-10.4901
]:	-10.4902
▁decisions	-10.4902
▁High	-10.4907
Call	-10.4908
using	-10.4909
▁procedure	-10.4913
▁count	-10.492
▁Over	-10.492
OR	-10.4922
▁max	-10.4923
▁fear	-10.4923
增长	-10.493
▁played	-10.4933
▁plans	-10.4936
va	-10.4936
each	-10.4938
▁carry	-10.4941
只	-10.4946
▁interested	-10.4946
ner	-10.4952
自己的	-10.4952
▁link	-10.4953
Entry	-10.4958
Or	-10.4959
word	-10.496
▁authors	-10.4961
ated	-10.4965
未来	-10.4966
▁track	-10.4966
▁Both	-10.4967
▁discussion	-10.4969
协议	-10.4972
▁nor	-10.4973
pm	-10.4976
fs	-10.4978
pl	-10.4981
Json	-10.4984
指出	-10.4985
ak	-10.4992
▁assessment	-10.4993
mail	-10.4995
▁south	-10.4999
当前	-10.5001
观	-10.5005
の	-10.5015
实际	-10.5016
不同的	-10.502
行政	-10.5022
甚至	-10.5023
▁decided	-10.5024
▁news	-10.5027
检测	-10.5028
▁explore	-10.5034
▁income	-10.504
▁API	-10.504
改变	-10.5042
调整	-10.5045
▁wild	-10.5046
▁college	-10.5047
▁travel	-10.5047
nn	-10.5049
▁respectively	-10.5049
hover	-10.505
Interface	-10.505
▁begin	-10.5051
hi	-10.5052
▁depending	-10.5054
que	-10.5056
document	-10.5057
交易	-10.506
▁relationships	-10.5061
▁vision	-10.5065
shadow	-10.5067
global	-10.5068
};	-10.5071
edit	-10.5081
▁express	-10.5082
资本	-10.5091
par	-10.5092
维护	-10.5093
>>	-10.5102
ping	-10.5103
▁reaction	-10.5106
mod	-10.5122
Cache	-10.5122
针对	-10.5126
▁hour	-10.5134
▁adult	-10.5139
copy	-10.5142
▁url	-10.5148
▁efficiency	-10.515
效率	-10.5152
▁bottom	-10.5152
▁river	-10.5155
▁improved	-10.5155
▁aren	-10.5156
closed	-10.5157
▁alcohol	-10.5162
组	-10.5162
▁commercial	-10.5162
▁couple	-10.5166
不是	-10.5168
▁emissions	-10.5173
▁email	-10.5173
定	-10.5177
进	-10.5182
▁bio	-10.5182
艺术	-10.5191
prop	-10.5193
▁estimated	-10.5194
▁square	-10.5194
地方	-10.5195
{{	-10.5196
▁tasks	-10.5202
只有	-10.5205
▁approximately	-10.5206
():	-10.5211
▁met	-10.5214
▁gender	-10.5214
▁Society	-10.5216
▁seven	-10.5216
win	-10.5217
blob	-10.5217
▁external	-10.5217
▁reducing	-10.522
cur	-10.5222
▁frequently	-10.5224
ja	-10.5228
▁February	-10.5237
Device	-10.5237
以上	-10.5239
持续	-10.5245
▁Are	-10.525
▁Internet	-10.5253
▁solve	-10.5253
Connection	-10.5261
▁fit	-10.5262
▁anxiety	-10.5266
▁INFO	-10.5268
▁wall	-10.5271
Op	-10.5271
▁player	-10.5274
les	-10.5275
▁whom	-10.5275
con	-10.5279
▁surgery	-10.5279
▁feed	-10.5285
▁foreign	-10.5289
▁kept	-10.5289
西	-10.5295
统一	-10.5297
▁involves	-10.5305
▁adding	-10.531
ft	-10.531
不仅	-10.5312
click	-10.5314
商	-10.5317
▁rich	-10.5321
success	-10.533
清	-10.5333
Provider	-10.5336
Search	-10.5342
▁Web	-10.5354
▁organizations	-10.5354
Dir	-10.5358
EMAIL	-10.5359
▁indicate	-10.5365
决策	-10.5368
bb	-10.5369
▁thousands	-10.5372
银行	-10.5374
优势	-10.5377
Post	-10.5378
cf	-10.5383
任何	-10.5384
▁advanced	-10.5386
▁ice	-10.5388
▁court	-10.5393
ya	-10.5395
▁attempt	-10.5397
▁sex	-10.5398
工具	-10.5399
Control	-10.5405
///	-10.5406
white	-10.5407
▁ten	-10.5409
▁believed	-10.541
▁happened	-10.5424
"))	-10.5424
▁becoming	-10.5426
▁Class	-10.5429
▁reduction	-10.543
▁template	-10.5437
▁slow	-10.5441
尔	-10.5444
▁aware	-10.5451
other	-10.5455
▁enter	-10.5459
间	-10.5463
▁effectively	-10.5463
利益	-10.5467
▁injury	-10.5471
软件	-10.5472
▁Western	-10.5474
▁Roman	-10.5474
民族	-10.5475
▁ANY	-10.5476
中央	-10.5477
vec	-10.5477
profile	-10.5479
▁milk	-10.5487
▁maybe	-10.5487
▁contribute	-10.5488
CO	-10.549
并且	-10.5491
相对	-10.5497
▁Her	-10.5497
合	-10.5501
car	-10.5501
bash	-10.5501
门	-10.5509
replace	-10.5509
fd	-10.5509
▁leads	-10.551
flow	-10.5517
non	-10.5518
▁completed	-10.5525
▁Today	-10.5528
▁rare	-10.5532
▁widely	-10.5534
bo	-10.5543
▁diagnosis	-10.555
县	-10.5563
Http	-10.5567
对象	-10.5568
取得	-10.5571
▁William	-10.5573
首先	-10.5577
tro	-10.5582
▁oxygen	-10.5585
▁depends	-10.5586
▁que	-10.5586
代表	-10.559
dy	-10.5595
微	-10.5596
发挥	-10.5598
webkit	-10.5598
▁formation	-10.56
'),	-10.5608
Layout	-10.5608
▁errors	-10.5613
▁race	-10.5613
▁speech	-10.5614
▁promote	-10.5618
game	-10.5629
▁IS	-10.5631
Core	-10.5637
第三	-10.5638
▁planet	-10.5641
bot	-10.5642
▁causing	-10.5655
▁efficient	-10.5657
建筑	-10.5658
nt	-10.5663
match	-10.5668
});	-10.5668
none	-10.567
▁Association	-10.5674
sc	-10.5675
Settings	-10.5687
方案	-10.5689
Types	-10.5692
▁sets	-10.5694
▁decades	-10.5701
▁pages	-10.5706
▁Park	-10.5708
ver	-10.5718
▁truth	-10.5721
Properties	-10.5721
keys	-10.5733
▁Japan	-10.5735
jpg	-10.5736
▁mouth	-10.5737
▁policies	-10.5743
经验	-10.5743
▁advice	-10.575
土地	-10.5751
▁disorders	-10.5757
world	-10.5761
▁numerous	-10.5764
Helper	-10.5765
重大	-10.5769
▁tested	-10.5769
提供了	-10.577
part	-10.5773
▁ratio	-10.5775
settings	-10.5776
电子	-10.5777
消费	-10.5777
▁Children	-10.5778
▁medicine	-10.5779
▁killed	-10.578
are	-10.5785
▁degrees	-10.5791
▁spring	-10.5798
▁notes	-10.58
▁James	-10.58
南	-10.5802
智能	-10.5803
造成	-10.5805
▁Christ	-10.5805
▁spent	-10.5806
One	-10.581
▁Japanese	-10.5813
IL	-10.5814
pa	-10.5816
▁bodies	-10.5817
处	-10.5818
监督	-10.5819
是一个	-10.5825
接受	-10.5827
革命	-10.5828
▁stand	-10.583
▁manner	-10.5834
▁College	-10.5835
▁covered	-10.5836
▁looked	-10.5846
▁showing	-10.5847
"#	-10.5848
平	-10.5849
ph	-10.5851
Fig	-10.5855
语言	-10.586
▁David	-10.5861
▁configuration	-10.5865
▁minimum	-10.5872
健康	-10.5872
▁freedom	-10.5878
ible	-10.5879
▁transfer	-10.5882
well	-10.5883
经营	-10.589
math	-10.5894
▁Students	-10.5897
▁emotional	-10.5898
ana	-10.5898
学科	-10.5898
▁entry	-10.5901
▁forest	-10.5905
算法	-10.5906
Up	-10.5911
▁combined	-10.5911
▁garden	-10.5911
▁IN	-10.5913
▁selection	-10.5915
文件	-10.5919
process	-10.592
▁represents	-10.5924
▁voice	-10.5924
Parameter	-10.5924
▁android	-10.5926
▁phone	-10.5927
▁dogs	-10.5931
车	-10.5935
规则	-10.5941
▁morning	-10.5942
Template	-10.5942
__(	-10.5943
padding	-10.5943
人的	-10.5944
▁board	-10.5945
▁enjoy	-10.5946
'])	-10.5952
Var	-10.5952
▁experiment	-10.5954
▁talking	-10.5962
▁stuff	-10.5963
▁settings	-10.5964
▁advantage	-10.5966
▁meeting	-10.5966
▁populations	-10.5973
▁box	-10.5976
Document	-10.598
▁experienced	-10.5981
▁allowing	-10.5983
采取	-10.5994
PATH	-10.5994
▁proteins	-10.5999
Record	-10.5999
ise	-10.6007
▁gold	-10.601
try	-10.6017
▁linked	-10.602
▁helped	-10.6021
通常	-10.6027
▁novel	-10.6035
ii	-10.6036
主义	-10.6042
周	-10.6046
▁risks	-10.6046
▁reached	-10.6048
▁players	-10.6049
▁leaders	-10.6056
工	-10.6061
▁sentence	-10.6062
应该	-10.6064
▁switch	-10.6071
系	-10.6074
▁trans	-10.6075
价格	-10.6079
▁collected	-10.608
▁Council	-10.608
▁Like	-10.608
▁speak	-10.6083
rc	-10.6086
▁classroom	-10.6086
回	-10.6094
specific	-10.6095
▁valid	-10.6098
He	-10.6099
ite	-10.6101
▁career	-10.6102
▁identity	-10.6106
sort	-10.6112
only	-10.6112
Description	-10.6118
▁ex	-10.6124
▁Foundation	-10.6124
Width	-10.6124
domain	-10.6125
▁myself	-10.6126
exp	-10.6126
Min	-10.6133
整体	-10.6142
si	-10.6142
▁mainly	-10.6142
ology	-10.6153
assets	-10.6155
▁Any	-10.6162
▁select	-10.6162
Project	-10.6162
超	-10.6164
▁radio	-10.6169
Str	-10.6172
转	-10.6173
Window	-10.6174
▁agreed	-10.6176
▁Mar	-10.6176
▁plastic	-10.6179
Pos	-10.6181
bi	-10.6183
确保	-10.6193
此外	-10.6197
beta	-10.6198
Val	-10.6198
▁discuss	-10.62
▁shared	-10.6202
▁train	-10.6207
▁nuclear	-10.6209
类型	-10.621
▁teach	-10.6211
▁Christian	-10.6213
▁claim	-10.6213
CD	-10.6225
xf	-10.6232
fi	-10.6233
▁wasn	-10.6236
▁Man	-10.6243
级	-10.6244
节	-10.6244
fill	-10.6245
▁son	-10.6246
之后	-10.6246
Integer	-10.6251
▁organic	-10.6252
$(	-10.6253
Handle	-10.6254
完全	-10.6254
▁manage	-10.6257
党的	-10.626
反应	-10.6265
FILE	-10.6266
▁George	-10.6266
▁throws	-10.6267
ile	-10.6267
▁Google	-10.627
日本	-10.6272
▁vs	-10.6273
▁knew	-10.6274
▁Development	-10.6278
▁fresh	-10.6279
▁urban	-10.6286
▁specifically	-10.6286
mb	-10.6289
云	-10.6291
▁concentration	-10.6291
▁origin	-10.6296
▁subjects	-10.6299
eb	-10.63
Rule	-10.6303
lin	-10.6306
▁conflict	-10.6307
▁eight	-10.6307
ham	-10.6311
现象	-10.6313
引导	-10.6313
▁iron	-10.6316
▁Jewish	-10.6316
Left	-10.6318
[:	-10.6318
指标	-10.6321
sample	-10.6327
▁####	-10.6332
category	-10.6334
lu	-10.6334
)]	-10.6335
美	-10.6337
▁temperatures	-10.6339
▁wife	-10.634
强化	-10.6352
▁happy	-10.6353
▁matrix	-10.6354
clear	-10.636
▁referred	-10.6363
▁faster	-10.6365
job	-10.6366
ang	-10.6368
Out	-10.6368
"""	-10.6369
▁round	-10.6371
android	-10.6375
监管	-10.6375
▁Red	-10.6377
▁famous	-10.6381
▁spend	-10.6382
互联网	-10.6386
fmt	-10.6386
pro	-10.6389
受到	-10.639
INT	-10.6396
▁electricity	-10.6396
foo	-10.6403
▁studied	-10.6403
▁Na	-10.6404
双	-10.6417
▁exists	-10.6419
cite	-10.6423
interface	-10.6425
加快	-10.6425
力量	-10.6426
高校	-10.6427
创造	-10.6428
▁Sun	-10.6431
▁White	-10.6432
然而	-10.6434
▁suggested	-10.6435
MAX	-10.6436
random	-10.6438
▁missing	-10.644
There	-10.6444
代	-10.6444
▁violence	-10.6446
概念	-10.6448
Last	-10.6449
some	-10.6449
▁concerns	-10.6449
源	-10.6454
规模	-10.6459
▁directory	-10.6461
▁transition	-10.6465
bytes	-10.6466
▁decrease	-10.6466
▁outcomes	-10.6467
more	-10.6469
Num	-10.648
cos	-10.6482
明显	-10.6483
modules	-10.6485
ids	-10.6485
▁El	-10.6485
loc	-10.6486
▁infections	-10.6487
是一种	-10.649
解释	-10.6494
▁Court	-10.6495
################	-10.6498
Activity	-10.65
许多	-10.65
满足	-10.6502
项	-10.6503
▁radiation	-10.6507
▁recorded	-10.6513
▁watch	-10.6525
]]	-10.6526
▁noted	-10.6527
▁motion	-10.6534
CC	-10.6536
mp	-10.6537
ence	-10.6537
▁occurred	-10.654
保持	-10.6541
▁lived	-10.6542
▁Le	-10.6544
ped	-10.6546
Utils	-10.6555
▁Project	-10.6555
▁stored	-10.6556
af	-10.6557
那么	-10.6566
▁exposed	-10.6569
▁hearing	-10.657
资金	-10.6571
传播	-10.6571
马	-10.6576
▁mice	-10.6587
sa	-10.6591
▁principles	-10.6592
▁Math	-10.6595
▁Open	-10.6595
▁intended	-10.6597
东	-10.6599
▁sounds	-10.6601
▁practical	-10.6608
change	-10.661
经过	-10.6612
口	-10.6612
▁channel	-10.6614
▁Check	-10.6614
▁Government	-10.6617
layout	-10.6619
斯	-10.6622
章	-10.6624
tools	-10.6629
ru	-10.663
▁Finally	-10.6639
▁wait	-10.6641
▁slightly	-10.6645
xc	-10.6648
▁Human	-10.6649
▁chain	-10.6649
才	-10.6651
window	-10.6655
▁calls	-10.6657
▁survey	-10.666
▁Read	-10.6663
林	-10.6663
▁Sea	-10.6666
▁About	-10.6666
指	-10.6666
Storage	-10.6668
▁accurate	-10.667
lambda	-10.6672
ster	-10.6672
▁buildings	-10.6676
mask	-10.6676
▁lose	-10.6679
MS	-10.668
▁academic	-10.6683
国内	-10.6691
▁absolute	-10.6696
意识	-10.6697
实行	-10.6701
Repository	-10.6702
　	-10.6702
▁experiments	-10.6703
cli	-10.6708
▁loop	-10.6711
draw	-10.6712
▁HIV	-10.6713
▁police	-10.6717
稳定	-10.6717
Height	-10.6719
▁Learning	-10.6721
▁Create	-10.6721
Expression	-10.6722
Channel	-10.6725
▁walk	-10.6726
":"	-10.6726
成果	-10.6728
▁breast	-10.6733
▁helping	-10.6735
克	-10.6735
▁interaction	-10.6745
▁density	-10.6746
▁Social	-10.6752
ship	-10.6757
要素	-10.6757
▁extent	-10.6757
register	-10.6758
长期	-10.6758
效果	-10.6774
Do	-10.6776
最终	-10.6778
手段	-10.6778
▁Air	-10.6781
就业	-10.6785
De	-10.6785
▁certainly	-10.6789
cal	-10.6793
▁concepts	-10.6797
POST	-10.6799
一是	-10.6799
意义	-10.68
xe	-10.68
▁jobs	-10.6801
认识	-10.6805
)$	-10.681
▁perspective	-10.6812
▁detailed	-10.6813
▁concern	-10.6815
古	-10.6818
▁ideal	-10.682
世纪	-10.682
调查	-10.6822
▁vitamin	-10.6822
sys	-10.6823
}/	-10.6823
▁sustainable	-10.6827
▁transport	-10.6828
▁purposes	-10.6832
{	-10.6832
JSON	-10.6837
符合	-10.6837
ities	-10.6839
▁approaches	-10.6845
方向	-10.6846
▁civil	-10.6851
full	-10.6856
每个	-10.6856
▁despite	-10.6859
严重	-10.6862
xff	-10.6863
'))	-10.6863
ised	-10.6865
的基本	-10.6869
▁empty	-10.6872
▁links	-10.6875
▁pieces	-10.6877
water	-10.6878
Spec	-10.6879
IF	-10.6879
Account	-10.688
▁star	-10.688
▁official	-10.6883
wa	-10.6884
▁arguments	-10.6893
▁frame	-10.6893
▁liver	-10.6894
ae	-10.6895
权利	-10.6898
components	-10.69
when	-10.6907
don	-10.6909
▁Israel	-10.6913
Bar	-10.6914
实	-10.6914
▁session	-10.6915
▁Paul	-10.6915
▁industrial	-10.6916
ical	-10.6917
的是	-10.6919
▁prepared	-10.692
▁served	-10.6921
约	-10.6922
▁Congress	-10.693
分配	-10.6931
nil	-10.6934
安	-10.6935
▁peace	-10.6937
ier	-10.6937
资产	-10.6938
程度	-10.6938
属于	-10.6941
required	-10.6942
▁meant	-10.6945
▁credit	-10.6947
▁labor	-10.6951
▁edge	-10.6952
▁recommend	-10.6952
Run	-10.6954
rb	-10.6958
fr	-10.6959
基	-10.6965
equals	-10.6968
写	-10.6969
▁situations	-10.6973
司法	-10.6975
贸易	-10.6975
局	-10.6979
▁enable	-10.6979
▁algorithm	-10.6982
理	-10.6983
▁potentially	-10.6984
▁exit	-10.699
石	-10.6992
hat	-10.7009
▁mechanism	-10.701
plot	-10.7011
农民	-10.702
▁dangerous	-10.7023
特别是	-10.7023
▁Spanish	-10.7024
函数	-10.7029
Async	-10.703
▁discussed	-10.7032
化学	-10.7032
城	-10.7035
Assert	-10.7039
logger	-10.7042
获取	-10.7043
▁engineering	-10.7044
▁religion	-10.7046
ell	-10.7049
Local	-10.705
▁operating	-10.7053
▁onto	-10.7053
za	-10.7054
▁agree	-10.7056
▁"${	-10.7059
立	-10.706
▁focused	-10.7063
custom	-10.7064
▁successfully	-10.7069
▁"<	-10.7074
▁corresponding	-10.7086
▁sexual	-10.7087
Change	-10.7087
Hash	-10.709
内部	-10.7091
▁helpful	-10.7097
▁Thanks	-10.7102
king	-10.7109
事件	-10.711
stop	-10.711
returns	-10.7111
却	-10.7112
▁medium	-10.7113
▁expressed	-10.7113
ial	-10.7114
CH	-10.7115
▁draw	-10.7115
dis	-10.7118
▁AI	-10.7118
▁annual	-10.712
关注	-10.7122
业	-10.7123
ki	-10.7124
▁experts	-10.7125
▁wave	-10.7127
场	-10.7128
民主	-10.7133
toString	-10.7141
▁amounts	-10.7143
▁particles	-10.7145
设置	-10.7147
▁evolution	-10.7149
mer	-10.7149
▁math	-10.7151
▁comparison	-10.7152
",	-10.7152
二是	-10.7153
▁consistent	-10.7155
Unit	-10.7155
▁Retrieved	-10.7167
▁joint	-10.7168
▁monitoring	-10.717
azure	-10.717
改善	-10.7173
▁opinion	-10.7176
▁className	-10.7179
▁NOT	-10.718
融合	-10.7183
逻辑	-10.7183
▁battle	-10.7186
Close	-10.7189
带	-10.7194
Select	-10.7196
First	-10.7198
▁cat	-10.7202
;&	-10.721
▁latest	-10.7212
动	-10.7213
▁technical	-10.7214
▁Instead	-10.7214
▁Yes	-10.7214
▁click	-10.7218
ls	-10.722
addr	-10.7221
tu	-10.7222
▁languages	-10.7223
▁Free	-10.7228
entity	-10.7229
打	-10.7235
AI	-10.7236
testing	-10.7238
指导	-10.7238
空	-10.7239
继续	-10.7239
▁query	-10.7248
▁domain	-10.7248
▁Pro	-10.7251
ung	-10.7252
{"	-10.7254
access	-10.7258
作出	-10.726
▁drop	-10.7261
▁beautiful	-10.7266
非常	-10.7267
▁filter	-10.7269
李	-10.7274
比如	-10.7275
▁rock	-10.7277
render	-10.728
mock	-10.7283
Param	-10.7285
▁quick	-10.7285
课	-10.7285
▁score	-10.7286
ice	-10.7289
华	-10.7293
构成	-10.7293
Offset	-10.7299
依法	-10.73
channel	-10.7301
▁vehicle	-10.7301
dot	-10.7304
▁vital	-10.7304
▁keeping	-10.7304
群众	-10.7305
▁motor	-10.7305
的研究	-10.7307
hidden	-10.7307
sin	-10.7312
▁Greek	-10.7314
▁False	-10.7314
ap	-10.7316
▁revealed	-10.7318
占	-10.7318
▁divided	-10.7322
▁glass	-10.7324
dist	-10.7327
制造	-10.7329
plugin	-10.733
▁meat	-10.7331
▁forced	-10.7332
Parameters	-10.7332
▁electric	-10.7332
▁{@	-10.7335
So	-10.7335
自由	-10.7337
测量	-10.7337
以下	-10.7338
▁async	-10.7339
Host	-10.7342
▁Its	-10.7344
▁Such	-10.7345
mar	-10.7345
users	-10.7348
自身	-10.7349
▁networks	-10.735
进行了	-10.7351
ah	-10.7352
▁raised	-10.7358
modal	-10.7364
account	-10.7369
▁mission	-10.7372
▁fill	-10.7372
涉及	-10.7377
既	-10.738
Job	-10.7386
▁seeds	-10.7392
``	-10.7393
▁worse	-10.7395
▁whatever	-10.7401
Frame	-10.7406
▁custom	-10.7409
▁existence	-10.7409
▁Me	-10.741
建议	-10.7414
▁trial	-10.7415
)))	-10.7418
▁president	-10.7418
▁wood	-10.7424
限制	-10.7424
▁excellent	-10.7426
▁island	-10.7435
▁warm	-10.7436
Util	-10.7439
cr	-10.7441
▁du	-10.7442
insert	-10.7442
ho	-10.7445
▁Ha	-10.7449
END	-10.7458
▁App	-10.7459
▁hospital	-10.7463
vo	-10.7464
Parser	-10.7465
▁returns	-10.7475
作者	-10.7476
mark	-10.748
ram	-10.7481
省	-10.7483
资料	-10.7485
ants	-10.7493
chi	-10.7494
▁cool	-10.7494
called	-10.7495
▁offered	-10.75
六	-10.7502
▁args	-10.7509
small	-10.7511
▁atmosphere	-10.7514
治	-10.7514
vm	-10.7515
▁healthcare	-10.7515
▁photo	-10.7518
你	-10.7519
目的	-10.752
▁visible	-10.7524
bc	-10.7525
▁explained	-10.7525
物质	-10.7528
desc	-10.7531
network	-10.7532
的主要	-10.7535
▁route	-10.7536
LOG	-10.7539
▁engine	-10.7542
报	-10.7542
▁Asia	-10.7551
▁institutions	-10.7556
Thread	-10.7557
▁True	-10.7559
▁Take	-10.7561
▁primarily	-10.7563
▁platform	-10.7563
达	-10.7563
ez	-10.7564
▁electrical	-10.7564
An	-10.7567
▁vaccine	-10.7568
▁cognitive	-10.7571
rest	-10.7573
▁Law	-10.7574
reference	-10.7576
▁continues	-10.7576
策略	-10.7581
▁Review	-10.7583
prefix	-10.7586
▁equivalent	-10.7588
svg	-10.7588
▁consequences	-10.7589
▁fix	-10.7591
▁Before	-10.7599
▁thoughts	-10.7599
▁attacks	-10.7603
▁[[	-10.7605
依据	-10.7606
质	-10.7607
(*	-10.7608
建	-10.7608
▁Information	-10.7608
▁exception	-10.7609
▁sector	-10.7609
Grid	-10.762
▁trust	-10.7621
走	-10.7624
ze	-10.7625
▁citizens	-10.7628
除	-10.763
▁encourage	-10.763
fc	-10.7631
}{\	-10.7639
▁accept	-10.764
dc	-10.7642
Next	-10.7643
om	-10.7643
▁pollution	-10.7643
常	-10.7644
▁illness	-10.7652
▁linear	-10.7653
▁awareness	-10.7656
jo	-10.7658
社会主义	-10.766
Menu	-10.7662
▁valuable	-10.7663
▁usage	-10.7667
▁survival	-10.767
▁Art	-10.7671
expected	-10.7671
科	-10.7672
record	-10.7681
▁seeing	-10.7683
ble	-10.7683
▁responses	-10.7684
语	-10.7686
License	-10.769
信号	-10.769
▁paid	-10.769
▁fluid	-10.7691
文明	-10.7694
istic	-10.7694
widget	-10.7695
▁Central	-10.7698
▁limitations	-10.7702
▁Pre	-10.7702
pool	-10.7704
物理	-10.7709
▁wish	-10.7712
▁articles	-10.7713
fold	-10.7714
▁remote	-10.7714
白	-10.7718
▁internet	-10.7719
▁Museum	-10.7722
▁framework	-10.7722
▁grade	-10.7723
▁seek	-10.7723
▁yield	-10.7727
ef	-10.7729
bf	-10.773
▁remained	-10.7731
说明	-10.7733
Long	-10.7733
DATA	-10.7737
art	-10.7737
收入	-10.7738
ny	-10.7749
IT	-10.7751
TO	-10.7751
意	-10.7751
See	-10.776
▁port	-10.7763
▁Technology	-10.7765
培训	-10.7769
世	-10.777
▁row	-10.777
▁pick	-10.7771
▁consists	-10.7771
▁Se	-10.7775
▁fundamental	-10.7775
Schema	-10.7776
▁wants	-10.7776
▁Only	-10.7778
波	-10.7779
connect	-10.7779
▁Microsoft	-10.7782
▁traffic	-10.7783
支付	-10.7784
pc	-10.7784
数学	-10.7785
Player	-10.7788
hu	-10.7791
helper	-10.7792
▁extreme	-10.7794
▁typical	-10.7797
检查	-10.78
▁Am	-10.78
委员会	-10.7801
Mock	-10.7801
基因	-10.7805
▁Furthermore	-10.7806
When	-10.7818
立法	-10.7821
▁reflect	-10.7821
期间	-10.7823
▁stream	-10.7825
▁straight	-10.7825
house	-10.7826
wood	-10.7827
开放	-10.784
▁unknown	-10.7843
▁leaving	-10.7844
这样	-10.7844
▁Every	-10.7844
集中	-10.7845
▁Life	-10.7847
▁exact	-10.7849
▁Software	-10.7852
▁Medical	-10.7853
▁starts	-10.786
help	-10.7862
▁letters	-10.7862
▁se	-10.7864
▁girls	-10.7864
vi	-10.7866
▁seed	-10.7867
▁syndrome	-10.7868
Policy	-10.7869
▁buffer	-10.7871
特点	-10.7871
iter	-10.7873
▁refers	-10.7875
▁liquid	-10.7875
▁Green	-10.7878
aws	-10.7881
▁drinking	-10.7882
you	-10.7882
▁extension	-10.7884
人口	-10.7886
选	-10.7887
iv	-10.7888
使得	-10.7891
货币	-10.7892
▁detection	-10.7897
▁Long	-10.7905
▁hundred	-10.7907
details	-10.7908
考虑	-10.7909
马克思主义	-10.791
Params	-10.791
▁treatments	-10.7911
讲	-10.7911
▁refer	-10.7914
batch	-10.7915
DNA	-10.7916
big	-10.7917
zip	-10.7918
交流	-10.7919
SIZE	-10.792
Card	-10.7921
▁largely	-10.7925
▁Food	-10.7926
sim	-10.7927
大量	-10.793
▁installed	-10.7935
player	-10.7935
难	-10.7935
称	-10.7938
being	-10.7943
>&	-10.7947
−	-10.7951
保	-10.7956
领导	-10.7957
dim	-10.7958
▁authority	-10.7958
▁feelings	-10.7963
▁kill	-10.7966
vis	-10.7972
But	-10.7975
上述	-10.7979
LICENSE	-10.798
相互	-10.7982
component	-10.7984
最后	-10.7985
prototype	-10.7987
法院	-10.7989
▁ocean	-10.7993
Ptr	-10.7993
▁responsibility	-10.7993
它们	-10.7994
▁Despite	-10.7994
▁flag	-10.7995
本文	-10.7996
▁derived	-10.7996
性能	-10.7996
而是	-10.7997
▁Texas	-10.7999
Right	-10.8
的作用	-10.8001
AL	-10.8002
每	-10.8006
▁soft	-10.8009
ado	-10.8009
及时	-10.8019
▁homes	-10.802
storage	-10.8021
▁Moreover	-10.8022
▁kinds	-10.8023
申请	-10.8023
▁Windows	-10.8026
▁plays	-10.8027
▁conservation	-10.8029
集	-10.8031
exit	-10.8034
Root	-10.8036
power	-10.8038
Option	-10.8039
▁southern	-10.804
▁noise	-10.8045
green	-10.8046
▁graph	-10.8047
合理	-10.8049
▁journey	-10.8052
▁controlled	-10.8052
▁sides	-10.8052
▁suitable	-10.8054
▁Azure	-10.806
Edit	-10.8061
▁remaining	-10.8061
α	-10.8065
manager	-10.8069
战	-10.8075
适应	-10.8075
▁begins	-10.8076
▁Car	-10.8079
▁Inc	-10.808
▁expensive	-10.8083
▁entirely	-10.8089
绿色	-10.8089
bg	-10.8093
▁evaluation	-10.8094
Callback	-10.8094
Build	-10.8097
▁surrounding	-10.8098
release	-10.81
▁salt	-10.8101
记录	-10.8104
Char	-10.8106
调	-10.8108
▁branch	-10.811
fields	-10.811
公共	-10.811
ut	-10.8111
▁driving	-10.8113
▁updated	-10.8116
字	-10.8121
超过	-10.8121
的关系	-10.8122
▁recovery	-10.8125
▁investment	-10.8125
▁Energy	-10.8126
若	-10.8127
▁evaluate	-10.8128
▁Well	-10.8131
price	-10.8133
▁Russian	-10.8133
村	-10.8133
▁wouldn	-10.8137
▁door	-10.8139
▁biological	-10.814
证明	-10.814
▁exchange	-10.8141
▁Add	-10.8143
▁faith	-10.8144
▁Thomas	-10.8148
‐	-10.8148
Values	-10.8148
▁foot	-10.8149
▁eggs	-10.8149
pass	-10.815
▁connect	-10.8151
▁infrastructure	-10.8151
成功	-10.8153
▁secondary	-10.8153
xa	-10.8156
drop	-10.8158
Stack	-10.8159
unsigned	-10.816
▁professor	-10.8164
花	-10.8165
▁mixed	-10.8166
深	-10.8167
ES	-10.8171
拉	-10.8172
发展的	-10.8172
cap	-10.8175
▁respond	-10.8176
▁equation	-10.8181
RT	-10.8184
rt	-10.8185
▁emergency	-10.8187
▁affects	-10.8187
figure	-10.8188
▁twice	-10.8189
分别	-10.819
提出了	-10.8191
分子	-10.8194
▁indicates	-10.8194
▁appearance	-10.8195
flex	-10.8196
▁topics	-10.8197
making	-10.8199
▁implemented	-10.8201
Icon	-10.8202
派	-10.8208
▁taught	-10.8209
Matrix	-10.821
switch	-10.8212
GL	-10.8213
▁northern	-10.8214
services	-10.822
▁implement	-10.8224
解	-10.8227
errors	-10.823
▁symbol	-10.8235
信	-10.8235
lan	-10.8235
院	-10.8237
▁Mexico	-10.8237
▁farmers	-10.8238
▁fail	-10.8239
家庭	-10.8241
数量	-10.8242
▁appeared	-10.8242
▁aim	-10.8246
dl	-10.8249
充分	-10.825
Database	-10.8251
Figure	-10.8253
axis	-10.8253
Category	-10.8256
▁leader	-10.8258
▁campaign	-10.8263
wrapper	-10.8264
lg	-10.8265
▁Have	-10.8265
判断	-10.8268
////////////////	-10.8272
▁possibly	-10.8279
cy	-10.828
▁touch	-10.8287
▁Program	-10.8292
▁rapid	-10.8299
▁army	-10.8299
▁USA	-10.8302
▁procedures	-10.8304
产	-10.8309
台	-10.8313
▁Those	-10.8313
▁messages	-10.8315
传	-10.8317
▁Di	-10.8318
ji	-10.8318
▁drink	-10.8319
▁{}	-10.8322
▁plt	-10.8323
▁"/	-10.8326
仅	-10.8326
real	-10.8327
▁lesson	-10.833
article	-10.8333
▁persons	-10.8335
▁parallel	-10.8335
▁accuracy	-10.8337
Operation	-10.8339
▁assume	-10.8342
行动	-10.8345
▁nice	-10.8347
▁periods	-10.8348
protobuf	-10.8351
rich	-10.8351
▁demonstrated	-10.8351
协调	-10.8354
Auth	-10.8355
je	-10.8356
▁prices	-10.8359
财产	-10.8361
our	-10.8362
▁transmission	-10.8363
▁abuse	-10.8363
▁threat	-10.8368
▁comprehensive	-10.837
etc	-10.8371
▁mobile	-10.8372
▁achieved	-10.8379
▁Medicine	-10.838
▁floor	-10.8388
来说	-10.8389
ada	-10.839
法治	-10.8398
▁impossible	-10.8398
核心	-10.84
▁pp	-10.8405
▁vegetables	-10.8406
▁portion	-10.8417
▁Ca	-10.8417
的历史	-10.842
Game	-10.8422
落实	-10.8424
▁fair	-10.8425
▁whereas	-10.8428
远	-10.8428
下降	-10.8428
缺乏	-10.8431
EC	-10.8432
▁opened	-10.8434
▁gone	-10.8435
▁tips	-10.8438
layer	-10.8441
▁Island	-10.8444
承担	-10.8446
▁mechanisms	-10.8448
▁underlying	-10.8449
▁employees	-10.8452
ov	-10.8453
▁comments	-10.8455
ions	-10.8456
▁functional	-10.8457
▁interests	-10.8458
sch	-10.8461
州	-10.8461
▁Find	-10.8463
脑	-10.8465
how	-10.8467
install	-10.847
stat	-10.8471
▁applicable	-10.8475
docker	-10.8475
▁broken	-10.8475
▁principle	-10.8479
参数	-10.848
Graph	-10.8481
效应	-10.8481
microsoft	-10.8489
训练	-10.8489
▁listed	-10.8492
Cell	-10.8493
schema	-10.8498
▁pregnancy	-10.85
▁greatest	-10.8506
▁inflammation	-10.8509
ard	-10.8509
activity	-10.8512
del	-10.8515
ification	-10.8516
を	-10.8519
▁pair	-10.852
整个	-10.8521
tra	-10.8522
▁yellow	-10.8525
表现	-10.8525
感	-10.853
扩大	-10.8534
▁extended	-10.8534
ou	-10.8534
▁opposite	-10.8535
▁bank	-10.8536
▁concerned	-10.8539
文学	-10.8551
难以	-10.8551
▁reader	-10.8552
▁Bio	-10.8553
▁Additionally	-10.8555
而言	-10.8555
csv	-10.8556
▁angle	-10.8556
licenses	-10.8558
▁compare	-10.8573
▁vary	-10.8581
声	-10.8582
bus	-10.8584
▁increasingly	-10.8585
ot	-10.8586
normal	-10.8587
▁Land	-10.8591
▁camera	-10.8591
Current	-10.8591
such	-10.8592
equation	-10.8594
当事人	-10.8594
深入	-10.8596
pull	-10.8598
annotation	-10.8598
▁Jews	-10.8599
CA	-10.8602
▁oral	-10.8604
Display	-10.8606
理念	-10.8607
tor	-10.8608
▁recognized	-10.8611
预测	-10.8614
▁colors	-10.8615
讨论	-10.8617
video	-10.8619
分类	-10.8619
▁capable	-10.8621
▁'<	-10.8621
Msg	-10.8622
▁Mo	-10.8623
sym	-10.8623
Load	-10.8624
▁vector	-10.8624
▁muscles	-10.8625
▁NASA	-10.8627
▁chemicals	-10.8628
isation	-10.8629
▁Good	-10.8631
突出	-10.8631
report	-10.8633
▁closely	-10.8633
帮助	-10.8636
results	-10.8637
▁Women	-10.8637
move	-10.8643
Package	-10.8646
connection	-10.8647
▁latter	-10.8649
▁possibility	-10.8654
▁Which	-10.8659
DE	-10.8661
▁relation	-10.8665
较	-10.8665
▁detail	-10.8666
▁distinct	-10.8667
route	-10.8668
▁youth	-10.8668
中国共产党	-10.8669
ella	-10.8669
▁Second	-10.8671
▁claims	-10.8677
Listener	-10.8678
ors	-10.8682
PR	-10.8686
▁PR	-10.8688
mem	-10.8689
宪法	-10.869
某	-10.869
▁impacts	-10.8692
▁seconds	-10.8692
room	-10.8695
IS	-10.8697
▁Britain	-10.8698
role	-10.8699
思维	-10.8704
▁Robert	-10.8704
▁runs	-10.8706
Obj	-10.8707
▁decide	-10.8709
读	-10.8709
表达	-10.8712
▁administration	-10.8717
▁stated	-10.8723
形	-10.8723
▁sold	-10.8725
▁businesses	-10.8728
pop	-10.8734
about	-10.8734
▁sensitive	-10.8736
▁depth	-10.8739
关键	-10.874
▁creates	-10.8742
▁facilities	-10.8746
有利于	-10.8748
ON	-10.8749
▁diverse	-10.8751
▁introduction	-10.876
计算机	-10.8761
▁automatically	-10.8763
ries	-10.8763
▁stages	-10.8764
panel	-10.8766
▁km	-10.877
支撑	-10.8772
▁ease	-10.8776
▁station	-10.878
易	-10.8781
▁Does	-10.8783
差	-10.8788
▁enhance	-10.8788
▁feedback	-10.8789
▁Mary	-10.8789
second	-10.8795
₁	-10.8796
EN	-10.8798
▁intervention	-10.8799
ure	-10.88
儿童	-10.88
处于	-10.8801
Float	-10.8802
会议	-10.8803
selected	-10.8805
▁Yet	-10.8806
proc	-10.8807
▁rapidly	-10.8812
▁roots	-10.8817
▁improving	-10.8817
dom	-10.882
税	-10.882
▁documents	-10.882
词	-10.8826
Email	-10.8827
▁probability	-10.8828
▁Who	-10.8831
▁attribute	-10.8832
▁sufficient	-10.8837
▁conduct	-10.8837
arrow	-10.8838
star	-10.8839
blue	-10.8839
▁village	-10.884
更多	-10.8841
▁abstract	-10.8843
▁broad	-10.8845
复杂	-10.8846
▁pull	-10.8847
"));	-10.8849
端	-10.8851
▁agreement	-10.8851
▁crisis	-10.8852
▁familiar	-10.8853
▁massive	-10.8853
language	-10.8853
Logger	-10.8854
▁Russia	-10.8856
▁accepted	-10.8858
println	-10.8864
▁sum	-10.8867
known	-10.8875
quot	-10.8877
shared	-10.888
▁facts	-10.888
gov	-10.8881
▁signals	-10.8885
arch	-10.8885
▁interactions	-10.8888
support	-10.8888
gar	-10.8893
费	-10.8895
连接	-10.8898
▁regularly	-10.8901
▁guidelines	-10.8902
▁normally	-10.8906
▁intake	-10.8906
▁suffering	-10.8906
▁maintenance	-10.8912
е	-10.8913
▁views	-10.8913
犯罪	-10.8914
Reader	-10.8915
▁Studies	-10.8915
配置	-10.8921
chain	-10.8921
▁stock	-10.8921
▁detected	-10.8923
取	-10.8924
▁choices	-10.8928
▁recognize	-10.8929
▁intelligence	-10.893
mac	-10.8934
见	-10.8935
qui	-10.8937
▁flowers	-10.8937
正在	-10.8939
证据	-10.8941
‘	-10.8944
▁domestic	-10.8948
▁documentation	-10.8953
言	-10.8955
▁supports	-10.8961
▁wear	-10.8961
▁behaviour	-10.8962
area	-10.8963
tion	-10.8964
▁replaced	-10.8966
▁Ma	-10.8974
▁answers	-10.8977
▁Under	-10.8982
Users	-10.8986
require	-10.8986
pkg	-10.8986
▁detect	-10.899
Product	-10.8991
▁justice	-10.8996
▁opening	-10.8996
▁categories	-10.8997
蛋白	-10.8997
▁aspect	-10.8999
limit	-10.9004
存储	-10.9006
▁describes	-10.9009
ix	-10.9025
的方法	-10.903
▁moral	-10.9032
▁COVID	-10.9033
▁centuries	-10.9039
▁battery	-10.9042
Be	-10.9045
农	-10.9045
▁Management	-10.9046
▁composition	-10.9049
政	-10.9049
▁walls	-10.905
▁instructions	-10.9051
联合	-10.9053
核	-10.9054
impl	-10.9055
循环	-10.9055
▁journal	-10.9056
▁vast	-10.9057
▁license	-10.9057
▁Power	-10.9058
Per	-10.906
▁prove	-10.9064
▁Lake	-10.9064
▁compliance	-10.9064
▁prepare	-10.9065
▁managed	-10.9067
lab	-10.907
▁nutrients	-10.9071
queue	-10.9072
群	-10.9073
▁assess	-10.9073
Co	-10.9074
▁vote	-10.9078
acc	-10.908
的方式	-10.9081
画	-10.9081
▁category	-10.9081
▁represented	-10.9083
▁stable	-10.909
handler	-10.9092
▁establish	-10.9099
▁percentage	-10.9102
sen	-10.9102
NS	-10.9106
▁obvious	-10.9108
▁hyper	-10.9111
VERSION	-10.9111
cp	-10.9113
▁rural	-10.9114
▁chosen	-10.9117
官	-10.9119
▁indeed	-10.9123
师	-10.9123
▁understood	-10.9124
交	-10.9124
note	-10.9128
DC	-10.9131
不可	-10.9134
▁inline	-10.9134
▁diversity	-10.9137
watch	-10.914
xd	-10.914
▁explains	-10.9141
▁coast	-10.9143
▁agricultural	-10.9144
▁director	-10.9144
▁parties	-10.9146
▁improvement	-10.9146
engine	-10.9148
▁Global	-10.9151
▁ship	-10.9152
很多	-10.9155
primary	-10.9155
▁naturally	-10.9162
压	-10.9163
cpp	-10.9165
▁flat	-10.9167
很	-10.9168
wiki	-10.9169
region	-10.9171
▁association	-10.9172
▁tumor	-10.9172
era	-10.9174
的基础上	-10.9175
西方	-10.9175
▁loaded	-10.9176
▁grown	-10.9185
▁nations	-10.9192
(){	-10.9196
apply	-10.9197
▁bird	-10.92
逐步	-10.9201
▁closed	-10.9205
履行	-10.9206
▁king	-10.9208
▁Latin	-10.9213
▁calculated	-10.9217
规律	-10.9222
▁definitely	-10.9224
识别	-10.9228
▁counter	-10.9229
AD	-10.9235
▁CO	-10.9238
▁offset	-10.9238
▁correctly	-10.9241
Definition	-10.9242
ik	-10.9243
▁Book	-10.9245
▁Answer	-10.9246
▁Python	-10.925
来看	-10.9251
footer	-10.9258
hand	-10.9262
自我	-10.9264
life	-10.9265
▁Initialized	-10.9266
▁weak	-10.9267
▁considering	-10.9268
情	-10.9273
Queue	-10.9274
▁Professor	-10.9276
▁Army	-10.9278
▁Du	-10.9278
▁magnetic	-10.9278
Process	-10.9282
像	-10.9282
▁writer	-10.9282
▁measurement	-10.9283
topic	-10.9284
▁calculate	-10.9284
▁tooth	-10.9285
膜	-10.9289
▁steel	-10.9292
观察	-10.9295
Debug	-10.9296
避免	-10.93
PS	-10.9305
▁chapter	-10.9307
Script	-10.931
score	-10.9312
▁measurements	-10.9312
Network	-10.9313
month	-10.9314
请求	-10.9317
色	-10.9318
ger	-10.9323
格	-10.9325
▁−	-10.9326
▁resolution	-10.9332
▁west	-10.9333
▁grid	-10.9333
广泛	-10.9336
负责	-10.9339
Init	-10.934
▁aid	-10.934
▁convert	-10.9342
▁truly	-10.9342
▁hundreds	-10.9346
▁stone	-10.9351
▁spot	-10.9352
ties	-10.9354
flag	-10.9354
Tab	-10.9365
act	-10.9368
▁Middle	-10.9371
▁Where	-10.9384
转移	-10.9384
义	-10.9388
▁calling	-10.9389
▁indicated	-10.9395
▁harm	-10.9399
SET	-10.9401
黄	-10.9405
▁ball	-10.9406
▁cars	-10.9408
Use	-10.9408
▁Apache	-10.9412
多个	-10.9416
"},	-10.9416
Details	-10.9418
不足	-10.9419
▁dynamic	-10.942
疾病	-10.942
▁scene	-10.9421
▁western	-10.9421
screen	-10.9423
努力	-10.9425
ju	-10.9428
品	-10.9429
▁confidence	-10.9431
▁secure	-10.9432
▁Hi	-10.9433
成立	-10.9442
并不	-10.9445
联系	-10.9445
▁voltage	-10.9447
▁coal	-10.9449
拥有	-10.945
rows	-10.9452
▁conclusion	-10.9457
database	-10.9457
β	-10.946
技能	-10.946
▁Con	-10.9468
▁Rights	-10.9468
价	-10.9472
真	-10.9474
医疗	-10.9477
专家	-10.9481
▁sports	-10.9483
▁stem	-10.9486
flags	-10.9491
▁Bible	-10.9492
fl	-10.9493
▁criteria	-10.9496
fb	-10.9497
▁estimate	-10.9498
仍	-10.9499
▁prevention	-10.9501
parser	-10.9503
▁raw	-10.9505
▁Natural	-10.9505
▁engage	-10.9506
▁seemed	-10.9511
▁Old	-10.9512
现在	-10.9512
▁representation	-10.9513
▁vehicles	-10.9514
"{{	-10.9515
▁skill	-10.952
▁funding	-10.9525
▁monitor	-10.9526
person	-10.9527
Return	-10.9528
▁sit	-10.9531
团队	-10.9532
▁plus	-10.9533
▁dental	-10.9533
▁acts	-10.9535
▁card	-10.9535
rule	-10.9536
逐渐	-10.9536
社区	-10.9539
▁originally	-10.9539
TR	-10.954
Register	-10.954
反映	-10.9545
▁tells	-10.9546
▁continuous	-10.9549
剂	-10.955
▁architecture	-10.9551
▁driver	-10.9552
attribute	-10.9552
Impl	-10.9552
▁medications	-10.9557
▁environments	-10.9558
abs	-10.9559
监测	-10.9561
▁News	-10.9562
city	-10.9563
▁accounts	-10.9563
老	-10.9564
▁medication	-10.9567
▁residents	-10.957
fer	-10.9571
Password	-10.9571
▁experimental	-10.9576
深化	-10.9578
▁landscape	-10.9585
ds	-10.9587
▁conventional	-10.9588
性的	-10.9588
▁Li	-10.959
在于	-10.9601
▁farm	-10.9602
▁Home	-10.9602
tan	-10.9605
▁Will	-10.9608
库	-10.9615
红	-10.9617
江	-10.962
▁demonstrate	-10.9623
▁supporting	-10.9627
道德	-10.9628
diff	-10.9629
▁FOR	-10.9629
▁regional	-10.9633
▁molecules	-10.9637
mean	-10.9637
PA	-10.9638
pad	-10.9639
edge	-10.964
▁asking	-10.9648
short	-10.9649
总结	-10.9651
Parent	-10.9652
INFO	-10.9652
商品	-10.9654
▁thanks	-10.9654
▁discovery	-10.9655
▁Ho	-10.966
▁Example	-10.9661
▁nodes	-10.9664
▁movements	-10.9665
独立	-10.9666
▁survive	-10.9667
이	-10.967
请	-10.9672
loop	-10.9672
交通	-10.9672
▁adopted	-10.9677
等方面	-10.9681
▁doubt	-10.9681
Directory	-10.9682
▁poverty	-10.9685
seq	-10.9687
▁fruits	-10.9687
收	-10.9689
That	-10.9689
显示	-10.9691
Lock	-10.9693
▁beneficial	-10.9694
然后	-10.97
matrix	-10.9702
▁snow	-10.9703
AB	-10.9704
▁outcome	-10.9705
▁Given	-10.9707
▁cluster	-10.9707
NULL	-10.9708
年代	-10.9709
▁band	-10.9709
员	-10.9711
河	-10.9712
▁thin	-10.9712
inline	-10.9713
▁infected	-10.9715
土	-10.9716
▁slowly	-10.972
鼓励	-10.9721
▁curriculum	-10.9721
▁deaths	-10.9721
▁lots	-10.9722
names	-10.9724
xb	-10.9725
▁programming	-10.9726
builder	-10.9727
▁filled	-10.9727
Metadata	-10.9728
Args	-10.973
▁goods	-10.9731
诗	-10.9733
▁manufacturing	-10.9737
▁substance	-10.9738
lic	-10.9739
▁guess	-10.9741
▁necessarily	-10.9743
新时代	-10.9744
▁crops	-10.9746
▁figures	-10.9746
▁extensive	-10.9753
首	-10.9753
done	-10.9753
▁Bay	-10.9754
竞争	-10.9757
▁observations	-10.9758
▁realize	-10.9759
▁tradition	-10.9759
▁Charles	-10.9763
Panel	-10.9763
任	-10.9765
Pre	-10.9766
"/>	-10.9767
pack	-10.977
植物	-10.9775
▁locations	-10.9779
exception	-10.9779
▁leadership	-10.978
罪	-10.9786
▁controls	-10.9788
UN	-10.9789
快速	-10.9789
▁daughter	-10.9789
phi	-10.9791
lines	-10.9791
eg	-10.9797
起来	-10.9798
▁hidden	-10.9801
▁Post	-10.9802
通信	-10.9802
NET	-10.9803
▁Bo	-10.9805
▁En	-10.9806
▁tea	-10.9806
Cluster	-10.9807
Route	-10.9807
▁press	-10.9808
security	-10.9814
▁stroke	-10.9814
▁suffer	-10.9815
▁expansion	-10.9817
▁Company	-10.9823
▁song	-10.9823
▁Office	-10.9825
They	-10.9826
▁Civil	-10.9829
▁Henry	-10.983
▁Environmental	-10.9836
▁""	-10.9838
blog	-10.9839
▁sand	-10.984
药	-10.9847
▁modified	-10.985
air	-10.985
▁universe	-10.985
cluster	-10.9855
×	-10.9855
曾	-10.9856
▁officials	-10.9857
▁inner	-10.9857
▁creative	-10.986
▁arms	-10.9862
ek	-10.9864
linux	-10.9864
ina	-10.9865
even	-10.9865
▁Among	-10.9869
rel	-10.9873
重视	-10.9875
各类	-10.9881
▁Street	-10.9884
cu	-10.9884
′	-10.9888
und	-10.9893
exists	-10.9894
▁lessons	-10.9895
itis	-10.9896
▁plot	-10.9896
▁husband	-10.9897
整合	-10.9898
▁advance	-10.99
face	-10.9903
▁delete	-10.9906
北京	-10.9906
"],	-10.9907
▁prefer	-10.9908
修改	-10.991
包含	-10.9911
ast	-10.9913
fit	-10.9913
▁marriage	-10.9914
inner	-10.9916
▁park	-10.992
Equal	-10.9926
boolean	-10.993
▁del	-10.9933
▁horse	-10.9936
▁replace	-10.994
▁unable	-10.994
▁speaking	-10.9942
tags	-10.9942
▁Sometimes	-10.9943
▁objective	-10.9943
dec	-10.9946
故	-10.9946
应对	-10.9947
▁habitat	-10.995
少	-10.9952
member	-10.9954
▁district	-10.9958
人工智能	-10.9959
▁Peter	-10.996
▁examine	-10.9961
知	-10.9961
▁electronic	-10.9961
Show	-10.9964
lat	-10.9964
▁capture	-10.9967
Items	-10.9968
联	-10.9968
valid	-10.9969
根	-10.997
Adapter	-10.997
▁Space	-10.9974
▁walking	-10.9974
▁partner	-10.9976
▁desired	-10.9976
血	-10.9976
▁reserved	-10.9976
加工	-10.9978
▁holds	-10.9979
▁duration	-10.998
▁professionals	-10.9982
▁struggle	-10.9984
controller	-10.9989
▁thread	-10.9989
乡村	-10.9991
FA	-10.9996
▁attached	-10.9996
platform	-10.9998
ify	-10.9998
抗	-11.0001
delta	-11.0002
▁decline	-11.0005
▁greatly	-11.0008
高度	-11.0011
Main	-11.0015
▁biggest	-11.0016
Step	-11.0017
▁Returns	-11.0019
▁difficulty	-11.0019
war	-11.0021
▁closer	-11.0021
一切	-11.0022
框架	-11.0023
▁''	-11.0026
execute	-11.0027
▁depend	-11.0027
▁purchase	-11.0028
cha	-11.003
Bundle	-11.0032
(@	-11.004
往往	-11.004
▁flex	-11.004
▁formal	-11.0041
英国	-11.0042
▁audience	-11.0044
▁Early	-11.0044
▁east	-11.0046
▁circumstances	-11.0046
Auto	-11.0047
CI	-11.0047
介绍	-11.0049
▁mis	-11.0055
▁inches	-11.0057
high	-11.0057
ide	-11.0058
▁shot	-11.0059
▁movie	-11.0061
▁recognition	-11.0062
▁blocks	-11.0063
▁Question	-11.0067
▁Pacific	-11.0071
试验	-11.0076
另一方面	-11.0076
教授	-11.0077
协同	-11.0077
ai	-11.0079
体现	-11.0081
▁"\	-11.0081
▁delivery	-11.0083
▁scope	-11.0085
▁setup	-11.0085
enable	-11.009
▁haven	-11.0093
系统的	-11.0095
▁WARRANTIES	-11.0096
ini	-11.0099
sky	-11.0101
▁cutting	-11.0102
路径	-11.0103
Dialog	-11.0104
神	-11.0107
Active	-11.011
▁Study	-11.0111
▁relations	-11.0112
metadata	-11.0115
▁communicate	-11.0116
▁favorite	-11.0119
ML	-11.0121
Pool	-11.0122
▁implied	-11.0124
▁worldwide	-11.0125
toggle	-11.0126
pb	-11.0126
Bytes	-11.0129
▁contained	-11.0129
ans	-11.013
干	-11.0131
Invalid	-11.0132
表明	-11.0139
▁flight	-11.0139
sign	-11.0143
身	-11.0143
形态	-11.0144
来源	-11.0145
▁$$	-11.0157
▁Commission	-11.0159
案	-11.0162
▁%}	-11.0164
ins	-11.0164
需	-11.0167
药物	-11.017
▁Language	-11.0171
来自	-11.0174
星	-11.0175
▁instrument	-11.0177
▁brother	-11.0177
▁minor	-11.0179
xFF	-11.018
亚	-11.0182
two	-11.0183
Generic	-11.0183
陈	-11.0188
Profile	-11.019
▁Mac	-11.0195
▁container	-11.0198
▁contract	-11.0199
求	-11.02
▁putting	-11.0201
▁ahead	-11.0203
▁sell	-11.0205
du	-11.0205
▁gap	-11.0207
▁couldn	-11.0207
▁Sch	-11.0208
]{	-11.0208
(__	-11.0209
不得	-11.0209
Enum	-11.0209
▁decreased	-11.0211
ura	-11.0216
focus	-11.0216
▁holding	-11.0216
海洋	-11.0217
wrap	-11.0218
Click	-11.0219
▁connections	-11.0222
▁turns	-11.0233
的能力	-11.0233
Go	-11.0233
IC	-11.0234
ens	-11.0236
▁circuit	-11.0237
志	-11.0243
▁girl	-11.0245
▁married	-11.0246
created	-11.0249
depth	-11.0249
▁trials	-11.0255
▁millions	-11.0258
▁knows	-11.0264
汉	-11.0265
▁soldiers	-11.0266
sync	-11.027
职业	-11.0272
投入	-11.0272
▁waves	-11.0274
▁ear	-11.0278
Admin	-11.0278
机关	-11.0279
Parse	-11.028
black	-11.028
证	-11.0281
agent	-11.0282
Writer	-11.0282
ren	-11.0283
jar	-11.0284
How	-11.0288
Func	-11.0288
▁assistance	-11.0289
事业	-11.0291
TEST	-11.0292
Total	-11.0294
恢复	-11.0296
▁governments	-11.0296
Err	-11.0297
音	-11.0298
Kind	-11.03
tests	-11.0301
▁emotions	-11.0305
az	-11.0311
从事	-11.0311
只是	-11.0312
phone	-11.0313
▁significance	-11.0318
观点	-11.0325
Microsoft	-11.0327
▁ultimately	-11.0327
▁circle	-11.0327
play	-11.0329
▁CD	-11.0329
trans	-11.0329
]\]	-11.0333
极	-11.0334
▁Jo	-11.0336
动力	-11.0338
▁maintaining	-11.0338
Copy	-11.0339
▁marked	-11.034
▁layers	-11.0341
CF	-11.0347
▁secret	-11.0351
▁injuries	-11.0353
▁Pa	-11.0353
loss	-11.0355
▁immediate	-11.0355
▁childhood	-11.0361
TD	-11.0362
除了	-11.0363
logo	-11.0368
重新	-11.0369
bd	-11.037
大数据	-11.0371
Report	-11.0373
原因	-11.0373
卡	-11.0374
edu	-11.0377
追求	-11.0378
▁produces	-11.0381
▁elif	-11.0382
▁Library	-11.0385
cart	-11.0388
▁apart	-11.0389
观念	-11.0389
II	-11.0391
properties	-11.0392
▁producing	-11.0398
dp	-11.04
▁Soviet	-11.0401
▁customers	-11.0401
▁younger	-11.0401
including	-11.0402
节点	-11.0402
▁decade	-11.0403
round	-11.0404
挑战	-11.041
alert	-11.0411
▁lung	-11.0411
▁Though	-11.0411
意见	-11.0412
▁limits	-11.0415
sdk	-11.0416
转变	-11.0419
主张	-11.0422
▁sections	-11.0424
差异	-11.0425
▁copyright	-11.0426
▁dedicated	-11.0426
年的	-11.0432
物流	-11.0433
▁rel	-11.0436
sqrt	-11.0437
▁cards	-11.0438
▁university	-11.0439
改	-11.0442
Domain	-11.0446
ud	-11.0451
边	-11.0452
▁agriculture	-11.0452
Extension	-11.0453
▁Sa	-11.0457
▁binary	-11.0457
▁zone	-11.0459
mt	-11.0462
▁ret	-11.0462
▁basically	-11.0465
▁machines	-11.0467
ning	-11.0472
结	-11.0481
链	-11.0482
callback	-11.0482
▁TO	-11.0482
包	-11.0483
▁download	-11.0483
points	-11.0493
í	-11.0494
速度	-11.0494
▁permission	-11.0494
财政	-11.0494
定位	-11.0501
Files	-11.0503
火	-11.0503
▁provider	-11.0505
events	-11.0507
越	-11.0507
▁dose	-11.051
的过程	-11.051
▁insurance	-11.0512
super	-11.0514
余	-11.0514
▁owner	-11.0516
罗	-11.0522
平衡	-11.0522
▁transportation	-11.0523
▁sharing	-11.0525
▁carefully	-11.0525
▁harmful	-11.0527
▁javax	-11.0528
▁studying	-11.0528
▁computers	-11.0529
AA	-11.0531
▁vertical	-11.0531
▁household	-11.0534
▁Tu	-11.0536
▁taste	-11.0537
例	-11.0538
▁Ko	-11.054
▁instruction	-11.054
之前	-11.054
▁coffee	-11.0543
while	-11.0543
)}	-11.0544
tin	-11.0544
▁'/	-11.0551
▁Work	-11.0552
▁par	-11.0554
案件	-11.0559
▁boost	-11.0559
kind	-11.0559
utf	-11.0563
片	-11.0565
conv	-11.0566
▁Per	-11.0567
▁crop	-11.0568
kg	-11.0569
▁finished	-11.0572
▁pictures	-11.0574
▁molecular	-11.0575
▁Mark	-11.0576
");	-11.0576
▁fell	-11.0576
▁conversation	-11.0576
▁brown	-11.0578
submit	-11.0581
▁versions	-11.0581
▁readers	-11.0581
material	-11.0581
树	-11.0583
▁resulted	-11.0586
track	-11.0586
编	-11.0589
公开	-11.059
据	-11.0591
▁render	-11.0594
组成	-11.0595
ep	-11.0595
▁win	-11.0597
▁desire	-11.0598
温度	-11.06
▁involve	-11.0601
▁chief	-11.0602
的新	-11.0602
ball	-11.0604
junit	-11.0604
fff	-11.0606
zero	-11.0609
哲学	-11.0611
pin	-11.0613
Global	-11.0613
▁concrete	-11.0614
审查	-11.0617
▁mention	-11.0618
智慧	-11.0618
地位	-11.0621
dimensional	-11.0623
▁explanation	-11.0624
Meta	-11.0626
共享	-11.0632
nu	-11.0633
▁drawing	-11.0635
ville	-11.0636
reset	-11.0636
▁foundation	-11.0637
procedure	-11.0637
▁protocol	-11.0639
aa	-11.0644
▁binding	-11.0645
学院	-11.0645
▁aircraft	-11.0645
▁routine	-11.065
▁moon	-11.0654
▁participate	-11.0654
▁principal	-11.0657
▁belief	-11.0664
yl	-11.0665
分布	-11.0666
runtime	-11.0669
▁yes	-11.0669
属性	-11.0674
children	-11.0675
便	-11.0678
▁Virginia	-11.0679
▁smoke	-11.0692
位置	-11.0693
▁Canadian	-11.0694
Reg	-11.0695
▁doctors	-11.0701
▁token	-11.0703
▁Nature	-11.0703
▁strongly	-11.0703
八	-11.0706
注重	-11.0709
▁nerve	-11.071
ros	-11.0711
▁laboratory	-11.0712
bed	-11.0713
▁trouble	-11.0716
▁positions	-11.0716
▁mg	-11.0719
突破	-11.0719
▁Common	-11.0723
MM	-11.0725
▁fiber	-11.0726
丰富	-11.0726
的要求	-11.0728
▁compounds	-11.0731
▁supposed	-11.0733
▁passing	-11.0736
北	-11.0736
tech	-11.0739
Col	-11.0741
▁rain	-11.0744
multi	-11.0744
▁confirmed	-11.0744
Empty	-11.0748
▁consumer	-11.0751
shift	-11.0752
detail	-11.0755
▁Guide	-11.0755
ā	-11.0758
一次	-11.0759
▁Version	-11.0759
▁Control	-11.0763
▁cultures	-11.0763
force	-11.0768
▁Australian	-11.077
Boolean	-11.0771
FF	-11.0772
▁lifestyle	-11.0773
▁trip	-11.0775
▁(*	-11.0776
什么	-11.0777
▁smart	-11.0778
▁Part	-11.0779
学术	-11.0782
ino	-11.0784
BA	-11.0787
会计	-11.0787
BC	-11.0788
肿瘤	-11.0789
动态	-11.0794
MO	-11.0795
λ	-11.0796
factor	-11.0797
Layer	-11.0798
▁poly	-11.0799
ward	-11.0799
ck	-11.08
▁reliable	-11.0801
▁challenging	-11.0802
▁Through	-11.0804
kin	-11.0804
namespace	-11.0807
集体	-11.0813
▁thousand	-11.0815
具备	-11.0816
一定	-11.0817
ld	-11.0818
想	-11.0819
ev	-11.0823
▁division	-11.0824
▁neither	-11.0825
▁spiritual	-11.0825
▁transform	-11.0826
消费者	-11.0826
▁trained	-11.0827
ws	-11.0828
数据库	-11.0829
▁investigate	-11.0829
Font	-11.083
▁Paris	-11.0838
▁ended	-11.0845
▁tank	-11.0847
▁tissues	-11.0849
主动	-11.0849
▁execution	-11.0853
▁password	-11.0856
ane	-11.0856
▁Florida	-11.0858
cfg	-11.086
▁sweet	-11.0862
Top	-11.0862
把握	-11.0862
tx	-11.0865
▁Smith	-11.0865
保险	-11.0866
流程	-11.0866
▁stands	-11.0867
倍	-11.0871
od	-11.0872
本身	-11.0873
cost	-11.0875
尽管	-11.0876
▁permanent	-11.0876
相比	-11.0878
▁roles	-11.0879
供给	-11.0879
基础设施	-11.0881
列	-11.0884
linear	-11.0884
双方	-11.0885
素	-11.0889
PI	-11.089
简单	-11.0893
para	-11.0896
what	-11.0897
Role	-11.0898
▁fighting	-11.0898
feature	-11.0901
视	-11.0901
▁callback	-11.0903
学者	-11.0903
题	-11.0903
lam	-11.0906
版	-11.091
kwargs	-11.0912
Custom	-11.0914
引领	-11.0914
液	-11.0915
iz	-11.0915
▁receiving	-11.0919
Math	-11.0919
Find	-11.0919
team	-11.092
▁estimates	-11.092
▁competition	-11.0921
▁flu	-11.0922
ey	-11.0923
定义	-11.0923
▁involving	-11.0924
案例	-11.0925
初	-11.0925
native	-11.0925
▁marine	-11.0928
resources	-11.0933
▁acids	-11.0936
放	-11.0938
thread	-11.0938
▁toxic	-11.0939
counter	-11.0939
▁pet	-11.0939
('/	-11.0941
的行为	-11.0942
论文	-11.0944
▁plane	-11.0947
▁Learn	-11.0948
▁examined	-11.0948
▁Ar	-11.0948
▁enemy	-11.0949
▁somewhat	-11.0952
创建	-11.0952
心理	-11.0954
卷	-11.0955
tri	-11.0956
▁mortality	-11.096
工艺	-11.0961
融资	-11.0961
以来	-11.0962
library	-11.0962
商业	-11.0963
▁permissions	-11.0963
SQL	-11.0966
cn	-11.0967
▁Lu	-11.097
aria	-11.0976
特色	-11.098
▁maps	-11.098
FS	-11.098
债务	-11.0981
SELECT	-11.099
▁discover	-11.099
▁Catholic	-11.0991
称为	-11.0992
▁Committee	-11.0993
教材	-11.0993
▁cent	-11.0994
▁debate	-11.0995
▁smoking	-11.0995
mal	-11.1
制造业	-11.1001
loader	-11.1002
站	-11.1003
▁courses	-11.1005
Pattern	-11.1006
most	-11.1007
汽车	-11.1008
压力	-11.1009
▁constantly	-11.101
Google	-11.1012
▁Dis	-11.1013
▁integration	-11.1013
ding	-11.1014
▁fewer	-11.1015
▁folder	-11.1016
Has	-11.1017
▁consumers	-11.1018
▁mouse	-11.1018
▁subsequent	-11.1021
▁loved	-11.1022
▁stack	-11.1023
阅读	-11.1023
▁agents	-11.1024
BE	-11.1025
▁Three	-11.1029
transition	-11.1029
▁calcium	-11.1032
alt	-11.1034
parameters	-11.1036
ual	-11.1038
健全	-11.1039
▁audio	-11.104
а	-11.104
▁Ad	-11.1043
乐	-11.1046
su	-11.1047
packages	-11.1048
碳	-11.1048
▁behaviors	-11.105
体制	-11.1051
义务	-11.1055
▁assigned	-11.1055
Common	-11.1057
▁reactions	-11.1057
特定	-11.1058
stats	-11.1058
▁bed	-11.1059
skip	-11.106
▁alt	-11.1061
▁Keep	-11.1066
▁spirit	-11.1067
gr	-11.1068
▁Brown	-11.1071
▁teams	-11.1073
fish	-11.1077
近年来	-11.1078
AC	-11.1078
▁standing	-11.1079
研发	-11.1079
▁absence	-11.1081
▁bones	-11.1082
DR	-11.1083
uc	-11.1084
▁destroyed	-11.1086
ME	-11.1086
然	-11.1087
▁Boolean	-11.1087
的变化	-11.1087
[$	-11.1088
▁houses	-11.1091
▁wealth	-11.1092
▁Men	-11.1094
▁Whether	-11.1094
Rate	-11.1094
Plugin	-11.1094
的内容	-11.1095
▁variation	-11.1096
是在	-11.1096
arm	-11.1097
matic	-11.1098
▁Chapter	-11.11
统计	-11.1101
▁pool	-11.1104
▁Design	-11.1106
▁escape	-11.1106
vert	-11.1109
千	-11.1113
费用	-11.1113
AP	-11.1115
Child	-11.1115
多种	-11.1116
uni	-11.1118
Transaction	-11.1119
▁Federal	-11.1119
▁employed	-11.1121
&#	-11.1121
CE	-11.1122
Variable	-11.1122
的规定	-11.1123
▁proof	-11.1127
Part	-11.1127
iNdEx	-11.1131
partial	-11.1135
▁regulations	-11.1137
现实	-11.1138
▁diagnosed	-11.1139
面对	-11.1139
Match	-11.1141
▁camp	-11.1142
▁authorities	-11.1143
青年	-11.115
▁peak	-11.1154
减	-11.1156
▁insulin	-11.1156
▁Unfortunately	-11.1157
▁agent	-11.116
两种	-11.116
▁Jan	-11.1162
▁Tri	-11.1164
Engine	-11.1169
▁master	-11.117
带来	-11.117
Double	-11.1171
▁ourselves	-11.1174
▁acute	-11.1175
▁grew	-11.1177
▁Write	-11.1179
▁spaces	-11.118
全部	-11.1183
半	-11.1183
▁dust	-11.1186
▁entered	-11.1186
download	-11.1187
GC	-11.1188
调节	-11.1192
▁Try	-11.1192
▁stomach	-11.1193
▁happening	-11.1194
ky	-11.1195
console	-11.1197
▁colour	-11.1198
Collections	-11.12
▁budget	-11.1204
▁imaging	-11.1205
▁requests	-11.1207
▁smooth	-11.1211
ably	-11.1216
改革开放	-11.1216
▁Ba	-11.1219
▁ends	-11.1221
osis	-11.1221
▁hydrogen	-11.1222
rank	-11.1224
▁accessible	-11.1224
▁artificial	-11.1227
培育	-11.1229
机械	-11.1229
困难	-11.1232
theme	-11.1236
▁knowing	-11.1237
▁waiting	-11.1237
▁stability	-11.1239
▁papers	-11.124
销售	-11.1241
权力	-11.1243
▁tiny	-11.1244
刘	-11.1245
一方面	-11.1246
的人	-11.1247
▁logic	-11.1249
▁III	-11.125
▁constructed	-11.1251
▁amazing	-11.1251
▁department	-11.1251
▁Richard	-11.1253
fetch	-11.1255
lar	-11.1257
▁profile	-11.1258
事实	-11.1258
学生的	-11.1259
▁imagine	-11.126
▁arrived	-11.126
â	-11.1261
Back	-11.1262
▁firm	-11.1262
▁customer	-11.1263
▁frequent	-11.1265
har	-11.1265
特性	-11.1267
▁governing	-11.1267
▁agencies	-11.1271
步	-11.1271
▁der	-11.1272
grad	-11.1272
▁Cancer	-11.1272
▁spectrum	-11.1275
CT	-11.1278
件	-11.1281
CS	-11.1281
▁Anti	-11.1282
▁glucose	-11.1283
居	-11.1286
▁collect	-11.1289
place	-11.129
适用	-11.129
▁organized	-11.1295
▁pure	-11.13
mc	-11.13
▁entity	-11.1301
▁Egypt	-11.1304
▁vessels	-11.1304
eval	-11.1308
基金	-11.1309
发布	-11.1311
setup	-11.1312
NA	-11.1312
ST	-11.1314
▁Security	-11.1314
▁targets	-11.1317
she	-11.1317
▁signed	-11.1318
▁Asian	-11.1319
▁Republic	-11.132
▁Ne	-11.1321
部署	-11.1322
Flag	-11.1328
ks	-11.133
环节	-11.133
▁drawn	-11.1336
ker	-11.1344
神经	-11.1344
▁Based	-11.1345
contact	-11.1345
▁optimal	-11.1352
▁integrated	-11.1354
▁habits	-11.1355
▁crime	-11.1357
pragma	-11.1358
▁collaboration	-11.136
driver	-11.136
Fi	-11.1362
上海	-11.1367
▁Disease	-11.1367
关	-11.1367
▁undefined	-11.1367
Space	-11.1367
▁analyzed	-11.137
▁Michael	-11.1373
bu	-11.1376
á	-11.1377
防	-11.1377
▁joined	-11.1377
以后	-11.1378
encode	-11.138
JS	-11.138
▁theme	-11.1381
under	-11.1381
▁housing	-11.1382
▁mix	-11.1384
fire	-11.1385
▁conversion	-11.1388
_{\	-11.1391
▁arm	-11.1392
wp	-11.1394
▁listen	-11.1394
▁troops	-11.1395
Descriptor	-11.14
礼	-11.1401
comp	-11.1407
HTTP	-11.1408
▁offering	-11.141
▁spending	-11.1414
с	-11.1416
▁translation	-11.1416
bs	-11.1417
▁Table	-11.1419
生成	-11.1419
更新	-11.1421
特别	-11.1422
sig	-11.1423
springframework	-11.1423
▁statistics	-11.1423
▁$(	-11.1425
AF	-11.1425
induced	-11.1427
▁Ver	-11.1429
BR	-11.143
DA	-11.1435
还有	-11.1435
▁fairly	-11.1436
▁Joseph	-11.1439
▁\[[@	-11.1439
▁Nations	-11.1441
"<	-11.1444
classes	-11.1444
进程	-11.1445
MD	-11.1445
引	-11.1445
ius	-11.1449
DD	-11.145
▁UN	-11.1451
正常	-11.1451
IE	-11.1451
javascript	-11.1453
▁comfortable	-11.1453
▁presentation	-11.1455
fix	-11.1456
assertEquals	-11.1457
Statement	-11.1457
▁dealing	-11.1458
export	-11.1459
▁mountain	-11.146
状况	-11.1463
MA	-11.1463
▁psychological	-11.1465
新型	-11.1466
数字化	-11.1467
▁Ka	-11.1467
Def	-11.1468
士	-11.1469
▁regard	-11.1473
mathcal	-11.1475
▁bi	-11.1476
▁prime	-11.1477
负	-11.148
CL	-11.1481
tf	-11.1486
▁twenty	-11.1486
▁mechanical	-11.1488
▁breathing	-11.1488
▁wildlife	-11.1488
性质	-11.1492
▁nine	-11.1495
ig	-11.1496
pid	-11.1497
外部	-11.1498
企业的	-11.1498
Editor	-11.1498
音乐	-11.1498
des	-11.15
*/	-11.15
tail	-11.1502
▁Mc	-11.1507
▁WITHOUT	-11.151
复	-11.1511
localhost	-11.1512
Note	-11.1512
▁semi	-11.1514
精	-11.1514
▁contribution	-11.1515
___	-11.1517
SE	-11.1517
▁scores	-11.1518
医学	-11.152
收集	-11.1521
share	-11.1523
folder	-11.1524
▁modify	-11.1527
ln	-11.1535
*)	-11.1536
道路	-11.1538
▁Italian	-11.1538
做好	-11.1538
七	-11.154
han	-11.1543
▁cm	-11.1545
ku	-11.1547
旧	-11.1548
客户	-11.1548
Member	-11.1549
GA	-11.155
战争	-11.1551
pur	-11.1555
角	-11.1559
▁complicated	-11.1559
▁feeding	-11.1561
输入	-11.1562
issues	-11.1563
▁forests	-11.1565
真正	-11.1567
尤其是	-11.1567
▁predict	-11.1568
ica	-11.1569
田	-11.157
▁Bank	-11.1573
gram	-11.1573
▁assist	-11.1575
▁Step	-11.1576
cut	-11.1576
病毒	-11.1577
Me	-11.1578
▁fly	-11.1579
Success	-11.158
Enabled	-11.1582
矛盾	-11.1584
▁bill	-11.1587
三是	-11.1588
▁characterized	-11.1596
bl	-11.1598
▁expert	-11.1604
▁panel	-11.1605
▁Board	-11.1605
传输	-11.1606
и	-11.1607
generate	-11.1608
段	-11.161
原理	-11.1612
RA	-11.1613
米	-11.1615
公民	-11.1616
▁substantial	-11.1616
主要是	-11.1616
▁Southern	-11.1617
hl	-11.1619
eu	-11.1619
状	-11.1622
的数据	-11.1622
修	-11.1623
PM	-11.1625
Runtime	-11.1626
oc	-11.1628
▁Italy	-11.1628
▁ages	-11.1628
latest	-11.163
▁Martin	-11.1631
层面	-11.1631
TH	-11.164
▁screening	-11.164
iso	-11.1646
▁tag	-11.1648
collection	-11.1652
After	-11.1652
IV	-11.1653
连	-11.1656
的一种	-11.1656
Remove	-11.1657
▁adds	-11.1657
▁stopped	-11.166
▁python	-11.1661
性和	-11.1666
相关的	-11.1667
诊断	-11.1671
Ch	-11.1673
▁investigation	-11.1676
感染	-11.1679
▁philosophy	-11.1679
架构	-11.1679
▁literally	-11.1679
▁browser	-11.168
SI	-11.1682
ct	-11.1682
三个	-11.1684
▁Age	-11.1685
angle	-11.1687
劳动者	-11.1689
板	-11.169
▁concentrations	-11.1693
take	-11.1697
Len	-11.1697
▁usual	-11.1697
经济发展	-11.1701
OP	-11.1701
▁plenty	-11.1702
▁attributes	-11.1704
▁approved	-11.1704
news	-11.1705
lim	-11.1705
front	-11.1706
污染	-11.1708
第四	-11.1712
Feature	-11.1713
▁owners	-11.1713
▁meta	-11.1713
▁à	-11.1715
设施	-11.1716
▁register	-11.1716
▁cloud	-11.1717
▁sensitivity	-11.1719
CB	-11.172
Scale	-11.1724
▁coverage	-11.1724
trace	-11.1728
▁Big	-11.1728
LE	-11.1729
lower	-11.173
▁strain	-11.1731
▁Section	-11.1733
cpu	-11.1733
▁Royal	-11.1734
▁vulnerable	-11.1735
款	-11.1735
nie	-11.1738
▁minute	-11.1739
blank	-11.1741
Arg	-11.1741
Generator	-11.1742
▁operate	-11.1753
▁velocity	-11.1754
▁isolated	-11.1755
ó	-11.1756
tile	-11.1757
validate	-11.1757
▁beliefs	-11.1762
▁saved	-11.1763
图像	-11.1765
▁curve	-11.1765
▁politics	-11.1768
▁essentially	-11.177
Internal	-11.177
▁Next	-11.1771
▁warming	-11.1775
navbar	-11.1778
American	-11.178
▁Bar	-11.1782
希望	-11.1785
的一个	-11.1788
参加	-11.1795
▁turning	-11.1796
Errorf	-11.1797
printf	-11.1797
med	-11.18
ron	-11.1802
▁diameter	-11.1804
CODE	-11.1804
yaml	-11.1805
▁moves	-11.1805
▁excess	-11.1805
▁Report	-11.1806
▁worst	-11.1806
ola	-11.1808
RS	-11.1808
▁Analysis	-11.1812
现代化	-11.1812
social	-11.1814
▁bound	-11.1814
▁ongoing	-11.1815
mas	-11.1816
▁breath	-11.1817
▁bigger	-11.1819
▁manager	-11.1821
mg	-11.1821
have	-11.1822
av	-11.1822
人民法院	-11.1822
▁reduces	-11.1823
)|	-11.1827
股东	-11.1829
Events	-11.1831
▁recommendations	-11.1831
MT	-11.1832
▁legs	-11.1835
▁neck	-11.1835
▁sick	-11.1835
安排	-11.1835
Identifier	-11.1836
失	-11.1839
LC	-11.1842
平均	-11.1843
模拟	-11.1844
▁hypothesis	-11.1844
▁street	-11.1844
Changed	-11.1845
兵	-11.1846
▁centre	-11.1846
▁im	-11.1846
Now	-11.185
timeout	-11.1853
的情况下	-11.1854
▁artist	-11.1854
▁funds	-11.1856
born	-11.1857
进而	-11.1857
爱	-11.1858
▁reverse	-11.1858
族	-11.1859
▁passage	-11.1859
体育	-11.1859
相应的	-11.1861
▁cholesterol	-11.1861
ery	-11.1861
分为	-11.1864
hen	-11.1867
mol	-11.1867
引起	-11.1868
▁rely	-11.1868
▁Java	-11.1871
Delta	-11.1871
课堂	-11.1871
ob	-11.1871
▁matters	-11.1873
repo	-11.1877
sk	-11.1877
界	-11.1877
▁intensity	-11.1878
metric	-11.188
zone	-11.1881
的基础	-11.1882
▁interact	-11.1883
quality	-11.1885
▁lay	-11.1885
▁Mars	-11.1885
趋势	-11.1885
▁deliver	-11.1886
比例	-11.1889
▁guidance	-11.189
also	-11.1892
▁structural	-11.1892
▁trend	-11.1893
▁nutrition	-11.1893
▁mark	-11.1894
动物	-11.1895
▁advantages	-11.1896
nodes	-11.1897
throw	-11.1899
Multi	-11.1901
成员	-11.1901
认知	-11.1902
▁warning	-11.1903
ERR	-11.1904
欧洲	-11.1907
▁extract	-11.1907
repeat	-11.1909
团	-11.191
throws	-11.1912
▁{{	-11.1912
"${	-11.1916
mann	-11.1917
exports	-11.1917
形成了	-11.1918
dr	-11.1919
▁bear	-11.192
▁absolutely	-11.1921
()	-11.1923
▁agency	-11.1925
酸	-11.193
传感器	-11.1932
▁composed	-11.1934
输出	-11.1934
stage	-11.1935
▁declared	-11.1937
expr	-11.1937
▁effectiveness	-11.1939
trim	-11.1939
登记	-11.194
ising	-11.194
中国的	-11.1942
军事	-11.1948
pair	-11.1949
▁removal	-11.195
columns	-11.1951
▁industries	-11.1952
显著	-11.1952
▁tube	-11.1953
▁TV	-11.1954
的同时	-11.1955
举	-11.1956
眼	-11.1957
太	-11.1961
exec	-11.1967
一样	-11.1971
▁FROM	-11.1972
▁Native	-11.1974
▁sales	-11.1975
仍然	-11.1976
Pointer	-11.1977
lies	-11.1977
环	-11.1978
▁bright	-11.1978
贡献	-11.1979
普通	-11.1982
▁feels	-11.1983
▁classification	-11.1987
expect	-11.1988
▁dependent	-11.199
认定	-11.1991
文章	-11.1992
群体	-11.1994
▁examination	-11.1995
▁fever	-11.1995
▁preparation	-11.1996
▁lab	-11.1998
▁Several	-11.1998
▁instruments	-11.2
▁axis	-11.2002
Case	-11.2006
校	-11.2006
运	-11.2006
如下	-11.2007
▁colleagues	-11.2008
▁granted	-11.2009
维	-11.2009
▁debt	-11.201
兴	-11.2011
made	-11.2017
▁Ben	-11.2022
ations	-11.2023
▁strict	-11.2023
打造	-11.2027
▁everyday	-11.2029
boot	-11.203
▁partners	-11.203
ops	-11.2032
▁committed	-11.2033
▁obesity	-11.2034
▁Vi	-11.2034
布局	-11.2036
▁React	-11.2036
算	-11.2037
history	-11.2043
德国	-11.2047
▁identification	-11.2048
接	-11.2049
'];	-11.2049
upload	-11.2051
▁thick	-11.2055
亦	-11.2061
错误	-11.2063
骨	-11.2064
▁insects	-11.2064
Failed	-11.2065
▁equations	-11.2067
▁informed	-11.2067
思考	-11.2067
▁trigger	-11.2068
ene	-11.2069
▁Ocean	-11.2069
eth	-11.2069
che	-11.207
▁territory	-11.207
Detail	-11.207
▁kidney	-11.2072
"$	-11.2078
mit	-11.2081
普遍	-11.2081
₂	-11.2085
▁observation	-11.2086
专	-11.2089
布	-11.209
▁participation	-11.2091
▁stronger	-11.2095
▁boys	-11.2096
临床	-11.2098
}^{	-11.2098
Comment	-11.2102
变量	-11.2103
给予	-11.2115
Login	-11.2116
▁implements	-11.2116
▁fossil	-11.2116
▁brief	-11.212
吸收	-11.2121
▁Hall	-11.2121
▁attempts	-11.2122
foot	-11.2124
▁employment	-11.2125
▁hence	-11.2127
▁Lo	-11.2127
▁EU	-11.213
▁era	-11.2132
▁initially	-11.2132
▁Spain	-11.2134
▁videos	-11.2134
▁Northern	-11.2135
USER	-11.2137
▁Empire	-11.2138
▁nearby	-11.2138
▁anywhere	-11.2139
更为	-11.2142
所谓	-11.2142
▁>>	-11.2143
▁covers	-11.2144
▁statements	-11.2147
"	-11.2147
proxy	-11.2149
▁careful	-11.2149
▁resolve	-11.2151
pages	-11.2151
▁hardware	-11.2154
▁±	-11.2156
▁supplies	-11.2158
当时	-11.216
direction	-11.2164
▁instances	-11.2164
▁dataset	-11.2166
另外	-11.2167
▁ensuring	-11.2168
Send	-11.2169
▁election	-11.2174
令	-11.2175
▁correlation	-11.2176
损害	-11.2178
ified	-11.2178
实现了	-11.2179
参考	-11.218
设	-11.218
▁bytes	-11.2181
▁bridge	-11.2181
宣传	-11.2182
根本	-11.2184
不会	-11.2189
▁meal	-11.219
▁respiratory	-11.2192
▁mood	-11.2192
simple	-11.2193
▁Ireland	-11.2194
SL	-11.2194
知识产权	-11.2196
framework	-11.2196
▁cats	-11.2196
▁cleaning	-11.2197
▁willing	-11.2201
▁nervous	-11.2202
ging	-11.2204
▁powers	-11.2206
▁guy	-11.2206
bootstrap	-11.2207
▁Last	-11.2207
merge	-11.2207
wide	-11.2208
始终	-11.2209
▁Climate	-11.2212
改造	-11.2216
诉讼	-11.2216
ade	-11.2217
yo	-11.222
……	-11.2221
ran	-11.2221
同样	-11.2223
▁Further	-11.2225
▁schedule	-11.2226
MC	-11.2227
▁announced	-11.2228
▁defense	-11.223
▁launch	-11.2231
Shape	-11.2231
▁implications	-11.2233
nce	-11.2233
▁weapons	-11.2235
EE	-11.2235
▁combat	-11.2237
plugins	-11.2238
▁push	-11.2238
▁Ph	-11.224
dx	-11.2241
Scope	-11.2243
异	-11.2243
确认	-11.2244
▁dollars	-11.2245
▁activation	-11.2245
dataset	-11.2245
▁algorithms	-11.2246
yes	-11.2246
speed	-11.2249
▁issued	-11.2253
▁presents	-11.2261
▁tail	-11.2262
vers	-11.2262
▁membrane	-11.2263
に	-11.2263
▁alert	-11.2264
▁watching	-11.2265
">	-11.2265
▁expand	-11.2266
文献	-11.2267
变革	-11.2271
特殊	-11.2271
hide	-11.2271
km	-11.2274
▁``	-11.2276
自动	-11.2277
传统的	-11.2278
DI	-11.2281
▁evaluated	-11.2281
RNA	-11.2282
食品	-11.2282
subject	-11.2283
▁regardless	-11.2284
anti	-11.2284
▁©	-11.2287
亲	-11.2293
▁revolution	-11.2293
百	-11.2294
防止	-11.2298
设立	-11.2299
([]	-11.2299
conn	-11.2299
描述	-11.2301
▁generations	-11.2302
DS	-11.2305
▁Group	-11.2306
▁aims	-11.2307
面临	-11.2307
科研	-11.2308
▁quantum	-11.2309
▁sitting	-11.231
brief	-11.2312
▁physics	-11.2314
▁universal	-11.2314
ü	-11.2314
▁interpretation	-11.2316
▁rgba	-11.2319
▁maintained	-11.2321
▁Non	-11.2322
chan	-11.2322
验证	-11.2322
configuration	-11.2326
办	-11.2327
▁independence	-11.233
editor	-11.2332
▁blog	-11.2333
有助于	-11.2333
▁hole	-11.2337
▁brings	-11.2337
▁Care	-11.2338
]	-11.2338
表面	-11.2339
Save	-11.2346
optional	-11.2346
Any	-11.2348
▁repair	-11.2349
▁reform	-11.235
▁Maybe	-11.2351
▁exercises	-11.2352
的关键	-11.2353
▁influenced	-11.2355
argument	-11.2356
Widget	-11.2359
▁chart	-11.2359
的概念	-11.2361
▁adequate	-11.2361
van	-11.2361
▁scenario	-11.2366
▁Rome	-11.2366
▁neuro	-11.2368
▁copies	-11.2371
▁caught	-11.2372
ode	-11.2373
▁evil	-11.2373
Support	-11.2374
Raw	-11.2377
▁extend	-11.2381
gi	-11.2381
围绕	-11.2383
gg	-11.2383
shell	-11.2383
正确	-11.2384
▁narrow	-11.2386
▁newly	-11.2387
▁launched	-11.239
▁reasonable	-11.2395
Fields	-11.2398
via	-11.2401
rep	-11.2401
▁Chi	-11.2403
态	-11.2404
RO	-11.2406
Comp	-11.241
GB	-11.2412
▁obj	-11.2413
公平	-11.2413
十	-11.2417
就会	-11.2418
tz	-11.242
Transform	-11.2423
Screen	-11.2424
wait	-11.2424
▁Hence	-11.2425
▁seeking	-11.243
uid	-11.243
审计	-11.2431
▁Si	-11.2433
归	-11.2434
chat	-11.2436
▁pregnant	-11.2437
directory	-11.2438
basic	-11.2441
▁Services	-11.2443
▁KIND	-11.2443
▁ordered	-11.2445
LL	-11.2446
▁proportion	-11.2446
▁pandemic	-11.2451
油	-11.2451
▁JSON	-11.2452
zi	-11.2456
single	-11.2462
▁cash	-11.2463
plus	-11.2463
周期	-11.2464
▁silver	-11.2464
▁corn	-11.2467
▁proved	-11.2469
▁handling	-11.2471
标	-11.2474
▁Academy	-11.2475
高效	-11.2477
Models	-11.2479
▁Treatment	-11.2479
自主	-11.248
▁thermal	-11.248
PE	-11.248
单元	-11.2481
care	-11.2482
▁preventing	-11.2482
TS	-11.2483
▁wonder	-11.2486
▁diagnostic	-11.2487
▁beauty	-11.2488
纳入	-11.2488
信用	-11.2491
generated	-11.2492
▁Date	-11.2493
▁rising	-11.2494
▁stores	-11.2496
模块	-11.2497
▁analyze	-11.2497
存	-11.2498
▁favor	-11.2499
band	-11.2499
▁moderate	-11.25
▁mono	-11.2501
▁shell	-11.2505
wise	-11.2509
▁mining	-11.251
▁Carolina	-11.2511
▁scheme	-11.2514
PASSWORD	-11.2514
▁worry	-11.2515
▁TODO	-11.252
轮	-11.2525
▁sensor	-11.2526
收益	-11.2527
▁relief	-11.2528
抑制	-11.2529
▁serving	-11.2535
▁Community	-11.2536
▁Sir	-11.2536
EQ	-11.2537
▁Valley	-11.254
Fragment	-11.2547
▁columns	-11.2547
secret	-11.2548
fp	-11.2548
dependent	-11.2549
▁fourth	-11.2552
▁artists	-11.2553
Rect	-11.2553
▁bug	-11.2555
<<	-11.2559
Sync	-11.2566
途径	-11.2566
ris	-11.2566
Render	-11.2568
NOT	-11.257
iterator	-11.2571
disabled	-11.2571
▁params	-11.2572
sheet	-11.2573
attributes	-11.2573
fall	-11.2578
▁substances	-11.2579
▁greenhouse	-11.258
▁analyses	-11.2584
▁observe	-11.2585
集团	-11.2586
土壤	-11.2588
▁constructor	-11.2589
格局	-11.2589
▁van	-11.259
▁markets	-11.2591
Symbol	-11.2593
dark	-11.2595
▁Party	-11.2596
▁complications	-11.2599
ven	-11.2599
amount	-11.2599
doi	-11.2601
▁processed	-11.2601
']['	-11.2603
▁theories	-11.2606
▁males	-11.2608
ase	-11.2608
城乡	-11.2615
干部	-11.2616
zu	-11.2616
▁interval	-11.2622
▁publication	-11.2624
headers	-11.2625
予以	-11.2625
▁Word	-11.2626
allow	-11.2629
转型	-11.2629
快	-11.2631
Bean	-11.2633
▁seat	-11.2635
▁noticed	-11.2637
▁founded	-11.2637
Media	-11.264
危机	-11.2644
职	-11.2649
这样的	-11.2653
Required	-11.2655
▁Har	-11.2657
流动	-11.2664
个体	-11.2665
障碍	-11.2666
lp	-11.2667
kit	-11.2672
Full	-11.2672
oid	-11.2675
catch	-11.2676
▁pounds	-11.2677
▁mapping	-11.2677
▁consideration	-11.2678
篇	-11.2679
▁painting	-11.268
▁Unless	-11.268
Byte	-11.2681
▁ISBN	-11.2681
▁sizes	-11.2683
推广	-11.2684
▁repeated	-11.2685
载	-11.2685
也有	-11.2688
▁branches	-11.269
Agent	-11.2691
服务器	-11.2692
▁cup	-11.2694
▁organisms	-11.2695
zo	-11.2697
pen	-11.2698
▁BC	-11.2698
caption	-11.2703
resolve	-11.2704
▁rarely	-11.2706
Null	-11.2707
DP	-11.2708
▁surfaces	-11.271
gan	-11.2711
features	-11.2712
▁Vol	-11.2715
基层	-11.2715
Forms	-11.2719
pu	-11.2721
▁Change	-11.2723
sigma	-11.2723
branch	-11.2724
▁und	-11.2725
▁forget	-11.2727
▁listening	-11.2727
PC	-11.2729
memory	-11.273
▁shapes	-11.273
主题	-11.273
▁displayed	-11.2732
因而	-11.2732
▁plate	-11.2733
defined	-11.2733
▁ships	-11.2734
▁captured	-11.2735
decode	-11.2735
human	-11.2738
og	-11.2738
UP	-11.2739
▁union	-11.2742
ious	-11.2743
▁pairs	-11.2744
DEBUG	-11.2745
户	-11.2746
▁Chicago	-11.2747
▁killing	-11.2747
Area	-11.2747
访问	-11.2748
bio	-11.275
▁Kingdom	-11.2753
龙	-11.2754
宗教	-11.2754
▁strings	-11.2757
VM	-11.2758
rf	-11.2759
事务	-11.2759
▁deeper	-11.276
▁sizeof	-11.2762
▁sight	-11.2764
的核心	-11.2766
Cl	-11.2767
deg	-11.2768
分离	-11.2769
客观	-11.277
▁District	-11.2771
у	-11.2773
("%	-11.2778
生命	-11.2779
▁regulation	-11.2779
▁eastern	-11.278
Section	-11.278
为主	-11.2781
ban	-11.2782
▁lies	-11.2784
variable	-11.2784
▁widespread	-11.2788
▁females	-11.2789
▁contents	-11.2792
落	-11.2793
gu	-11.2794
中国特色社会主义	-11.2797
▁replacement	-11.2798
Day	-11.2801
warning	-11.2802
mid	-11.2804
房	-11.2804
▁introduce	-11.2807
▁legislation	-11.2808
▁justify	-11.2812
运营	-11.2812
▁temp	-11.2813
▁Hospital	-11.2813
权益	-11.2814
▁stick	-11.2814
ford	-11.2815
ement	-11.2816
▁facility	-11.2818
PORT	-11.2818
▁"",	-11.2819
九	-11.282
▁Ra	-11.2823
▁assumed	-11.2825
▁migration	-11.2826
Mapping	-11.2827
草	-11.2829
▁damaged	-11.2831
och	-11.2832
推	-11.2832
▁pointer	-11.2836
▁dioxide	-11.2837
致	-11.2838
▁Consider	-11.2839
▁equally	-11.2841
Azure	-11.2841
ric	-11.2843
检验	-11.2843
钱	-11.2843
▁phenomenon	-11.2844
注意	-11.2844
tive	-11.2845
ace	-11.2846
▁bringing	-11.285
bad	-11.285
▁mine	-11.2851
▁characteristic	-11.2853
▁Christmas	-11.2855
▁Times	-11.2857
ever	-11.2861
▁leaf	-11.2862
班	-11.2865
fast	-11.2865
\_\	-11.2866
plan	-11.2867
Limit	-11.2868
▁Main	-11.2869
mobile	-11.2869
seed	-11.2869
▁innovation	-11.2871
▁enabled	-11.2871
▁Click	-11.2872
改进	-11.2874
mathbf	-11.2877
FE	-11.2878
ata	-11.2879
kan	-11.2879
swing	-11.288
铁	-11.2881
▁finish	-11.2888
reader	-11.2889
朝	-11.289
▁wire	-11.2891
信息化	-11.2892
Con	-11.2893
▁corner	-11.2895
作品	-11.2896
▁engaged	-11.2896
▁bought	-11.2896
▁county	-11.2899
ets	-11.2901
▁sky	-11.2903
▁serves	-11.2904
virtual	-11.2905
pd	-11.2906
IR	-11.2907
stone	-11.2908
▁delivered	-11.2911
▁sheet	-11.2916
protected	-11.2916
sup	-11.2921
轻	-11.2922
Binding	-11.2923
rot	-11.2924
▁merely	-11.2927
直	-11.2929
▁complexity	-11.2929
▁telling	-11.2934
contains	-11.2938
守	-11.2939
▁meters	-11.2941
Texture	-11.2943
▁delay	-11.2943
▁opposed	-11.2945
ano	-11.2945
▁Ni	-11.2945
▁interview	-11.2946
▁Dec	-11.2946
实验室	-11.2947
▁boy	-11.2949
▁Due	-11.295
ag	-11.2953
▁gradually	-11.2955
Drawing	-11.2957
fo	-11.2959
>();	-11.296
▁Having	-11.2962
▁outer	-11.2966
OUT	-11.2966
▁transformation	-11.2966
▁unsigned	-11.2967
typeof	-11.2967
几	-11.297
tal	-11.2971
hour	-11.2971
移动	-11.2974
mes	-11.2978
加大	-11.298
独	-11.2982
▁quantity	-11.2982
连续	-11.2983
▁Standard	-11.2983
▁organ	-11.2984
▁separated	-11.2985
▁moisture	-11.2989
FC	-11.2989
Java	-11.299
面积	-11.2993
expression	-11.2994
law	-11.2995
▁Assert	-11.2995
▁Sciences	-11.2996
Flags	-11.2996
Gen	-11.3001
准备	-11.3004
元素	-11.3005
▁lowest	-11.3006
▁Remember	-11.3007
力度	-11.3007
▁Constitution	-11.3007
ological	-11.301
▁fashion	-11.301
windows	-11.301
▁overcome	-11.3015
Move	-11.3017
只能	-11.3018
к	-11.3019
actions	-11.302
▁Researchers	-11.302
叶	-11.302
vin	-11.3023
SC	-11.3024
▁gained	-11.3026
lb	-11.3026
tel	-11.3026
volume	-11.3028
域	-11.3028
MB	-11.3029
▁mild	-11.303
木	-11.3032
▁Network	-11.3032
lor	-11.3033
▁carrying	-11.3034
夫	-11.3036
Wrapper	-11.3037
做到	-11.3044
▁planned	-11.3045
oma	-11.3045
▁organs	-11.3045
vol	-11.3046
Self	-11.3047
▁centers	-11.3047
EP	-11.3048
▁healing	-11.3048
正式	-11.305
过去	-11.3051
▁banks	-11.3051
▁identifying	-11.3052
socket	-11.3053
异常	-11.3056
cv	-11.3058
允许	-11.3058
当然	-11.3061
▁commands	-11.3061
used	-11.3062
Simple	-11.3063
▁argue	-11.3064
▁Help	-11.3065
室	-11.3065
各国	-11.3065
▁nose	-11.3071
}_{	-11.3072
curr	-11.3073
ette	-11.3074
退	-11.3075
LP	-11.3075
▁sought	-11.3077
policy	-11.3077
▁statistical	-11.3082
▁focuses	-11.3086
ians	-11.3089
PO	-11.3091
▁destruction	-11.3091
属	-11.3092
甲	-11.3095
▁fraction	-11.3097
validation	-11.3098
▁reporting	-11.3099
good	-11.3101
owner	-11.3104
MI	-11.3114
lon	-11.3119
▁laser	-11.312
专利	-11.3121
▁designs	-11.3121
unique	-11.3122
▁facing	-11.3122
破坏	-11.3127
生态环境	-11.3128
▁dimensions	-11.3129
aka	-11.3131
▁intellectual	-11.3133
Cloud	-11.3134
▁considerable	-11.3134
▁extern	-11.3138
Temp	-11.314
断	-11.314
藏	-11.3141
▁trends	-11.3141
严格	-11.3143
▁heavily	-11.3143
贷款	-11.3149
是由	-11.3149
页	-11.3151
的结果	-11.3155
▁storm	-11.3156
bound	-11.3157
▁translate	-11.316
▁converted	-11.316
ithubusercontent	-11.3163
▁priority	-11.3164
▁enables	-11.3165
▁computing	-11.3165
▁applying	-11.3166
PT	-11.3172
→	-11.3173
▁concerning	-11.3174
▁dates	-11.3175
HTML	-11.3176
▁Eastern	-11.318
▁Sie	-11.3181
▁soul	-11.3182
宗	-11.3183
ski	-11.3184
tain	-11.3192
ATION	-11.3193
Names	-11.3193
▁req	-11.3195
ned	-11.3196
gamma	-11.3198
▁Following	-11.3199
▁burning	-11.32
La	-11.3213
SP	-11.3213
▁representing	-11.3214
Sequence	-11.3216
ory	-11.3219
TAG	-11.322
▁measuring	-11.322
Memory	-11.322
objects	-11.3225
出口	-11.3225
▁mathematical	-11.3225
▁Fig	-11.3227
交换	-11.3227
HS	-11.3227
▁Hu	-11.323
▁versus	-11.3231
记	-11.3232
▁fellow	-11.3237
▁gut	-11.3238
广	-11.324
fu	-11.3241
▁leg	-11.3243
平等	-11.3249
ose	-11.3251
school	-11.3251
▁Sub	-11.3252
▁Ke	-11.3253
▁labels	-11.3254
职业教育	-11.3257
之中	-11.3259
▁excessive	-11.3262
EL	-11.3264
▁Star	-11.3265
Video	-11.3267
▁officers	-11.3268
Home	-11.3268
invalid	-11.327
GDP	-11.3278
UTF	-11.3278
▁simulation	-11.328
Uri	-11.3281
▁laid	-11.3281
▁difficulties	-11.3281
供	-11.3283
▁harder	-11.3284
运输	-11.3286
Abstract	-11.3286
ToString	-11.3288
APP	-11.3288
Props	-11.3292
▁inform	-11.3294
CN	-11.3294
tool	-11.3297
▁promise	-11.3299
▁evening	-11.33
组合	-11.3301
酶	-11.3306
▁falls	-11.3307
▁television	-11.3309
Price	-11.3312
▁treating	-11.3314
▁mathematics	-11.3315
▁grass	-11.3316
DEFAULT	-11.3316
ara	-11.3318
PD	-11.3319
▁boundaries	-11.3324
{})	-11.3324
▁trauma	-11.3325
▁Family	-11.3325
▁egg	-11.3326
损失	-11.3328
▁PC	-11.333
]))	-11.3331
Prefix	-11.3332
▁ingredients	-11.3335
▁layout	-11.3337
century	-11.3342
▁wine	-11.3346
who	-11.3347
dropdown	-11.3348
▁Perhaps	-11.3349
▁victims	-11.3351
▁plasma	-11.3352
prev	-11.3353
dia	-11.3353
▁Building	-11.3353
Free	-11.3355
Can	-11.3355
▁Amazon	-11.3357
BASE	-11.3358
的工作	-11.3362
ye	-11.3369
▁criminal	-11.3371
媒体	-11.3372
rand	-11.3372
▁proven	-11.3376
demo	-11.3376
▁Da	-11.3376
Ma	-11.3377
World	-11.3378
▁temporary	-11.3385
较为	-11.3386
▁Holy	-11.3387
:**	-11.3388
有着	-11.3389
;">	-11.339
有效的	-11.3393
▁Light	-11.3396
▁puts	-11.3398
dAtA	-11.34
▁removing	-11.3401
omitempty	-11.3403
▁Bill	-11.3404
Xml	-11.3404
grade	-11.3405
illa	-11.3406
由此	-11.3409
体验	-11.341
sel	-11.3411
其次	-11.3412
随	-11.3413
▁capabilities	-11.3414
town	-11.3416
▁windows	-11.3417
集成	-11.342
ula	-11.3421
▁join	-11.3422
labels	-11.3426
▁copper	-11.3429
计	-11.3432
▁totally	-11.3432
groups	-11.3432
▁Should	-11.3433
Sec	-11.3433
▁till	-11.3434
▁acquired	-11.3434
▁chest	-11.3435
▁Bi	-11.3436
nes	-11.3437
▁partial	-11.3438
▁addressed	-11.3441
沙	-11.3444
ita	-11.3447
Ext	-11.345
▁gun	-11.3451
integer	-11.3451
▁Engineering	-11.3452
▁Moon	-11.3453
▁Ta	-11.3453
▁edition	-11.3455
▁contemporary	-11.3457
▁rice	-11.3458
UL	-11.3459
▁babies	-11.3459
▁integer	-11.346
▁Road	-11.3463
▁ran	-11.3467
▁Minister	-11.3471
十分	-11.3474
Volume	-11.3477
▁contributions	-11.3477
▁tags	-11.348
▁segment	-11.3481
parameter	-11.3482
berg	-11.3484
▁waters	-11.3485
那	-11.3486
▁Year	-11.3488
Al	-11.3489
创业	-11.3491
▁Centre	-11.3492
阳	-11.3492
约定	-11.3493
ken	-11.3497
tes	-11.3497
▁Introduction	-11.3502
▁calories	-11.3504
▁managing	-11.3504
SM	-11.3506
▁viruses	-11.3507
▁minerals	-11.3507
查	-11.3507
▁forth	-11.3507
▁Without	-11.3509
Down	-11.351
早期	-11.351
▁transparent	-11.351
▁Te	-11.3511
pat	-11.3513
▁clothing	-11.3513
食	-11.3515
▁burden	-11.3516
▁destroy	-11.3517
▁ignore	-11.3519
▁Environment	-11.3521
▁reveal	-11.3524
#{	-11.3524
Selection	-11.3527
xy	-11.353
SO	-11.3532
▁AD	-11.3534
必然	-11.3534
▁minimal	-11.3536
▁references	-11.3537
国务院	-11.3538
▁senior	-11.354
菌	-11.3542
views	-11.3544
SR	-11.3544
▁roughly	-11.3544
Region	-11.355
stock	-11.3553
VALUE	-11.3555
▁sin	-11.3555
ser	-11.3558
▁providers	-11.3559
▁doi	-11.356
▁investigated	-11.3564
gs	-11.3566
hood	-11.3566
▁confirm	-11.3567
pic	-11.3569
▁Plan	-11.3569
免疫	-11.3572
▁mixture	-11.3572
press	-11.3574
等等	-11.3574
Res	-11.3574
曲	-11.3575
AR	-11.3576
脱	-11.3581
▁Modern	-11.3583
卫生	-11.3584
mag	-11.3584
▁interventions	-11.3584
HR	-11.3584
面向	-11.3588
也可以	-11.3588
▁preferred	-11.3589
country	-11.359
")]	-11.359
激励	-11.3591
geo	-11.3592
▁realized	-11.3593
容易	-11.3594
clean	-11.36
▁spatial	-11.36
实体	-11.3602
都有	-11.3606
▁compound	-11.3606
MP	-11.3607
死	-11.3607
跨	-11.361
▁editor	-11.361
导	-11.361
▁Support	-11.3614
Registry	-11.3615
program	-11.3616
的思想	-11.3617
▁sharp	-11.362
总体	-11.3621
pf	-11.3623
History	-11.3623
▁neurons	-11.3627
▁Irish	-11.3627
▁shouldn	-11.3627
提	-11.3628
▁decay	-11.3629
▁boundary	-11.3632
▁bias	-11.3633
▁intense	-11.3633
Ex	-11.3636
fail	-11.3637
cout	-11.3637
考	-11.3639
ons	-11.3639
т	-11.3642
▁transaction	-11.3643
行使	-11.3643
friendly	-11.3651
问	-11.3652
Socket	-11.3653
重要的	-11.3655
预防	-11.3655
▁Po	-11.3658
左右	-11.3659
▁prominent	-11.366
▁Micro	-11.3661
icons	-11.3661
Join	-11.3664
▁channels	-11.3664
▁discrimination	-11.3667
旅游	-11.3668
▁guys	-11.367
善	-11.3672
英	-11.3672
▁texts	-11.3672
▁hash	-11.3675
▁Mi	-11.3675
▁aimed	-11.3675
▁Linux	-11.3675
一定的	-11.3676
gate	-11.3677
▁×	-11.3678
一直	-11.3678
工作的	-11.3679
▁renewable	-11.3679
的时候	-11.3681
bra	-11.3683
▁pan	-11.3683
▁specify	-11.3683
▁Indeed	-11.3683
▁Queen	-11.3685
居民	-11.3685
▁IP	-11.3685
Language	-11.3686
rho	-11.3687
新闻	-11.3687
factory	-11.3687
中华人民共和国	-11.3687
▁satellite	-11.3687
▁manual	-11.3687
▁farming	-11.369
Program	-11.3691
▁particle	-11.3692
▁comfort	-11.3693
日益	-11.3695
▁CI	-11.3696
▁eliminate	-11.3697
▁neural	-11.3698
DM	-11.3699
PL	-11.37
▁strange	-11.3701
代码	-11.3702
▁mock	-11.3705
Print	-11.3705
▁verify	-11.3709
▁dance	-11.371
▁Low	-11.3711
▁hormone	-11.3714
cor	-11.3715
Db	-11.3716
▁Problem	-11.3717
▁predicted	-11.3717
背景	-11.3721
Flow	-11.3721
▁rotation	-11.3721
唐	-11.3722
▁asthma	-11.3722
▁sister	-11.3722
ue	-11.3727
analysis	-11.373
做出	-11.3731
sz	-11.3731
作业	-11.3737
迅速	-11.374
巴	-11.3743
▁bread	-11.3743
电力	-11.3743
STR	-11.3745
General	-11.3745
▁availability	-11.3745
▁Licensed	-11.3745
▁Photo	-11.3747
▁marks	-11.3749
▁optical	-11.3749
▁historic	-11.3749
NE	-11.3749
Attributes	-11.3749
ax	-11.3753
各个	-11.3754
enabled	-11.3754
▁claimed	-11.3754
Proxy	-11.3754
盘	-11.3756
▁sequences	-11.3757
pub	-11.3758
▁repeat	-11.3763
El	-11.3764
▁les	-11.3764
▁logging	-11.3765
功	-11.3765
金属	-11.3765
▁heating	-11.3766
队	-11.3768
late	-11.3769
▁disk	-11.3769
冲突	-11.3772
而不是	-11.3777
▁lean	-11.3778
▁performing	-11.3781
bp	-11.3782
)));	-11.3782
Lib	-11.3782
SD	-11.3783
▁Ja	-11.3783
照	-11.3784
▁pour	-11.3786
▁differ	-11.3787
▁sending	-11.3789
产生的	-11.379
▁buying	-11.3793
▁bacterial	-11.3795
▁ok	-11.3797
▁rocks	-11.3798
▁contributed	-11.3798
slice	-11.38
卫星	-11.3803
▁Did	-11.3804
块	-11.3804
▁interactive	-11.3808
▁Blue	-11.381
▁Understanding	-11.3811
黑	-11.3814
▁updates	-11.3815
▁Forest	-11.3817
▁torch	-11.3819
▁abilities	-11.3822
ew	-11.3823
呢	-11.3827
有所	-11.3829
duration	-11.3834
bits	-11.3835
ib	-11.3836
▁Organization	-11.3836
▁kid	-11.3837
资本主义	-11.3837
▁dimension	-11.3837
DL	-11.3838
▁illegal	-11.384
▁apparent	-11.384
▁covering	-11.3841
FL	-11.3841
▁danger	-11.3841
▁registered	-11.3844
:#	-11.3846
一系列	-11.3852
▁variations	-11.3855
▁magnitude	-11.386
一条	-11.3864
을	-11.3864
注	-11.3867
▁sensors	-11.3872
▁candidate	-11.3872
▁Online	-11.3873
▁brand	-11.3873
▁Sha	-11.3874
▁directed	-11.3875
▁Reading	-11.3878
EA	-11.3882
provider	-11.3884
坚定	-11.3885
▁paint	-11.3885
Constants	-11.3885
&&	-11.3885
OF	-11.3887
加速	-11.3891
async	-11.3894
员工	-11.3894
assertTrue	-11.3897
▁encouraged	-11.3898
vel	-11.3898
▁Thank	-11.3898
gy	-11.3898
▁learners	-11.3899
strip	-11.39
具	-11.3901
▁affecting	-11.3903
拓展	-11.3906
▁losing	-11.3906
circle	-11.3907
▁personality	-11.3907
▁improvements	-11.3909
▁tall	-11.391
ν	-11.391
尊重	-11.391
排	-11.3911
▁Zealand	-11.3911
▁Young	-11.3911
Namespace	-11.3914
ong	-11.3914
▁disaster	-11.3915
ET	-11.3915
▁requirement	-11.3916
▁Force	-11.3916
▁PM	-11.3916
▁unusual	-11.3917
square	-11.3917
▁indicating	-11.392
oo	-11.392
展开	-11.392
ments	-11.3922
继承	-11.3927
▁clients	-11.393
course	-11.3932
▁demands	-11.3933
▁Facebook	-11.3933
▁cooking	-11.3934
REG	-11.3936
▁exam	-11.3938
▁stations	-11.3939
▁commitment	-11.3941
▁Lee	-11.3942
Single	-11.3942
ware	-11.3946
转换	-11.3946
▁emphasis	-11.3946
▁printed	-11.3951
习近平总书记	-11.3951
▁sudo	-11.3954
SS	-11.3955
▁Cross	-11.3955
cross	-11.3955
locale	-11.3957
精准	-11.3958
▁precise	-11.396
WS	-11.3962
rec	-11.3962
uuid	-11.3964
财务	-11.3964
▁Hill	-11.3968
▁Agency	-11.3973
炎	-11.3979
disable	-11.3979
▁consent	-11.3981
上升	-11.3981
dan	-11.3982
Year	-11.3986
▁threats	-11.3986
▁Systems	-11.3988
protocol	-11.3989
▁Division	-11.3994
强度	-11.3995
经济学	-11.3996
TC	-11.3997
construct	-11.3998
早	-11.3998
象	-11.4001
TM	-11.4005
▁perception	-11.4008
降	-11.4008
▁exploration	-11.4009
▁#####	-11.401
argv	-11.4011
BP	-11.4013
roll	-11.4014
eo	-11.4016
▁identical	-11.4016
inter	-11.4016
▁printing	-11.4016
getName	-11.4017
here	-11.4019
MIN	-11.4019
▁herself	-11.4022
▁logger	-11.4028
Non	-11.4028
▁chances	-11.403
▁acting	-11.403
just	-11.4035
激发	-11.4039
▁temple	-11.4042
mathrm	-11.4043
tv	-11.4043
考试	-11.4045
▁insights	-11.4051
▁RNA	-11.4052
▁pH	-11.4053
Duration	-11.4055
Binary	-11.4056
▁pop	-11.4057
的社会	-11.4059
xi	-11.406
素质	-11.4061
和发展	-11.4062
▁prevalence	-11.4063
▁consume	-11.4064
▁HTML	-11.4065
地址	-11.4067
cher	-11.4067
shaped	-11.4068
▁innovative	-11.4068
▁von	-11.4069
tp	-11.4069
▁arts	-11.407
▁thereby	-11.407
▁minimize	-11.4071
▁songs	-11.4072
found	-11.4072
▁integral	-11.4072
测	-11.4073
理性	-11.4075
▁dropped	-11.4076
ruby	-11.4076
▁objectives	-11.4077
▁typedef	-11.4077
▁cache	-11.4078
NC	-11.4079
opts	-11.408
CPU	-11.408
▁Sam	-11.4083
▁pointed	-11.4085
▁concluded	-11.4085
▁coastal	-11.4085
(`	-11.4087
▁incidence	-11.4088
SH	-11.4089
▁worship	-11.409
dialog	-11.4091
的政治	-11.4091
▁Examples	-11.4094
▁falling	-11.4095
▁cardiovascular	-11.4095
live	-11.4097
他人	-11.4098
▁dream	-11.4099
加入	-11.4101
▁sur	-11.4103
▁restore	-11.4104
短	-11.4109
times	-11.411
税收	-11.4111
nic	-11.4112
о	-11.4115
评	-11.4117
▁alive	-11.4119
呈现	-11.4119
走向	-11.4119
("/	-11.4121
补充	-11.4122
▁destination	-11.4122
▁visitors	-11.4123
层次	-11.4123
Library	-11.4124
▁engagement	-11.4124
▁peer	-11.4127
▁Inter	-11.4127
现	-11.4128
▁Still	-11.413
Static	-11.4132
cer	-11.4136
▁trace	-11.4137
覆盖	-11.4137
verse	-11.4139
▁roof	-11.4143
更多的	-11.4143
iness	-11.4144
▁Boston	-11.4146
▁writers	-11.4146
BB	-11.4149
▁horses	-11.4153
▁Fire	-11.4155
▁experiencing	-11.4156
▁Tom	-11.4157
ios	-11.4157
bank	-11.4157
▁Director	-11.4157
▁nitrogen	-11.4159
;</	-11.416
▁classical	-11.4161
引入	-11.4163
wire	-11.4163
operator	-11.4164
Security	-11.4164
▁trail	-11.4166
良好的	-11.4167
gel	-11.4167
Vec	-11.4168
▁Similarly	-11.4169
领域的	-11.4171
▁Van	-11.4173
▁rivers	-11.4175
ney	-11.4177
sis	-11.4179
▁taxes	-11.4179
ple	-11.4182
Mask	-11.4182
▁lists	-11.4186
某些	-11.4186
LINE	-11.4187
cent	-11.4188
▁victim	-11.4189
▁CONDITIONS	-11.419
▁suffered	-11.4191
执法	-11.4193
Track	-11.4194
▁photos	-11.4195
▁narrative	-11.4196
remote	-11.4197
▁promoting	-11.4198
Folder	-11.4199
▁SQL	-11.42
▁drivers	-11.4202
▁Administration	-11.4204
配	-11.4204
经济增长	-11.4204
tl	-11.4207
hy	-11.4208
▁institution	-11.4208
的时间	-11.4209
Keys	-11.421
▁faced	-11.421
▁addresses	-11.4211
▁perfectly	-11.4211
▁fails	-11.4214
▁Being	-11.4215
logging	-11.4216
▁suggesting	-11.4216
▁'@	-11.4216
Doc	-11.4217
▁installation	-11.4219
相结合	-11.422
resp	-11.422
增	-11.4222
▁grain	-11.4227
▁elected	-11.4227
URI	-11.4228
▁Ber	-11.4229
sequence	-11.4229
▁musical	-11.4231
"})	-11.4232
▁superior	-11.4232
Elements	-11.4234
内涵	-11.4235
elem	-11.4246
▁BASIS	-11.4247
后的	-11.4248
▁Unlike	-11.4249
▁flexible	-11.4251
▁expectations	-11.4251
▁steam	-11.4251
▁charged	-11.4253
补	-11.4254
▁Survey	-11.4254
尼	-11.4255
生长	-11.4256
progress	-11.4257
▁Los	-11.4258
▁dynamics	-11.4261
维持	-11.4261
cursor	-11.4262
▁biology	-11.4266
cho	-11.4266
下的	-11.4268
CONFIG	-11.4272
▁determining	-11.4274
温	-11.4276
Sql	-11.4277
▁Atlantic	-11.4277
▁whenever	-11.4278
kernel	-11.4278
yr	-11.428
▁rows	-11.4281
▁keeps	-11.4281
它的	-11.4289
ico	-11.4289
▁establishment	-11.4291
archive	-11.4291
▁Johnson	-11.4291
Iterator	-11.4293
▁repository	-11.4294
pg	-11.4294
▁ecosystem	-11.4294
▁Sunday	-11.4298
dash	-11.4301
ALL	-11.4303
▁sessions	-11.4306
▁Apple	-11.4307
Results	-11.4308
▁therapeutic	-11.4309
最大	-11.4311
compare	-11.4313
社	-11.4316
▁split	-11.4316
▁lens	-11.4316
专门	-11.4318
▁Ge	-11.4318
替代	-11.4319
▁directions	-11.432
养	-11.4322
▁Pi	-11.4324
▁Could	-11.4324
PP	-11.4325
程	-11.4326
mathbb	-11.4329
die	-11.4329
委	-11.433
进步	-11.4334
Marshal	-11.4334
▁orbit	-11.4335
CV	-11.4336
는	-11.4337
升级	-11.4337
Identity	-11.4338
乡	-11.434
考察	-11.4341
▁Oxford	-11.4341
hard	-11.4345
▁Py	-11.4345
▁losses	-11.4346
▁[@	-11.4348
含	-11.4348
▁dietary	-11.4351
零	-11.4351
物联网	-11.4352
health	-11.4353
最高	-11.4355
▁keys	-11.4356
思	-11.4357
▁Revolution	-11.4359
week	-11.436
imp	-11.4362
▁Safety	-11.4362
GR	-11.4363
▁assertEquals	-11.4363
▁assembly	-11.4364
接口	-11.4366
▁adapt	-11.4367
相同	-11.4367
散	-11.4369
bee	-11.4374
ste	-11.4376
▁[];	-11.4379
目	-11.4379
▁apparently	-11.4382
我们党	-11.4384
有机	-11.4384
standard	-11.4384
timestamp	-11.4385
▁focusing	-11.4385
武	-11.4386
une	-11.4387
较大	-11.4388
调控	-11.4388
▁Special	-11.4392
的特点	-11.4393
MR	-11.4396
活	-11.4398
▁paying	-11.4401
▁flows	-11.4401
STRING	-11.4401
探究	-11.4402
▁execute	-11.4403
▁Plant	-11.4406
利率	-11.4407
▁seriously	-11.4408
▁Multi	-11.441
▁Trans	-11.441
ox	-11.4413
▁duty	-11.4414
LT	-11.4414
Timeout	-11.4414
▁mineral	-11.4416
科技创新	-11.4417
准确	-11.442
Li	-11.4421
▁fan	-11.4422
▁officer	-11.4424
▁meaningful	-11.4425
▁clock	-11.4426
MAP	-11.4427
▁quarter	-11.4427
沟通	-11.4428
prob	-11.443
党中央	-11.443
▁anyway	-11.4432
nom	-11.4434
▁bond	-11.4436
启动	-11.4436
智	-11.4436
▁Gu	-11.4438
富	-11.4438
extbf	-11.444
there	-11.4443
▁spin	-11.4443
lay	-11.4444
▁lake	-11.4447
法规	-11.4447
▁ethnic	-11.4449
▁preserve	-11.4449
Stop	-11.4451
IA	-11.4454
▁reaching	-11.4457
Desc	-11.4459
▁applies	-11.446
▁productivity	-11.446
chart	-11.446
▁varieties	-11.4461
▁boat	-11.4462
▁Ten	-11.4464
▁evolved	-11.4465
医院	-11.4467
▁symbols	-11.4467
moz	-11.4468
担保	-11.4468
▁Heart	-11.4468
▁Article	-11.4469
控	-11.4471
▁inspired	-11.4473
eng	-11.4475
assertEqual	-11.4475
▁Korea	-11.4477
▁parser	-11.4479
▁stood	-11.448
▁breaking	-11.448
▁targeted	-11.4481
探讨	-11.4481
听	-11.4484
를	-11.4486
▁tables	-11.4487
pet	-11.449
learning	-11.449
Import	-11.4491
现有	-11.4491
▁holes	-11.4491
▁driven	-11.4493
Environment	-11.4496
ural	-11.4498
的理论	-11.4499
AT	-11.4507
cam	-11.4507
▁hate	-11.4508
▁engaging	-11.4511
▁platforms	-11.4512
XML	-11.4515
球	-11.4517
▁grant	-11.4518
Word	-11.4519
▁marketing	-11.4519
▁physically	-11.4522
DT	-11.4522
▁viewed	-11.4523
slide	-11.4528
▁physician	-11.4529
如此	-11.453
▁recover	-11.453
▁ethical	-11.453
▁breeding	-11.4531
GO	-11.4532
加以	-11.4533
▁assessed	-11.4533
Light	-11.4535
▁roads	-11.4535
▁nano	-11.4535
▁suddenly	-11.4538
angular	-11.4538
弱	-11.4539
▁tip	-11.4539
▁god	-11.454
▁programme	-11.4541
dest	-11.4542
▁Islam	-11.4544
Before	-11.4546
▁wearing	-11.4548
▁cooling	-11.4552
▁fmt	-11.4554
▁giant	-11.456
▁obviously	-11.4561
▁attitude	-11.4561
▁theoretical	-11.4562
scroll	-11.4563
▁differently	-11.4564
试	-11.4565
hal	-11.4566
▁lifetime	-11.4567
mul	-11.4568
nan	-11.4569
▁somewhere	-11.4569
▁conference	-11.457
▁protective	-11.4575
aux	-11.4576
lum	-11.4578
href	-11.4578
Sort	-11.458
是对	-11.4581
▁elsewhere	-11.4583
LD	-11.4584
▁utility	-11.4584
CM	-11.4585
▁scan	-11.4585
AE	-11.4586
payload	-11.4586
▁interior	-11.4587
考核	-11.4588
gas	-11.4588
▁occurring	-11.4588
DF	-11.459
meter	-11.459
dump	-11.459
Condition	-11.4591
▁museum	-11.4591
▁*)	-11.4592
▁exhibit	-11.4593
Interval	-11.4596
▁functioning	-11.4596
rating	-11.4596
渠道	-11.4596
▁recording	-11.4598
Endpoint	-11.4599
Bit	-11.4601
审判	-11.4601
Mod	-11.4603
们	-11.4604
▁Indians	-11.4605
首次	-11.4605
compose	-11.4605
遵循	-11.4605
scan	-11.4605
▁tons	-11.4609
cert	-11.4612
writer	-11.4613
有些	-11.4615
▁panels	-11.4616
science	-11.4616
▁fatty	-11.4618
那些	-11.4619
▁readonly	-11.4621
TE	-11.4625
ay	-11.4626
▁phrase	-11.4627
Trace	-11.4628
▁appreciate	-11.4629
深度	-11.4631
只要	-11.4631
女	-11.4632
反对	-11.4632
左	-11.4632
▁divide	-11.4633
':'	-11.4634
▁HTTP	-11.4634
合成	-11.464
▁enhanced	-11.4643
▁ignored	-11.4647
▁actively	-11.4647
Effect	-11.4647
tc	-11.4648
Objects	-11.4651
住	-11.4652
rap	-11.4652
your	-11.4653
▁threshold	-11.4653
heta	-11.4655
ending	-11.4657
镇	-11.4658
印	-11.4659
中华民族	-11.4659
▁cure	-11.466
DateTime	-11.4661
▁islands	-11.4661
Notification	-11.4661
ari	-11.4662
博	-11.4662
▁chose	-11.4663
▁expanded	-11.4665
pot	-11.4665
约束	-11.4665
destroy	-11.4666
cond	-11.4668
▁blow	-11.4669
▁Business	-11.4669
▁lights	-11.4671
▁Best	-11.4671
笔	-11.4672
切实	-11.4673
▁protecting	-11.4675
▁Fe	-11.4678
Random	-11.4678
Loop	-11.468
冷	-11.468
vendor	-11.4681
Work	-11.4681
▁Look	-11.4681
()))	-11.4683
[@	-11.4684
Counter	-11.4686
▁Results	-11.4687
▁adjust	-11.4687
als	-11.4688
▁patch	-11.4692
▁viral	-11.4693
看到	-11.4696
▁writes	-11.4699
▁declare	-11.4699
was	-11.4699
lig	-11.4701
ero	-11.4701
▁ill	-11.4701
▁facilitate	-11.4702
假	-11.4703
▁hurt	-11.4705
能量	-11.4707
products	-11.4707
sized	-11.471
▁Ya	-11.471
▁Digital	-11.4712
risk	-11.4712
ole	-11.4713
oh	-11.4713
▁classified	-11.4714
▁pipeline	-11.4715
AM	-11.4721
▁vol	-11.4724
Car	-11.4724
Only	-11.4724
▁ownership	-11.4728
operation	-11.4728
势	-11.473
▁finds	-11.473
▁Muslim	-11.4732
▁clothes	-11.4734
Permission	-11.4734
▁racial	-11.4735
▁classic	-11.4736
original	-11.474
Selected	-11.4741
pattern	-11.4742
ij	-11.4743
▁traditions	-11.4744
EM	-11.4747
Chain	-11.4748
DO	-11.4749
Resources	-11.475
LY	-11.4751
▁wet	-11.4752
▁sentences	-11.4752
▁fishing	-11.4755
nc	-11.4755
奇	-11.4756
▁edges	-11.4756
▁technological	-11.4757
▁Resources	-11.4762
extra	-11.4763
▁fatigue	-11.4765
Insert	-11.4767
支	-11.4767
▁orders	-11.4767
{},	-11.4768
股	-11.4771
Yes	-11.4772
装	-11.4773
kar	-11.4776
ach	-11.4776
pan	-11.4776
▁severity	-11.4778
托	-11.4779
切	-11.4781
▁strike	-11.4783
▁receptor	-11.4783
的目标	-11.4783
移	-11.4786
Protocol	-11.4787
额	-11.4788
越来越	-11.4788
▁Para	-11.479
▁bottle	-11.4791
▁literacy	-11.4791
亿	-11.4792
FT	-11.4793
密	-11.4795
•	-11.4795
▁styles	-11.4795
paper	-11.4796
谈	-11.4796
研究人员	-11.4803
Native	-11.4803
▁Level	-11.4804
repository	-11.4806
▁faces	-11.4808
san	-11.4809
▁engineers	-11.4809
LO	-11.4809
Put	-11.481
bib	-11.481
▁mutations	-11.4813
ign	-11.4813
▁functionality	-11.4813
▁pump	-11.4814
▁bag	-11.4814
assign	-11.4814
预	-11.4815
samples	-11.4816
▁Source	-11.4818
▁insight	-11.4819
▁antibiotics	-11.482
▁Scotland	-11.482
origin	-11.4821
hex	-11.4822
▁deficiency	-11.4822
利润	-11.4822
condition	-11.4825
▁SOFTWARE	-11.4826
Real	-11.4828
phase	-11.4829
TA	-11.4829
▁honor	-11.483
▁Super	-11.4831
norm	-11.4831
extension	-11.4832
Bool	-11.4833
▁diagram	-11.4833
Mo	-11.4836
纳	-11.4839
▁Would	-11.4839
eta	-11.4841
▁worker	-11.4841
▁foreach	-11.4843
▁earliest	-11.4846
datetime	-11.4847
▁jump	-11.485
Tests	-11.4855
▁dominant	-11.4858
PDF	-11.4859
▁genome	-11.486
wing	-11.4861
hem	-11.4861
▁perceived	-11.4861
▁scholars	-11.4862
刑法	-11.4863
convert	-11.4864
tus	-11.4865
整	-11.4867
实际上	-11.487
自觉	-11.4874
hot	-11.4876
since	-11.4877
扩展	-11.4877
齐	-11.488
▁Gar	-11.488
▁sport	-11.4881
las	-11.4881
▁meals	-11.4885
▁payment	-11.4885
markdown	-11.4886
▁Conference	-11.4886
▁assignment	-11.4887
▁reproduce	-11.4888
▁precision	-11.4889
ele	-11.4889
large	-11.4889
▁tumors	-11.4891
ind	-11.4893
▁choosing	-11.4893
并非	-11.4894
▁lie	-11.4896
▁regarded	-11.4899
sta	-11.4902
▁visited	-11.4904
▁lands	-11.4905
izer	-11.4907
▁emerging	-11.4908
▁surgical	-11.4908
safe	-11.4909
实时	-11.4913
setting	-11.492
▁progression	-11.4921
统筹	-11.4922
▁Vitamin	-11.4923
驱动	-11.4923
团结	-11.4926
hub	-11.4926
▁controller	-11.4928
条款	-11.4928
▁electron	-11.4929
依	-11.4932
▁consumed	-11.4933
chen	-11.4933
▁slave	-11.4933
▁Different	-11.4936
vs	-11.4937
优先	-11.4938
英语	-11.494
▁NO	-11.494
▁scientist	-11.4942
ads	-11.4948
▁matches	-11.4948
▁wonderful	-11.4949
▁£	-11.495
▁mask	-11.4951
positive	-11.4952
▁involvement	-11.4954
▁representative	-11.4955
习惯	-11.4957
Tags	-11.4958
Loader	-11.4959
威胁	-11.4961
▁Ab	-11.4961
▁Ch	-11.4963
▁pathway	-11.4964
▁addiction	-11.4966
Pr	-11.4969
同步	-11.497
STATUS	-11.4972
▁batteries	-11.4973
RP	-11.4978
必	-11.4979
文本	-11.498
▁Battle	-11.498
▁slavery	-11.498
▁ordinary	-11.4981
▁shorter	-11.4982
▁Alzheimer	-11.4983
▁Louis	-11.4984
▁Wi	-11.4984
▁planting	-11.4986
license	-11.4989
监控	-11.4991
▁bits	-11.4993
▁exciting	-11.4993
'));	-11.4997
▁Fort	-11.4999
可以通过	-11.5
ture	-11.5
▁permit	-11.5001
的根本	-11.5001
购买	-11.5004
转化	-11.5006
网络安全	-11.5006
授权	-11.5008
LA	-11.501
Basic	-11.501
в	-11.5011
lit	-11.5011
步骤	-11.5011
uring	-11.5011
я	-11.5012
symbol	-11.5014
巨大	-11.5015
delay	-11.5018
BS	-11.5019
▁Bur	-11.5021
▁surprise	-11.5023
LI	-11.5025
领	-11.5026
▁spoke	-11.5027
GE	-11.5027
▁disability	-11.5029
他的	-11.5032
是以	-11.5032
Cmd	-11.5034
▁balanced	-11.5034
gui	-11.5034
mini	-11.5035
Ad	-11.5036
▁metabolism	-11.5037
Warning	-11.5038
CHECK	-11.504
pipe	-11.504
”“	-11.5041
Le	-11.5043
▁posted	-11.5046
马克思	-11.5047
▁tape	-11.5048
▁dating	-11.5049
stmt	-11.5052
的情况	-11.5052
虚拟	-11.5053
普	-11.5054
▁deeply	-11.5057
▁vocabulary	-11.5061
诉	-11.5062
接触	-11.5063
▁behavioral	-11.5065
▁cellular	-11.5066
▁suggestions	-11.5067
氏	-11.5069
▁judge	-11.5073
▁sunlight	-11.5076
Expr	-11.5078
▁oldest	-11.5079
**:	-11.5081
▁regression	-11.5082
got	-11.5084
distance	-11.5085
▁flying	-11.5088
Timer	-11.5091
Sample	-11.5091
▁safely	-11.5091
▁horizontal	-11.5092
情感	-11.5095
mr	-11.5095
充分发挥	-11.5095
▁saving	-11.5097
▁separation	-11.5098
▁equality	-11.5099
用人单位	-11.51
▁honey	-11.51
▁cheap	-11.5101
router	-11.5102
造	-11.5102
▁в	-11.5103
▁aged	-11.5103
▁labour	-11.5108
▁heads	-11.5114
▁orientation	-11.5114
▁bus	-11.5115
Camera	-11.5115
Py	-11.5115
▁Pan	-11.5117
▁Run	-11.5119
▁vaccines	-11.5121
的形式	-11.5121
▁adopt	-11.5122
▁poem	-11.5122
dst	-11.5122
的过程中	-11.5122
▁competitive	-11.5125
STATE	-11.5126
▁grand	-11.5126
信息技术	-11.5127
gal	-11.5128
▁executed	-11.513
inc	-11.513
青	-11.5132
创	-11.5132
®	-11.5132
▁Supreme	-11.5133
▁powder	-11.5137
Pro	-11.514
▁tracking	-11.5149
▁gravity	-11.5149
hpp	-11.5151
best	-11.5152
energy	-11.5152
ifdef	-11.5153
patch	-11.5156
阿	-11.5156
▁Show	-11.5157
neg	-11.5158
continue	-11.5158
▁optional	-11.5159
SHA	-11.516
▁afford	-11.5161
TIME	-11.5164
▁attend	-11.5167
▁Scientists	-11.5167
届	-11.5168
▁Ti	-11.517
▁pilot	-11.517
争议	-11.5172
公众	-11.5174
▁Mrs	-11.5174
▁heritage	-11.5174
binding	-11.5174
民间	-11.5174
▁controlling	-11.5175
}^	-11.5179
TF	-11.518
wi	-11.5183
▁Sal	-11.5183
의	-11.5183
▁entering	-11.5185
▁Frank	-11.5185
Mar	-11.5186
▁aggressive	-11.5188
tle	-11.5188
Term	-11.5189
EX	-11.519
▁pot	-11.5191
▁painful	-11.5191
我们的	-11.5192
▁libraries	-11.5193
发行	-11.5193
▁sodium	-11.5193
Center	-11.5194
sw	-11.5194
▁posts	-11.5195
▁plain	-11.5197
在中国	-11.5198
▁Later	-11.5199
依赖	-11.52
ato	-11.52
hello	-11.5204
▁Columbia	-11.5204
Secret	-11.5205
▁rotate	-11.5205
St	-11.5211
当代	-11.5212
forms	-11.5212
rid	-11.5214
批准	-11.5216
▁Protection	-11.5216
proof	-11.5218
▁construct	-11.522
gradient	-11.5221
▁Cor	-11.5223
yy	-11.5223
办法	-11.5224
endpoint	-11.5224
▁adverse	-11.5224
转让	-11.5229
mic	-11.5231
▁intent	-11.5232
互动	-11.5233
Pass	-11.5233
▁grows	-11.5235
ow	-11.5236
PER	-11.5237
▁fault	-11.5237
▁robust	-11.5238
▁checking	-11.5239
磁	-11.524
customer	-11.5241
一致	-11.5244
▁broke	-11.5244
Execute	-11.5245
styles	-11.5245
▁checked	-11.5245
苏	-11.5247
):	-11.5247
金融机构	-11.5247
lie	-11.5249
▁parse	-11.5251
▁([@	-11.5252
▁Prevention	-11.5253
真实	-11.5253
stylesheet	-11.5253
▁paths	-11.5254
▁Ku	-11.5255
RC	-11.5256
Scroll	-11.5257
征	-11.5258
化的	-11.5259
▁Su	-11.5262
▁remarkable	-11.5262
▁traits	-11.5263
Prop	-11.5264
▁Spring	-11.5264
症	-11.5266
generator	-11.5266
ick	-11.5268
▁autism	-11.5268
他们的	-11.5271
▁mature	-11.5271
Score	-11.5273
▁matching	-11.5275
▁accident	-11.5275
▁solving	-11.5275
IM	-11.5275
文字	-11.5277
盐	-11.5281
症状	-11.5282
SA	-11.5283
▁opinions	-11.5284
一体化	-11.5285
▁album	-11.5286
ear	-11.5287
▁Ro	-11.5289
TP	-11.529
▁Right	-11.529
machine	-11.529
固定	-11.5291
确立	-11.5293
▁{};	-11.5295
HOME	-11.5295
▁factory	-11.5295
著	-11.5297
地球	-11.5299
▁Che	-11.53
▁Ohio	-11.5302
▁Music	-11.5307
底	-11.5312
▁Writing	-11.5312
▁batch	-11.5313
再次	-11.5313
▁drought	-11.5315
疫情	-11.5316
▁Within	-11.5316
医	-11.5317
▁Grand	-11.532
sleep	-11.5323
rum	-11.5323
▁invasion	-11.5326
▁murder	-11.5326
▁MD	-11.5327
▁instanceof	-11.5329
▁Im	-11.5331
nb	-11.5335
▁merge	-11.5335
▁cursor	-11.5336
基地	-11.5336
的目的	-11.5338
▁privacy	-11.5338
和其他	-11.534
typename	-11.5342
rules	-11.5343
tex	-11.5347
▁appointed	-11.5348
乱	-11.5348
职能	-11.5349
▁Back	-11.5351
dar	-11.5352
▁wider	-11.5356
Edge	-11.5357
▁workplace	-11.5357
will	-11.5359
shop	-11.536
离	-11.5362
π	-11.5362
▁Integer	-11.5363
EF	-11.5363
响应	-11.5363
▁mom	-11.5363
COM	-11.5363
▁simultaneously	-11.5364
▁Dutch	-11.5365
Example	-11.5365
twitter	-11.5366
FD	-11.5366
▁metabolic	-11.5366
▁passes	-11.5367
▁breaks	-11.537
让学生	-11.5372
▁opposition	-11.5372
cle	-11.5376
trigger	-11.5376
刺激	-11.5377
示范	-11.5377
▁compute	-11.5378
事物	-11.5382
mor	-11.5382
▁OS	-11.5384
样本	-11.5387
尽	-11.5387
▁alter	-11.5388
自动化	-11.5388
成熟	-11.5389
▁accurately	-11.5392
Router	-11.5393
forEach	-11.5394
▁Far	-11.5396
Batch	-11.5397
则是	-11.5397
asset	-11.5401
副	-11.5406
满	-11.5406
once	-11.5407
▁Edward	-11.5407
▁websites	-11.5408
▁Child	-11.5408
▁discharge	-11.5409
Proto	-11.5409
una	-11.541
▁forming	-11.5411
▁contributing	-11.5413
Make	-11.5414
▁barrier	-11.5415
传承	-11.5415
question	-11.5419
▁rats	-11.542
radio	-11.5421
的需求	-11.5421
Validation	-11.5422
Struct	-11.5423
党员	-11.5424
▁tropical	-11.5424
▁expressions	-11.5426
智能化	-11.5428
导向	-11.5428
TX	-11.5429
▁inputs	-11.5429
));	-11.5432
▁locally	-11.5434
▁slaves	-11.5437
▁Com	-11.5437
害	-11.544
audio	-11.544
的信息	-11.544
方面的	-11.5441
条件下	-11.5442
▁Wood	-11.5442
Where	-11.5442
氧	-11.5442
fun	-11.5445
és	-11.5446
ages	-11.5447
Attr	-11.5448
messages	-11.5448
返回	-11.5449
Ca	-11.5451
▁everywhere	-11.5451
▁cattle	-11.5451
zen	-11.5451
▁sampling	-11.5451
▁Fund	-11.5452
bold	-11.5452
gz	-11.5453
数据的	-11.5453
scene	-11.5455
▁'',	-11.5455
成长	-11.5455
相应	-11.5457
距离	-11.5457
▁knee	-11.5458
BL	-11.5459
▁accompanied	-11.546
til	-11.5461
they	-11.5462
RI	-11.5462
Failure	-11.5462
ied	-11.5464
▁Little	-11.5464
▁disabilities	-11.5465
Gr	-11.5466
▁flower	-11.5467
mass	-11.5468
ani	-11.547
Book	-11.5472
ening	-11.5473
▁earn	-11.5476
区分	-11.5477
▁headers	-11.5478
香港	-11.5478
Selector	-11.548
实践中	-11.548
ria	-11.5481
到了	-11.5481
▁humanity	-11.5481
ssh	-11.5482
▁sudden	-11.5484
guide	-11.5485
ao	-11.549
words	-11.5491
Nodes	-11.5491
▁Convention	-11.5492
Stats	-11.5494
▁neutral	-11.5496
▁mold	-11.5496
▁Rock	-11.5496
kt	-11.5497
形象	-11.5499
Information	-11.5499
general	-11.55
速	-11.5503
▁developers	-11.5507
relative	-11.5508
▁manufacturers	-11.5511
cas	-11.5511
▁rose	-11.5512
▁wheat	-11.5513
▁mountains	-11.5513
▁Media	-11.5513
▁flood	-11.5515
▁lighting	-11.5515
ates	-11.5516
ena	-11.5518
指数	-11.5519
imes	-11.552
预算	-11.552
▁Computer	-11.5524
▁Shi	-11.5524
秩序	-11.5529
▁burn	-11.5529
▁crew	-11.5531
▁validation	-11.5532
▁purchased	-11.5532
深刻	-11.5532
▁Brazil	-11.5533
Upload	-11.5533
than	-11.5536
gp	-11.5537
が	-11.5537
靠	-11.5538
▁coding	-11.5538
▁settlement	-11.5538
Scene	-11.5539
聚	-11.5539
孔	-11.5539
Framework	-11.554
▁blind	-11.5541
船	-11.5541
psi	-11.5542
大小	-11.5544
▁notion	-11.5547
▁rational	-11.5547
▁executive	-11.5551
问题的	-11.5552
▁profit	-11.5554
电路	-11.5555
▁indigenous	-11.5555
ua	-11.5557
▁Avoid	-11.5557
▁{%	-11.5564
▁expertise	-11.5568
']);	-11.5569
▁motivation	-11.557
▁committee	-11.557
▁creatures	-11.557
创作	-11.557
д	-11.5573
▁synthesis	-11.5574
▁Physical	-11.5575
▁Return	-11.5575
▁wisdom	-11.5575
▁Mass	-11.5576
样	-11.5576
杨	-11.5577
SU	-11.5577
认证	-11.5577
▁infants	-11.558
payment	-11.5582
vir	-11.5583
可见	-11.5588
死亡	-11.5589
Background	-11.559
}[	-11.5591
偏	-11.5591
何	-11.5592
NT	-11.5592
quad	-11.5592
园	-11.5594
▁sustainability	-11.5594
Man	-11.5595
▁discussions	-11.5597
▁Christians	-11.5597
Person	-11.5597
photo	-11.5597
场景	-11.5599
Topic	-11.5599
▁Er	-11.5602
侧	-11.5602
▁suicide	-11.5604
▁democracy	-11.5604
Our	-11.5605
Python	-11.5607
相当	-11.5608
▁texture	-11.5608
▁Start	-11.5609
倒	-11.5609
qua	-11.5609
prod	-11.5609
气候	-11.5615
▁belong	-11.5616
▁currency	-11.5616
apt	-11.5617
知道	-11.5617
息	-11.5619
Border	-11.562
AG	-11.562
RF	-11.5624
CLASS	-11.5625
Site	-11.5626
大型	-11.5627
own	-11.5628
▁draft	-11.5628
▁amino	-11.5628
▁kernel	-11.5633
▁antibodies	-11.5634
▁integrity	-11.5636
▁barriers	-11.5636
▁wheel	-11.5637
▁describing	-11.564
这里	-11.564
▁lungs	-11.5641
原子	-11.5642
▁Ri	-11.5643
mus	-11.5644
▁comparing	-11.5644
NP	-11.5649
▁compact	-11.5649
▁tri	-11.5651
▁edit	-11.5653
▁recall	-11.5654
Append	-11.5654
可能会	-11.5657
▁End	-11.5657
▁Often	-11.5662
大多数	-11.5664
投资者	-11.5665
▁reviews	-11.5665
▁Real	-11.5666
income	-11.5666
▁finger	-11.5666
▁Justice	-11.5667
▁builder	-11.5667
的权利	-11.5667
斗争	-11.567
gray	-11.567
scripts	-11.5674
▁baseline	-11.5674
▁tract	-11.5675
刻	-11.5675
▁nutrient	-11.5675
exe	-11.5676
重复	-11.5676
Release	-11.5677
▁Solar	-11.5678
▁transferred	-11.5678
▁candidates	-11.5679
dirname	-11.5679
留	-11.5682
▁Cambridge	-11.5685
▁defines	-11.5686
Env	-11.5687
Clear	-11.5688
游	-11.5689
▁initiative	-11.569
▁achievement	-11.5692
Pair	-11.5692
sur	-11.5696
▁vitamins	-11.5697
▁Currently	-11.5697
fully	-11.5698
PG	-11.5699
▁por	-11.5699
职责	-11.5699
取得了	-11.5703
▁systematic	-11.5704
gon	-11.5704
PY	-11.5711
ular	-11.5713
review	-11.5713
的价值	-11.5713
▁MS	-11.5713
Contract	-11.5714
▁supplements	-11.5714
▁combine	-11.5715
依靠	-11.5715
pay	-11.5715
ancy	-11.5718
▁towns	-11.5719
▁welcome	-11.572
待	-11.5721
mel	-11.5723
▁Michigan	-11.5726
修复	-11.5726
Argument	-11.5726
cont	-11.5727
序列	-11.573
Expected	-11.5731
▁Georgia	-11.5731
▁Dan	-11.5732
混合	-11.5735
▁incident	-11.5737
ami	-11.5737
ifndef	-11.5737
▁implementing	-11.5739
▁specialized	-11.5739
ash	-11.5743
▁Again	-11.5745
▁argued	-11.5746
▁DEBUG	-11.5746
别	-11.5747
▁cotton	-11.5748
▁personally	-11.5748
README	-11.5749
▁prediction	-11.5751
▁cord	-11.5752
▁Par	-11.5752
纠纷	-11.5758
▁DC	-11.5759
Usage	-11.576
补偿	-11.5761
▁retain	-11.5762
heading	-11.5763
▁exploring	-11.5763
▁restrictions	-11.5765
▁Blood	-11.5767
规定的	-11.5769
MODE	-11.577
▁chemistry	-11.5772
Constant	-11.5773
GS	-11.5774
其它	-11.5774
▁Trump	-11.5775
出发	-11.5775
▁Saint	-11.5776
ador	-11.5777
有限	-11.5778
▁researcher	-11.5779
uma	-11.578
▁spots	-11.5781
▁Friday	-11.5781
▁varying	-11.5781
transaction	-11.5781
▁Up	-11.5786
高质量发展	-11.5787
▁definitions	-11.5788
Export	-11.5789
▁atoms	-11.5789
Material	-11.5791
▁educators	-11.5792
$\	-11.5794
Amount	-11.5795
ima	-11.5796
▁efficiently	-11.5797
She	-11.5797
释放	-11.5798
▁scenarios	-11.5799
Progress	-11.58
初步	-11.5802
▁owned	-11.5803
Services	-11.5805
ND	-11.5809
施工	-11.581
的原则	-11.5811
▁literary	-11.5813
▁varied	-11.5813
Contact	-11.5814
dashboard	-11.5814
攻击	-11.5815
▁Economic	-11.5815
FP	-11.5815
▁smell	-11.5817
判决	-11.5817
▁tone	-11.5818
氢	-11.5822
clock	-11.5824
统	-11.5825
效益	-11.5825
▁μ	-11.5825
码	-11.5827
▁buried	-11.5828
▁Cat	-11.5828
亿元	-11.5829
TT	-11.5831
verify	-11.5833
▁vessel	-11.5833
▁elevated	-11.5833
▁dramatic	-11.5834
毛泽东	-11.5836
货	-11.584
links	-11.5844
dynamic	-11.5845
▁unlike	-11.5845
Theme	-11.5847
有了	-11.5847
▁psychology	-11.5847
inch	-11.5848
▁loading	-11.5848
假设	-11.5849
四个	-11.585
▁consequence	-11.5851
▁beam	-11.5852
制作	-11.5852
badge	-11.5852
▁thank	-11.5854
借鉴	-11.5854
Some	-11.5856
)](	-11.5856
Enter	-11.5859
▁adapted	-11.5859
HA	-11.5859
成分	-11.586
Packet	-11.586
▁tobacco	-11.5862
inflammatory	-11.5863
▁'''	-11.5863
▁continuing	-11.5867
▁acceptable	-11.5867
关联	-11.587
▁spinal	-11.587
ama	-11.5871
absolute	-11.5871
wo	-11.5872
pred	-11.5873
某种	-11.5876
▁fought	-11.5877
▁essays	-11.5878
design	-11.5881
▁Self	-11.5881
▁unlikely	-11.5883
Instruction	-11.5883
third	-11.5883
电池	-11.5886
▁apps	-11.5888
往	-11.589
▁Lincoln	-11.5891
alloc	-11.5893
▁anymore	-11.5893
呈	-11.5894
▁Pakistan	-11.5894
▁ArrayList	-11.5895
]*	-11.5895
▁Med	-11.5897
▁emerged	-11.5898
▁possibilities	-11.5899
▁hunting	-11.5903
includes	-11.5903
消除	-11.5904
wave	-11.5906
management	-11.5907
▁tf	-11.5908
circ	-11.591
SB	-11.5913
▁harvest	-11.5913
▁implies	-11.5913
人才培养	-11.5915
gun	-11.5916
▁gases	-11.5916
ill	-11.5917
▁Description	-11.5918
forward	-11.5919
vue	-11.5921
活力	-11.5922
isset	-11.5923
▁constraints	-11.5923
▁pathways	-11.5924
▁requiring	-11.5925
lc	-11.5926
先进	-11.5926
注册	-11.5928
▁ranging	-11.5928
slug	-11.5929
Big	-11.593
LIST	-11.5933
▁metadata	-11.5938
▁League	-11.5939
▁settled	-11.594
▁communications	-11.594
预期	-11.5942
有的	-11.5944
Short	-11.5945
eh	-11.5946
并在	-11.5946
▁strategic	-11.5947
▁intra	-11.5947
课题	-11.5949
CP	-11.5951
严	-11.5951
▁tongue	-11.5953
▁requested	-11.5954
思路	-11.5954
▁redirect	-11.5955
animation	-11.5956
▁Pennsylvania	-11.5961
▁sys	-11.5963
▁pipe	-11.5963
理想	-11.5963
guard	-11.5964
辐射	-11.5964
▁shock	-11.5964
oriented	-11.5964
▁Conservation	-11.5967
▁sale	-11.5967
▁streets	-11.5968
对外	-11.5971
Bot	-11.5971
NF	-11.5972
projects	-11.5973
Bo	-11.5976
▁quantities	-11.5976
@{	-11.5976
μ	-11.5976
bat	-11.5977
▁gathered	-11.5977
宝	-11.5978
▁mothers	-11.598
Animation	-11.5981
▁Visual	-11.5982
▁nutritional	-11.5984
";	-11.5984
多元	-11.5986
updated	-11.5986
商标	-11.5987
omega	-11.5988
▁consciousness	-11.5989
▁Elizabeth	-11.5989
▁flexibility	-11.599
▁returning	-11.5991
▁completion	-11.5995
失败	-11.5996
▁markers	-11.5996
干预	-11.5996
情况下	-11.5999
谁	-11.5999
Modal	-11.6
▁logical	-11.6002
lot	-11.6006
▁calm	-11.6006
出来	-11.6007
▁cast	-11.6008
>",	-11.6009
▁engines	-11.6011
赔偿	-11.6011
身份	-11.6013
atom	-11.6014
▁rear	-11.6014
▁encounter	-11.6018
编制	-11.6018
ENT	-11.6019
同一	-11.602
为什么	-11.6022
ches	-11.6023
▁spoken	-11.6024
当地	-11.6024
危害	-11.6024
negative	-11.6024
▁Place	-11.6024
rin	-11.6026
Valid	-11.6028
▁strains	-11.6028
▁guarantee	-11.603
和平	-11.6031
▁enjoyed	-11.6032
▁reflected	-11.6032
obs	-11.6037
ä	-11.6038
抓	-11.6039
一带一路	-11.6042
slider	-11.6044
环保	-11.6045
▁Pe	-11.6048
cin	-11.6049
债权人	-11.6049
▁﻿	-11.605
CG	-11.6051
initial	-11.6051
▁films	-11.6055
▁reaches	-11.6056
地理	-11.6057
广大	-11.6057
binary	-11.6058
vy	-11.6058
料	-11.606
ROOT	-11.6061
协商	-11.6062
▁arise	-11.6063
▁addressing	-11.6063
Operator	-11.6064
▁proposal	-11.6065
▁serum	-11.6066
complete	-11.6067
▁α	-11.6069
事项	-11.607
▁farms	-11.6078
▁varies	-11.608
▁busy	-11.6081
▁cancers	-11.6081
logic	-11.6082
▁urine	-11.6082
signal	-11.6084
每年	-11.6084
Enable	-11.6084
国家的	-11.6086
▁Oct	-11.6087
国外	-11.6087
▁transmitted	-11.6087
à	-11.6088
interval	-11.609
▁gift	-11.609
同意	-11.609
aw	-11.6091
▁robot	-11.6091
▁Islamic	-11.6092
生存	-11.6092
enter	-11.6092
▁quiet	-11.6095
▁"%	-11.6096
▁cooperation	-11.6098
▁regime	-11.6099
pal	-11.6099
▁victory	-11.6101
Html	-11.6101
▁cancel	-11.6101
▁kitchen	-11.6102
资	-11.6103
▁recycling	-11.6106
▁inclusion	-11.6108
▁grains	-11.611
▁breed	-11.611
▁Va	-11.611
▁*/	-11.6112
▁existed	-11.6112
▁tolerance	-11.6113
积累	-11.6113
rect	-11.6114
▁calculations	-11.6114
皮	-11.6117
ht	-11.6118
一旦	-11.612
ú	-11.6121
轴	-11.6121
▁Author	-11.6125
(['	-11.6127
▁Patients	-11.6127
▁MIT	-11.6127
频率	-11.6129
numeric	-11.6131
▁raising	-11.6132
▁regulatory	-11.6132
timer	-11.6133
稳	-11.6134
▁"";	-11.6134
▁cap	-11.6134
句	-11.6135
▁believes	-11.6135
▁Ask	-11.6135
▁calculation	-11.6136
▁societies	-11.6138
▁bleeding	-11.6139
▁Out	-11.6139
examples	-11.6139
Unknown	-11.6139
training	-11.614
▁restricted	-11.6142
▁bold	-11.6142
gc	-11.6144
▁savings	-11.6144
Tensor	-11.6144
浓度	-11.6146
标准化	-11.6147
Mesh	-11.6147
将其	-11.615
/$	-11.615
▁hospitals	-11.615
素养	-11.6155
zz	-11.6156
兰	-11.6156
Scan	-11.6157
START	-11.6157
▁Cu	-11.6158
apps	-11.6161
craft	-11.6162
▁modeling	-11.6167
More	-11.6168
的原因	-11.6168
BD	-11.6168
ras	-11.6168
▁gear	-11.6169
books	-11.6171
▁'#	-11.6172
fat	-11.6174
融入	-11.6178
▁entries	-11.618
external	-11.6181
OH	-11.6181
装置	-11.6184
宋	-11.6185
▁gather	-11.6185
▁collective	-11.6186
cdot	-11.6187
▁dictionary	-11.6188
局部	-11.6188
▁hormones	-11.6189
母	-11.6189
▁enum	-11.619
▁Scholar	-11.6191
销	-11.6191
各地	-11.6191
▁poetry	-11.6193
▁abundance	-11.6196
▁discipline	-11.6197
▁confusion	-11.62
▁Translate	-11.62
▁Promise	-11.62
()));	-11.6201
ré	-11.6201
▁universities	-11.6204
鉴定	-11.6205
▁prey	-11.6205
▁scales	-11.6206
Draw	-11.6206
错	-11.6207
ving	-11.6216
sl	-11.6218
▁stuck	-11.6218
▁Mon	-11.622
rust	-11.6221
类似	-11.6222
▁Third	-11.6222
调用	-11.6222
▁Rev	-11.6225
查询	-11.6226
▁Marine	-11.6227
▁GNU	-11.6231
展示	-11.6237
▁Colorado	-11.6238
果	-11.6238
Tile	-11.624
▁uniform	-11.624
BO	-11.6241
▁prison	-11.6242
▁Auto	-11.6243
configure	-11.6244
▁flash	-11.6244
ital	-11.6245
离子	-11.6247
追	-11.6248
▁tough	-11.6249
ENV	-11.6252
▁succeed	-11.6253
▁desert	-11.6253
虚	-11.6254
its	-11.6255
▁excited	-11.6256
私	-11.6256
大学生	-11.6262
▁club	-11.6263
Power	-11.6263
大国	-11.6263
cover	-11.6264
▁cycles	-11.6264
▁enzyme	-11.6265
±	-11.6265
▁terminal	-11.6266
▁codes	-11.6266
Audio	-11.6266
Direction	-11.6267
▁streams	-11.6268
法国	-11.627
LS	-11.6271
▁conflicts	-11.6272
建构	-11.6274
foreach	-11.6275
▁metals	-11.6275
▁absorption	-11.6276
▁episode	-11.6279
▁reveals	-11.628
ignore	-11.628
▁readily	-11.628
配合	-11.6282
▁colonial	-11.6283
务	-11.6283
▁Questions	-11.6284
metrics	-11.6284
职工	-11.6287
▁checks	-11.6287
的具体	-11.6287
▁ecological	-11.6289
backend	-11.6289
decoration	-11.6289
present	-11.629
eye	-11.6291
nm	-11.6292
pointer	-11.6294
ites	-11.6294
σ	-11.6295
mesh	-11.6296
PH	-11.6297
经常	-11.6299
▁tends	-11.6302
通道	-11.6303
Points	-11.6304
▁planets	-11.6304
TER	-11.6304
three	-11.6305
▁happiness	-11.6305
Exit	-11.6306
▁tension	-11.6307
▁GL	-11.6308
bridge	-11.6309
▁injection	-11.6309
流通	-11.6309
▁acres	-11.6311
posts	-11.6311
▁thrown	-11.6311
▁attractive	-11.6312
▁personnel	-11.6313
▁threatened	-11.6315
▁joints	-11.6315
▁Laboratory	-11.6315
▁Small	-11.6315
▁Francisco	-11.6317
arc	-11.6317
dep	-11.6318
ı	-11.6322
固	-11.6322
刑	-11.6322
▁consistently	-11.6322
▁circulation	-11.6323
▁routes	-11.6325
▁ending	-11.6327
▁odd	-11.6328
杀	-11.633
defer	-11.6331
lag	-11.6331
mbox	-11.6331
special	-11.6333
的精神	-11.6333
▁associate	-11.6336
▁docker	-11.6338
▁Fa	-11.6339
区块链	-11.6339
▁stones	-11.634
م	-11.6341
▁Practice	-11.6341
Mapper	-11.6342
岁	-11.6343
cancel	-11.6343
▁Dictionary	-11.6346
bt	-11.6346
▁football	-11.6346
▁geo	-11.6346
alias	-11.6347
量子	-11.6349
series	-11.635
Groups	-11.6351
▁interpret	-11.6354
Na	-11.6354
▁employee	-11.6356
飞	-11.6357
##	-11.6358
pod	-11.6358
▁Hebrew	-11.636
▁'\	-11.6362
▁Daniel	-11.6362
tabs	-11.6363
lets	-11.6364
▁Mexican	-11.6364
▁vegetation	-11.6364
的功能	-11.6366
mut	-11.6369
试点	-11.6371
Actions	-11.6372
rp	-11.6374
These	-11.6378
hop	-11.6379
Generated	-11.6379
kon	-11.6379
套	-11.638
视频	-11.638
送	-11.6384
Plan	-11.6385
▁median	-11.6387
▁infant	-11.6389
▁violent	-11.6392
▁spine	-11.6393
Replace	-11.6394
▁likelihood	-11.6395
法定	-11.6396
▁partially	-11.6396
正是	-11.6399
品牌	-11.6402
mouse	-11.6403
▁Clinical	-11.6404
▁cream	-11.6406
电流	-11.6407
▁refused	-11.6407
Platform	-11.6408
party	-11.6408
体现了	-11.6408
▁Love	-11.6408
▁influences	-11.6409
▁isolation	-11.641
氧化	-11.6411
▁asset	-11.6414
人物	-11.6414
▁relate	-11.6416
简	-11.6416
▁province	-11.6417
▁ecosystems	-11.6418
▁wake	-11.6418
▁afraid	-11.6419
民事	-11.642
等级	-11.6422
ett	-11.6422
maker	-11.6423
leg	-11.6424
感知	-11.6427
角度	-11.6427
Red	-11.6428
bro	-11.6428
▁assumption	-11.6428
IOException	-11.6428
avi	-11.6429
▁encoding	-11.6429
NI	-11.643
享有	-11.6431
细	-11.6432
nar	-11.6434
右	-11.6435
条例	-11.6436
出现了	-11.6436
▁mod	-11.6439
environment	-11.644
办理	-11.644
Declaration	-11.644
youtube	-11.6441
机器人	-11.6444
年龄	-11.6444
sidebar	-11.6445
Optional	-11.6447
▁Mount	-11.6448
排放	-11.6449
歌	-11.645
▁Between	-11.645
▁Future	-11.6452
对比	-11.6453
BIT	-11.6455
▁Ham	-11.6457
▁triangle	-11.646
▁Abstract	-11.6464
browser	-11.6466
含量	-11.6466
成就	-11.6467
支出	-11.6469
认同	-11.6469
visible	-11.6469
得以	-11.647
Public	-11.6471
▁$('#	-11.6471
圈	-11.6473
▁restoration	-11.6473
plane	-11.6474
FR	-11.6474
company	-11.6474
nl	-11.6476
顺	-11.6481
保存	-11.6483
▁holiday	-11.6484
指定	-11.6485
Two	-11.6486
工资	-11.6486
els	-11.6486
▁cur	-11.6487
▁pleasure	-11.6488
▁rescue	-11.6488
辅助	-11.6488
巩固	-11.6489
▁Mag	-11.6491
getElementById	-11.6491
▁guard	-11.6492
仁	-11.6493
period	-11.6495
rad	-11.6501
dw	-11.6501
Ro	-11.6503
高等教育	-11.6507
▁Wall	-11.6507
micro	-11.6508
ready	-11.651
▁Monday	-11.651
伤	-11.6511
发送	-11.6512
Customer	-11.6513
尚	-11.6513
WA	-11.6515
▁revenue	-11.6516
▁precisely	-11.6518
qu	-11.6518
elle	-11.6518
wy	-11.6519
ulation	-11.6519
众	-11.6519
▁enormous	-11.652
bal	-11.6521
▁drinks	-11.6524
▁shut	-11.6524
▁consult	-11.6525
营养	-11.6526
ADD	-11.6527
的法律	-11.6528
老师	-11.6529
PRE	-11.653
▁Massachusetts	-11.6532
ich	-11.6535
▁documented	-11.6538
RM	-11.654
意味着	-11.6544
pk	-11.6547
▁mirror	-11.6548
say	-11.6553
一批	-11.6555
'},	-11.6555
▁Assessment	-11.6558
atory	-11.6558
sun	-11.6561
compile	-11.6563
系列	-11.6563
▁reward	-11.6563
uv	-11.6564
SF	-11.6565
▁animation	-11.6565
提出的	-11.6566
▁Mer	-11.6566
γ	-11.6567
PF	-11.6568
不再	-11.6568
▁persistent	-11.6569
▁mistake	-11.6569
▁habit	-11.6569
east	-11.6571
复杂的	-11.6571
ire	-11.6572
▁aside	-11.6575
▁anger	-11.6576
置	-11.6579
▁households	-11.6579
▁Much	-11.6579
feed	-11.6579
bert	-11.6579
▁doses	-11.6581
犯	-11.6584
电压	-11.6587
楼	-11.6589
▁approval	-11.6589
spring	-11.6589
▁tribes	-11.6591
fixed	-11.6591
▁Four	-11.6591
Mark	-11.6592
微生物	-11.6593
▁highlight	-11.6593
▁filters	-11.6595
育	-11.6596
▁creativity	-11.6596
借	-11.6597
▁vice	-11.6599
▁biodiversity	-11.66
sion	-11.6601
▁loose	-11.6601
▁Jerusalem	-11.6601
▁payload	-11.6602
phy	-11.6602
Driver	-11.6603
剧	-11.6604
大家	-11.6604
steps	-11.6604
▁Ru	-11.6605
otic	-11.6605
大部分	-11.6607
Certificate	-11.6607
划分	-11.6608
▁Temple	-11.6609
▁dual	-11.6611
▁attitudes	-11.6611
▁hunt	-11.6612
今年	-11.6613
▁Remove	-11.6616
▁explicitly	-11.6617
bundle	-11.6617
▁Master	-11.6621
▁beings	-11.6621
▁ears	-11.6621
▁newspaper	-11.6622
发表	-11.6622
building	-11.6625
▁Parliament	-11.6626
loading	-11.6626
供应链	-11.6627
rgb	-11.6629
oy	-11.6631
▁Lab	-11.6632
Vertex	-11.6633
▁git	-11.6633
▁Simple	-11.6634
▁Christianity	-11.6636
▁colonies	-11.664
▁prescribed	-11.6642
sound	-11.6643
look	-11.6644
蛋白质	-11.6646
▁regulate	-11.6646
▁Route	-11.6647
▁validate	-11.6648
▁kingdom	-11.6649
▁[])	-11.6649
suc	-11.665
lands	-11.6651
에	-11.6652
Ha	-11.6653
▁Unit	-11.6655
科学家	-11.6656
非法	-11.6657
▁thickness	-11.6658
进展	-11.6659
习近平新时代中国特色社会主义思想	-11.666
缺陷	-11.6661
等问题	-11.6661
▁extracted	-11.6662
Owner	-11.6663
升	-11.6664
的技术	-11.6666
▁crown	-11.6667
外交	-11.6667
itch	-11.6667
failed	-11.6668
AND	-11.6668
ika	-11.6669
è	-11.6671
invoke	-11.6671
▁grammar	-11.6672
▁celebrated	-11.6672
的认识	-11.6674
第五	-11.6674
▁operators	-11.6674
npm	-11.6674
▁pace	-11.6677
brand	-11.6681
检	-11.6683
宽	-11.6683
机会	-11.6684
违反	-11.6685
May	-11.6686
▁promising	-11.6686
适合	-11.6686
▁sat	-11.6687
须	-11.6687
▁landing	-11.6687
▁Week	-11.6688
enc	-11.6688
▁welfare	-11.669
▁throat	-11.669
▁accounting	-11.6691
flat	-11.6691
▁adjacent	-11.6693
yn	-11.6694
clone	-11.6694
安装	-11.6695
▁CA	-11.6697
▁magic	-11.6698
▁reign	-11.6699
▁rid	-11.6699
▁handler	-11.6699
和社会	-11.6699
▁Cha	-11.6699
债	-11.6702
sia	-11.6702
▁ranges	-11.6704
▁conservative	-11.6706
▁abnormal	-11.6709
▁alongside	-11.6711
▁Books	-11.6711
劳动力	-11.6711
▁attempted	-11.6712
哪些	-11.6712
绝	-11.6713
NN	-11.6714
▁tap	-11.6714
▁generating	-11.6715
▁confused	-11.6715
▁Navy	-11.6715
▁juice	-11.6717
▁arrival	-11.6718
雷	-11.6718
▁weird	-11.6723
▁beat	-11.6723
LIB	-11.6723
▁fuels	-11.6724
▁districts	-11.6725
가	-11.6725
danger	-11.6727
Validate	-11.6727
▁distant	-11.6728
▁reasoning	-11.6729
▁reflection	-11.6731
参	-11.6733
国家安全	-11.6734
▁Basic	-11.6735
更好地	-11.6735
▁endpoint	-11.6735
▁evident	-11.6736
Validator	-11.6736
圆	-11.6739
▁mistakes	-11.6739
▁Student	-11.6741
▁transactions	-11.6742
▁cheese	-11.6744
房屋	-11.6744
▁independently	-11.6745
所示	-11.6746
▁punishment	-11.6746
HT	-11.6753
▁overview	-11.6753
worker	-11.6754
▁grades	-11.6755
▁overflow	-11.6757
制约	-11.6758
▁paragraph	-11.6759
Created	-11.6759
硬	-11.676
elements	-11.676
▁ride	-11.6761
▁collections	-11.6764
▁appeal	-11.6764
抽象	-11.6766
▁Nevertheless	-11.6766
翻译	-11.6767
▁managers	-11.6768
▁luck	-11.6769
▁dependencies	-11.677
▁dairy	-11.677
转化为	-11.6771
它是	-11.6771
Returns	-11.6771
▁Besides	-11.6773
ys	-11.6774
▁minds	-11.6774
▁Alexander	-11.6775
▁empire	-11.6776
▁IV	-11.6777
▁preparing	-11.6778
▁attributed	-11.6779
hor	-11.6783
ition	-11.6784
无论	-11.6784
杂	-11.6785
▁begun	-11.6786
桥	-11.6786
touch	-11.6786
Split	-11.6788
出版	-11.6788
mine	-11.6788
NR	-11.6791
rv	-11.6792
rx	-11.6792
▁extraction	-11.6792
击	-11.6795
最大的	-11.6795
aries	-11.6801
VA	-11.6802
▁cable	-11.6804
▁Tan	-11.6804
▁virtually	-11.6805
▁consisting	-11.6805
经济社会发展	-11.6807
产业链	-11.6807
Accept	-11.681
grpc	-11.681
适用于	-11.6811
ei	-11.6812
装备	-11.6812
积	-11.6814
Opt	-11.6816
Complete	-11.6816
▁coordinates	-11.6816
▁Machine	-11.6816
▁sleeping	-11.6818
reflect	-11.6819
lr	-11.6821
collect	-11.6821
Should	-11.6821
teen	-11.6823
actual	-11.6824
***	-11.6824
Sheet	-11.6824
▁estate	-11.6824
▁Build	-11.6825
bucket	-11.6826
Mouse	-11.6826
Question	-11.6826
▁dialogue	-11.6827
MAC	-11.6828
ident	-11.6832
layers	-11.6835
▁Islands	-11.6836
▁angles	-11.6837
structure	-11.6839
NUM	-11.6843
芯片	-11.6844
checkbox	-11.6847
▁Kids	-11.6848
变更	-11.6849
John	-11.6849
▁thrive	-11.6851
▁outline	-11.6853
吴	-11.6854
▁suit	-11.6855
▁hybrid	-11.6856
zy	-11.6856
破	-11.6858
▁Has	-11.6858
▁radical	-11.6858
▁µ	-11.6859
Character	-11.6862
▁Think	-11.6863
▁Arctic	-11.6864
万元	-11.6865
▁mutation	-11.6866
Fe	-11.6866
▁marker	-11.6868
▁pupils	-11.6869
但在	-11.687
▁boxes	-11.6871
Authentication	-11.6877
持	-11.6877
▁Solution	-11.6877
Standard	-11.6877
Author	-11.6878
粮食	-11.6882
ese	-11.6883
VR	-11.6885
OC	-11.6886
的应用	-11.6887
Ra	-11.6887
mis	-11.6889
Arr	-11.6889
calc	-11.6889
▁royal	-11.6891
Asset	-11.6891
并没有	-11.6892
▁shop	-11.6894
five	-11.6895
VI	-11.6895
间的	-11.6897
小组	-11.6897
▁Pat	-11.6898
wind	-11.6899
mysql	-11.6899
▁pushed	-11.6901
▁Obama	-11.6902
▁possess	-11.6903
通知	-11.6903
▁qualities	-11.6905
▁Qu	-11.6906
pulumi	-11.6907
▁occupied	-11.6908
Please	-11.691
▁Twitter	-11.691
的风险	-11.6912
dat	-11.6913
▁synthetic	-11.6914
您	-11.6914
▁sad	-11.6914
rick	-11.6915
translate	-11.6916
quote	-11.6916
Merge	-11.6917
piece	-11.6917
▁brush	-11.6918
还要	-11.6919
▁Cloud	-11.6921
禁止	-11.6923
着力	-11.6924
))	-11.6925
之外	-11.6928
▁reputation	-11.6929
▁selling	-11.6929
xl	-11.6931
▁cardiac	-11.6932
▁Harvard	-11.6934
Pod	-11.6934
▁Korean	-11.6937
▁colon	-11.6938
▁minister	-11.6938
▁finite	-11.6938
随机	-11.6941
▁Gold	-11.6942
对其	-11.6944
Other	-11.6944
▁forever	-11.6944
pel	-11.6945
▁signaling	-11.6946
learn	-11.695
机器	-11.6951
gra	-11.6951
▁skip	-11.6952
fly	-11.6953
thesis	-11.6955
即使	-11.6956
▁queue	-11.6957
出台	-11.6957
松	-11.6958
▁wireless	-11.6958
带动	-11.6958
xx	-11.6959
今天	-11.6961
▁achieving	-11.6962
▁Working	-11.6963
▁picked	-11.6964
ssl	-11.6966
座	-11.6966
undefined	-11.6966
▁Cell	-11.6967
▁roll	-11.6967
▁loan	-11.6967
▁generic	-11.6968
▁fabric	-11.6968
硬件	-11.6969
▁frozen	-11.697
大规模	-11.6973
resize	-11.6973
going	-11.6973
>{	-11.6973
命令	-11.6974
▁Nov	-11.6974
对此	-11.6978
▁fed	-11.6979
▁Total	-11.698
ö	-11.698
▁emission	-11.698
名称	-11.6981
台湾	-11.6981
▁namely	-11.6982
ctrl	-11.6982
▁searching	-11.6983
READ	-11.6984
▁criticism	-11.6984
logical	-11.6984
▁hide	-11.6985
▁utilized	-11.6985
Dict	-11.6985
结论	-11.6986
▁flags	-11.6987
talk	-11.6987
的大	-11.6988
uz	-11.6991
▁supplement	-11.6991
中国人民	-11.6991
遗传	-11.6991
▁numpy	-11.6992
FB	-11.6994
▁plates	-11.6994
berry	-11.6995
▁circular	-11.6998
TABLE	-11.6998
▁permitted	-11.7001
▁clay	-11.7001
banner	-11.7001
▁surprised	-11.7004
▁digestive	-11.7004
*}	-11.7006
Master	-11.7006
▁Santa	-11.7007
▁outbreak	-11.7009
half	-11.701
rus	-11.7011
▁ring	-11.7011
▁calendar	-11.7012
纳米	-11.7012
▁Clean	-11.7014
ink	-11.7016
comments	-11.7016
▁advances	-11.7017
现场	-11.7018
west	-11.7019
▁provision	-11.7019
贫困	-11.7021
Si	-11.7022
Zero	-11.7022
农产品	-11.7022
▁wound	-11.7025
▁embedded	-11.7025
▁explicit	-11.7027
▁distinguish	-11.7028
checked	-11.7028
▁containers	-11.7031
▁invention	-11.7031
Payment	-11.7034
▁connecting	-11.7035
deploy	-11.7035
rat	-11.7038
lip	-11.7043
▁answered	-11.7046
▁Wikipedia	-11.7047
▁friendly	-11.7048
]['	-11.7051
▁flavor	-11.7052
HC	-11.7052
Addr	-11.7053
Span	-11.7053
▁Meanwhile	-11.7054
tis	-11.7054
▁origins	-11.7054
▁fats	-11.7058
▁Methods	-11.7061
的经济	-11.7063
een	-11.7063
ArrayList	-11.7064
记忆	-11.7065
▁Print	-11.7065
▁reset	-11.7065
▁Radio	-11.7066
Cast	-11.7066
损伤	-11.7066
▁altered	-11.7069
▁celebrate	-11.7069
Com	-11.7071
cls	-11.7075
BF	-11.7077
▁graduate	-11.7077
redis	-11.7078
VC	-11.708
民法典	-11.7081
▁insect	-11.7083
▁popularity	-11.7083
传递	-11.7083
▁orange	-11.7088
]),	-11.709
getValue	-11.7091
▁receptors	-11.7092
▁molecule	-11.7092
Mail	-11.7092
没	-11.7092
met	-11.7094
▁minority	-11.7095
▁charges	-11.7095
▁subsequently	-11.7095
Distance	-11.7096
cip	-11.7096
▁strengthen	-11.7099
▁Android	-11.71
hit	-11.71
尚未	-11.71
Setting	-11.7102
▁tower	-11.7104
▁developmental	-11.7104
▁с	-11.7105
很难	-11.7106
服	-11.7107
找到	-11.7107
TEXT	-11.7108
▁progressive	-11.7109
▁lift	-11.7109
▁kg	-11.7109
▁$$\	-11.7112
▁electrons	-11.7114
公正	-11.7115
"])	-11.7117
形势	-11.7118
▁Agriculture	-11.7118
▁signature	-11.712
▁Challenge	-11.712
▁grounds	-11.7121
▁Scott	-11.7122
▁zones	-11.7123
▁colony	-11.7123
▁adoption	-11.7124
▁Top	-11.7127
peer	-11.7127
▁invalid	-11.713
▁trading	-11.7131
▁Ministry	-11.7131
▁productive	-11.7132
内存	-11.7133
Download	-11.7134
▁shoulder	-11.7134
胜利	-11.7134
packet	-11.7135
▁Symptoms	-11.7137
▁outdoor	-11.7138
▁bonds	-11.7139
ajax	-11.7139
乘	-11.7139
▁inequality	-11.7139
sent	-11.714
▁decreases	-11.714
enum	-11.7143
胜	-11.7143
)^	-11.7143
▁chamber	-11.7145
▁automatic	-11.7145
咨询	-11.7145
▁occasionally	-11.7147
▁reviewed	-11.7147
▁visits	-11.7148
▁clusters	-11.7154
话	-11.7154
▁Chief	-11.7154
▁crowd	-11.7157
▁respective	-11.7158
▁Poly	-11.7158
poll	-11.716
Processor	-11.716
▁rough	-11.7161
priv	-11.7161
助	-11.7161
展	-11.7162
▁translated	-11.7162
▁Local	-11.7163
网站	-11.7165
▁elderly	-11.7165
▁printf	-11.7167
rip	-11.7167
▁timing	-11.7168
▁geometry	-11.717
解放	-11.717
▁initiatives	-11.7171
cnt	-11.7172
▁globe	-11.7172
氮	-11.7173
▁Jack	-11.7173
chunk	-11.7173
▁alternatives	-11.7176
湖	-11.7176
▁Iran	-11.7177
food	-11.7179
▁fires	-11.718
▁Excel	-11.7181
数字经济	-11.7184
expand	-11.7184
▁preserved	-11.7184
sep	-11.7185
without	-11.7187
は	-11.7189
ore	-11.7193
▁corporate	-11.7194
▁uncertainty	-11.7195
Second	-11.7196
▁Head	-11.7196
CON	-11.7198
▁Major	-11.7199
▁Current	-11.7199
▁curious	-11.72
secure	-11.7202
▁specialist	-11.7203
Balance	-11.7204
credit	-11.7204
▁adaptation	-11.7204
mir	-11.7204
▁Gen	-11.7205
▁neighborhood	-11.7207
four	-11.7208
接近	-11.7209
▁dying	-11.7211
换	-11.7211
Dev	-11.7213
stderr	-11.7214
▁Bell	-11.7215
进口	-11.7215
`	-11.7215
▁pets	-11.7219
RD	-11.722
▁enzymes	-11.7222
▁numerical	-11.7222
ali	-11.7222
Pa	-11.7222
因子	-11.7223
而不	-11.7223
▁Corporation	-11.7227
▁meetings	-11.7227
▁nest	-11.7228
Constraint	-11.7232
Begin	-11.7237
消息	-11.7237
▁sp	-11.7238
weak	-11.724
▁submitted	-11.724
▁ultimate	-11.7241
客	-11.7244
comm	-11.7245
deep	-11.7246
▁bees	-11.7246
▁EXPECT	-11.7247
Commit	-11.7248
AST	-11.7248
Execution	-11.7249
是什么	-11.725
Remote	-11.725
合法	-11.7254
▁Bureau	-11.7256
▁supplied	-11.7256
din	-11.7257
▁Brain	-11.7257
▁Overall	-11.7257
Chat	-11.7258
fake	-11.7258
Trigger	-11.7258
▁volumes	-11.7259
律	-11.7261
▁valve	-11.7262
lap	-11.7262
本质	-11.7264
▁divine	-11.7265
identifier	-11.7265
▁Training	-11.7265
ONE	-11.7266
▁shallow	-11.7267
lua	-11.7268
extend	-11.7268
▁dinner	-11.7269
▁publish	-11.727
driven	-11.7271
峰	-11.7271
wan	-11.7271
▁gods	-11.7272
▁differential	-11.7272
▁susceptible	-11.7274
Sum	-11.7276
▁dense	-11.7277
▁Fair	-11.7277
▁infinite	-11.7278
▁∈	-11.7279
▁ensures	-11.7284
ses	-11.7284
三大	-11.7286
▁beneath	-11.7286
▁rank	-11.7287
preview	-11.7287
▁Culture	-11.7287
扩张	-11.7288
▁modes	-11.7288
期限	-11.729
TV	-11.7291
获	-11.7294
▁disabled	-11.7295
▁conclude	-11.7297
selection	-11.7301
股权	-11.7301
annotations	-11.7301
▁incorporate	-11.7302
SUB	-11.7303
و	-11.7304
纪	-11.7304
▁enabling	-11.7305
pie	-11.7305
▁fitness	-11.7305
ency	-11.7306
▁rec	-11.7306
干扰	-11.7307
▁mill	-11.7309
stdout	-11.7309
▁scroll	-11.731
▁entrance	-11.7311
▁hydro	-11.7313
较高	-11.7314
SUCCESS	-11.7315
isEmpty	-11.7317
▁Coast	-11.732
dm	-11.732
▁polar	-11.7321
fin	-11.7322
▁incorporated	-11.7322
▁reject	-11.7322
提交	-11.7323
▁peers	-11.7324
lime	-11.7324
▁designated	-11.7326
态度	-11.7326
▁shares	-11.7328
rig	-11.733
oli	-11.7331
▁sheep	-11.7331
Cancel	-11.7331
▁socket	-11.7333
Angle	-11.7334
TestCase	-11.7334
召开	-11.7334
▁terrible	-11.7334
肌	-11.7335
▁acquire	-11.7336
Intent	-11.7337
▁judgment	-11.7337
UC	-11.7338
Chart	-11.7339
▁thyroid	-11.7342
▁armed	-11.7342
▁Pol	-11.7343
京	-11.7344
▁Arts	-11.7346
ivity	-11.7347
几乎	-11.7348
ida	-11.7352
糖	-11.7354
dependency	-11.7357
▁establishing	-11.7357
▁habitats	-11.7358
Why	-11.7359
游戏	-11.736
decl	-11.736
足	-11.7361
▁Station	-11.7361
▁curl	-11.7362
▁intelligent	-11.7362
yan	-11.7363
▁Rather	-11.7363
▁Father	-11.7363
rated	-11.7365
]}	-11.7365
▁themes	-11.7365
cycle	-11.7365
▁collapse	-11.7366
伦理	-11.7366
▁struggling	-11.7367
▁pin	-11.7368
ACT	-11.7369
键	-11.7373
▁displays	-11.7376
Console	-11.7376
得到了	-11.7377
▁transformed	-11.7378
Shared	-11.7379
▁Club	-11.7379
望	-11.738
▁Game	-11.738
合并	-11.7383
产生了	-11.7384
Switch	-11.7384
产品的	-11.7384
可以在	-11.7384
人工	-11.7385
▁Secretary	-11.7386
怎样	-11.7386
bury	-11.7389
▁los	-11.7391
范围内	-11.7392
冰	-11.7392
景	-11.7393
UUID	-11.7394
儿	-11.7394
▁sacred	-11.7395
Bottom	-11.7395
军队	-11.7395
▁Wa	-11.7396
▁eco	-11.7397
▁guns	-11.7398
amine	-11.7398
▁Jackson	-11.7399
story	-11.7401
apple	-11.7402
▁gum	-11.7402
▁engineer	-11.7402
▁capability	-11.7406
复制	-11.7406
por	-11.741
▁joy	-11.7413
market	-11.7415
▁conclusions	-11.7417
▁Scientific	-11.7418
▁AM	-11.7421
ther	-11.7421
▁Short	-11.7423
▁incredibly	-11.7423
▁filling	-11.7423
▁entitled	-11.7423
goto	-11.7425
Calendar	-11.7425
宁	-11.7429
floor	-11.7429
effect	-11.7431
▁imagination	-11.7432
技术的	-11.7432
Constructor	-11.7434
Po	-11.7435
Foo	-11.7436
▁tracks	-11.7438
▁modification	-11.7438
mapping	-11.7439
tb	-11.7441
▁Contact	-11.7442
sol	-11.7442
▁broader	-11.7445
激活	-11.7447
ACTION	-11.7448
▁macro	-11.7448
▁Th	-11.7448
SK	-11.7449
▁manually	-11.745
的不同	-11.7451
SN	-11.7452
userId	-11.7452
▁somehow	-11.7453
也会	-11.7454
Hello	-11.7454
ago	-11.7454
奖	-11.7455
contents	-11.7456
▁evolutionary	-11.7457
▁moments	-11.7458
至少	-11.746
区别	-11.7461
可持续发展	-11.7461
▁operational	-11.7464
embed	-11.7465
poly	-11.7465
▁consist	-11.7466
Renderer	-11.7469
▁rooms	-11.7471
did	-11.7472
Worker	-11.7476
采	-11.7476
▁induced	-11.7479
▁amongst	-11.748
▁reflects	-11.7481
cel	-11.7482
建立了	-11.7485
一项	-11.7485
Play	-11.7485
available	-11.7488
▁stretch	-11.7489
▁reproductive	-11.7489
compute	-11.749
yml	-11.749
此时	-11.7492
character	-11.7496
发育	-11.7497
不过	-11.7498
GT	-11.75
Axis	-11.7501
终	-11.7502
bol	-11.7503
中间	-11.7507
▁Was	-11.7507
▁prefix	-11.7508
utter	-11.7509
活性	-11.7513
▁distinction	-11.7513
▁invasive	-11.7514
译	-11.7514
密度	-11.7515
▁nursing	-11.7516
为例	-11.7517
constant	-11.752
▁intervals	-11.7521
ction	-11.7523
getString	-11.7524
▁disc	-11.7524
▁courts	-11.7524
高级	-11.7524
▁bulk	-11.7527
应用程序	-11.7528
turn	-11.7529
▁drops	-11.7529
Face	-11.7535
玉	-11.7538
ug	-11.7539
tie	-11.7539
▁fund	-11.7541
转向	-11.7541
▁immigrants	-11.7543
地方政府	-11.7544
研究所	-11.7545
▁fifth	-11.7546
▁optimization	-11.7549
工人	-11.7552
mediated	-11.7553
kh	-11.7554
▁Testament	-11.7556
prime	-11.7559
▁propose	-11.7561
nat	-11.7562
▁doors	-11.7562
▁Arab	-11.7566
ute	-11.7567
▁arthritis	-11.7567
tasks	-11.7568
故障	-11.7571
苏联	-11.7572
▁fascinating	-11.7572
endo	-11.7574
Nav	-11.7574
▁encouraging	-11.7575
▁tendency	-11.7576
▁navigation	-11.7576
▁dementia	-11.7577
▁PDF	-11.7577
无论是	-11.7577
lv	-11.7577
▁visiting	-11.7579
logy	-11.7579
TRUE	-11.7579
▁Vietnam	-11.758
毛	-11.7582
人民群众	-11.7582
▁Gulf	-11.7583
▁missed	-11.7584
)||	-11.7584
abc	-11.7586
学会	-11.7587
Private	-11.7588
▁hang	-11.7588
▁defend	-11.7589
几个	-11.7589
▁Ada	-11.7595
▁predictions	-11.7597
Month	-11.7597
品质	-11.7597
▁dans	-11.7599
和谐	-11.7602
▁Jacob	-11.7602
identity	-11.7603
▁Fish	-11.7604
▁deployment	-11.7607
▁opacity	-11.7609
绝对	-11.7609
带来的	-11.761
maps	-11.7612
▁avoiding	-11.7612
hp	-11.7613
▁CPU	-11.7615
▁Muslims	-11.7617
Alert	-11.7618
肺	-11.762
观测	-11.762
vr	-11.7621
▁annually	-11.7621
EB	-11.7622
BI	-11.7622
Tools	-11.7622
▁swelling	-11.7622
Over	-11.7622
mk	-11.7623
成绩	-11.7625
bm	-11.7625
▁Greece	-11.7627
ked	-11.7627
MIT	-11.7628
生态系统	-11.7632
一起	-11.7632
sie	-11.7633
▁{#	-11.7634
▁Son	-11.7635
hang	-11.7636
▁Vo	-11.7636
▁liberal	-11.7637
危险	-11.7638
▁equipped	-11.7638
▁suspect	-11.7639
今	-11.764
▁sectors	-11.7644
CHAR	-11.7645
^{\	-11.7645
Health	-11.7647
▁stimulation	-11.7647
▁intermediate	-11.7649
▁Wildlife	-11.765
▁Theory	-11.7654
▁partnership	-11.7654
岗位	-11.7656
▁memories	-11.7656
港	-11.7656
▁weapon	-11.7657
BT	-11.7658
boost	-11.7659
▁tries	-11.766
▁medicines	-11.7661
适当	-11.7661
▁honest	-11.7662
▁illnesses	-11.7665
承	-11.7666
Timestamp	-11.7668
▁elementary	-11.7672
▁Optional	-11.7672
虽	-11.7674
▁yields	-11.7676
施	-11.7676
wd	-11.7677
ough	-11.7678
建成	-11.7678
▁Below	-11.7678
Converter	-11.7678
佛	-11.768
鲁	-11.768
▁receives	-11.7681
大会	-11.7681
▁vegetable	-11.7681
AN	-11.7682
▁attract	-11.7685
档案	-11.7685
身体	-11.7685
生产力	-11.7685
符号	-11.7685
Head	-11.7687
▁slope	-11.7688
▁Yu	-11.7688
▁variant	-11.7688
▁rejected	-11.769
威	-11.7691
prov	-11.7693
HI	-11.7694
bas	-11.7694
Reset	-11.7694
ality	-11.7695
永	-11.7695
▁prayer	-11.7696
seg	-11.7698
▁manufacturer	-11.7699
每一个	-11.7699
优	-11.7701
典型	-11.7701
供应	-11.7702
▁sorry	-11.7705
▁WHERE	-11.7705
▁onset	-11.7708
▁una	-11.7709
displaystyle	-11.7712
▁shoes	-11.7713
春	-11.7714
▁syntax	-11.7715
Speed	-11.7718
全党	-11.7718
▁belongs	-11.7719
▁Creek	-11.772
both	-11.772
tw	-11.7724
血管	-11.7724
▁repo	-11.7725
▁enemies	-11.7725
▁photographs	-11.7725
Uint	-11.7726
vid	-11.7727
夏	-11.7727
▁Additional	-11.7731
良	-11.7731
people	-11.7732
▁Spirit	-11.7732
▁Senate	-11.7733
馆	-11.7735
发达国家	-11.7736
Ba	-11.7736
正确的	-11.7737
Div	-11.7738
methyl	-11.7739
gro	-11.774
zer	-11.7743
的战略	-11.7744
()`	-11.7744
▁enforcement	-11.7744
express	-11.7745
详细	-11.7746
▁churches	-11.7746
▁beach	-11.7746
▁instant	-11.7747
hole	-11.7747
nas	-11.7748
Ka	-11.7748
▁surprising	-11.775
▁Carl	-11.7753
经典	-11.7753
诸	-11.7755
通过对	-11.7755
欧盟	-11.7756
▁indicators	-11.7757
▁lunch	-11.7758
Stat	-11.7758
tur	-11.7759
MASK	-11.7759
Cursor	-11.7761
▁hardly	-11.7763
▁belonging	-11.7764
▁movies	-11.7765
▁administrative	-11.7765
▁fatal	-11.7766
卫	-11.7767
High	-11.7767
软	-11.7768
▁partly	-11.7768
ION	-11.777
▁organize	-11.777
很大	-11.777
▁prevents	-11.7772
良好	-11.7773
definition	-11.7774
soft	-11.7774
▁resolved	-11.7775
▁GMT	-11.7775
▁coordinate	-11.7775
▁volunteers	-11.7776
redirect	-11.7778
▁speaker	-11.7779
解决方案	-11.7779
Children	-11.7779
▁entities	-11.7782
ration	-11.7784
▁Ag	-11.7784
国内外	-11.7785
remarks	-11.7786
静	-11.7786
▁improves	-11.7786
▁pursue	-11.7786
▁accomplish	-11.7787
sizeof	-11.7788
▁efficacy	-11.7788
н	-11.7791
▁BY	-11.7792
▁passive	-11.7792
形成的	-11.7793
▁planted	-11.7793
dog	-11.7794
更好	-11.7794
▁expanding	-11.7795
删除	-11.7795
编码	-11.7796
OT	-11.7796
Copyright	-11.7796
▁portions	-11.7798
专项	-11.7798
社会的	-11.7799
}$$	-11.7799
ISO	-11.78
▁Paper	-11.7801
▁certificate	-11.7804
经历	-11.7804
gene	-11.7805
En	-11.7807
between	-11.7808
culture	-11.7808
disk	-11.7809
Alpha	-11.781
多次	-11.781
协作	-11.7811
▁explored	-11.7811
▁miss	-11.7813
公共服务	-11.7814
▁distances	-11.7814
Cap	-11.7815
频	-11.7815
Schedule	-11.7817
keyword	-11.7818
肝	-11.7822
highlight	-11.7822
▁occurrence	-11.7824
▁sensory	-11.7826
代理	-11.7828
ili	-11.7828
Connect	-11.7829
单一	-11.7831
workspace	-11.7832
▁fragment	-11.7832
mot	-11.7832
CMD	-11.7832
▁fans	-11.7832
推荐	-11.7833
皆	-11.7833
Photo	-11.7834
](/	-11.7835
▁wage	-11.7836
zh	-11.7836
▁Alaska	-11.7839
▁bags	-11.784
▁Biology	-11.784
牛	-11.784
Bind	-11.784
eur	-11.7843
tick	-11.7846
processing	-11.785
▁reply	-11.785
▁NY	-11.7852
š	-11.7852
emp	-11.7854
▁assumptions	-11.7855
▁Team	-11.7856
认真	-11.786
▁substitute	-11.7862
▁highlights	-11.7863
▁surrounded	-11.7863
▁Vector	-11.7865
MU	-11.7866
▁sons	-11.7867
ines	-11.7867
显	-11.7868
▁democratic	-11.7868
▁pd	-11.7868
▁chicken	-11.7869
BUILD	-11.787
▁steady	-11.787
▁constitution	-11.7871
▁encountered	-11.7871
Headers	-11.7872
ude	-11.7873
▁plugin	-11.7874
Peer	-11.7877
纯	-11.7878
ICE	-11.788
▁elections	-11.7881
Rest	-11.7882
gent	-11.7882
▁relating	-11.7883
flower	-11.7883
▁Historical	-11.7885
角色	-11.7887
处置	-11.7887
▁generator	-11.7887
acy	-11.7893
▁Ex	-11.7893
▁aging	-11.7893
完整	-11.7894
▁absorb	-11.7899
▁fingers	-11.7899
▁frequencies	-11.79
▁determination	-11.7902
尝试	-11.7903
▁reads	-11.7904
BM	-11.7905
▁Stage	-11.7905
工业化	-11.7906
▁abandoned	-11.7906
▁Poland	-11.7906
▁Illinois	-11.7907
为此	-11.7909
з	-11.7912
▁governor	-11.7915
▁navigate	-11.7916
的利益	-11.7918
accept	-11.792
采购	-11.7922
runner	-11.7922
ground	-11.7922
航	-11.7923
RR	-11.7924
mont	-11.7926
▁dramatically	-11.7926
▁arc	-11.7926
▁vaccination	-11.7928
接收	-11.7931
违法	-11.7932
▁nullptr	-11.7933
更是	-11.7934
▁composite	-11.7936
▁spreading	-11.7936
OL	-11.7937
notes	-11.7937
并不是	-11.7937
赋予	-11.7938
▁Play	-11.7939
毒	-11.7942
▁butter	-11.7943
ARM	-11.7944
▁crystal	-11.7945
segment	-11.7946
美元	-11.7946
ego	-11.7948
bird	-11.7948
▁acquisition	-11.7948
编辑	-11.7948
资格	-11.7949
银	-11.795
▁schema	-11.7952
jan	-11.7952
kel	-11.7956
▁Ed	-11.7959
Literal	-11.7959
ر	-11.7959
dam	-11.7959
▁defects	-11.7963
▁monthly	-11.7964
敌	-11.7967
▁Risk	-11.797
Don	-11.7972
历	-11.7972
▁Sur	-11.7974
▁vectors	-11.7975
债务人	-11.7976
getId	-11.7978
▁associations	-11.7978
▁chair	-11.798
先后	-11.798
Drop	-11.7981
茶	-11.7984
far	-11.7986
▁mobility	-11.7987
在线	-11.7988
CK	-11.7989
▁attended	-11.7989
▁comparable	-11.799
▁servers	-11.7993
tcp	-11.7994
▁inhabitants	-11.7995
▁appointment	-11.7996
表现为	-11.7998
▁convenient	-11.7998
through	-11.7999
▁demonstrates	-11.8
▁bands	-11.8
usepackage	-11.8002
Tr	-11.8003
债权	-11.8005
▁arrive	-11.8005
▁injured	-11.8009
▁thirty	-11.801
ASSERT	-11.801
民众	-11.8011
HO	-11.8012
reply	-11.8012
▁collecting	-11.8013
原始	-11.8013
choice	-11.8013
rack	-11.8013
▁ON	-11.8014
反馈	-11.8014
▁pose	-11.8015
▁Za	-11.8016
▁Prince	-11.8016
借助	-11.8018
▁Full	-11.8021
online	-11.8021
负担	-11.8022
▁Sol	-11.8023
Migration	-11.8023
▁sustain	-11.8024
批评	-11.8025
▁shelter	-11.8026
lee	-11.8026
位于	-11.8027
报道	-11.803
LM	-11.803
目录	-11.8032
sam	-11.8033
▁utilize	-11.8034
价值观	-11.8034
Tasks	-11.8034
▁underground	-11.8034
▁cd	-11.8034
≡	-11.8034
▁Trade	-11.8035
▁harsh	-11.8036
▁PhD	-11.8036
▁protocols	-11.8037
▁Turkey	-11.8038
hold	-11.8038
▁Making	-11.8043
存在的	-11.8044
medium	-11.8047
▁Angeles	-11.8048
Pack	-11.8048
▁Commons	-11.8049
kb	-11.805
wall	-11.805
MENT	-11.8051
森林	-11.8053
mile	-11.8053
▁[],	-11.8053
▁Him	-11.8054
Mem	-11.8054
',	-11.8055
▁Studio	-11.8056
▁hopes	-11.8056
days	-11.8057
Expect	-11.8058
▁Give	-11.806
▁develops	-11.8061
pipeline	-11.8062
Wire	-11.8062
▁UV	-11.8063
▁poorly	-11.8066
▁operated	-11.8067
ー	-11.8069
yard	-11.8069
▁infectious	-11.807
▁pulled	-11.8071
▁healthier	-11.8072
▁surveys	-11.8072
▁seasonal	-11.8073
丰富的	-11.8074
HD	-11.8075
▁dress	-11.8075
市场经济	-11.8075
ρ	-11.8076
▁degradation	-11.8076
encoding	-11.8076
肉	-11.8077
▁spacecraft	-11.8077
▁talked	-11.8079
▁inflation	-11.808
▁phenomena	-11.8081
webpack	-11.8082
▁builds	-11.8083
▁drives	-11.8084
▁hygiene	-11.8086
▁Trust	-11.8086
hack	-11.8086
Cont	-11.8086
olo	-11.8087
▁arrest	-11.8087
▁blame	-11.8088
mount	-11.8088
奋斗	-11.8089
古代	-11.809
UInt	-11.809
▁qualified	-11.809
末	-11.8093
uff	-11.8095
侵权	-11.8096
▁insert	-11.8098
的意义	-11.8098
▁contributes	-11.8099
线程	-11.8099
▁realistic	-11.81
ViewModel	-11.81
▁unexpected	-11.8101
pers	-11.8101
虫	-11.8101
htm	-11.8101
warn	-11.8105
▁pulse	-11.8107
Browser	-11.811
大量的	-11.8111
封	-11.8111
▁legacy	-11.8112
tiny	-11.8114
DH	-11.8114
运作	-11.8115
Pipeline	-11.8116
备	-11.8119
▁cuts	-11.8119
▁administered	-11.8125
同时也	-11.8125
▁freely	-11.8125
分散	-11.8125
无效	-11.8128
▁funded	-11.813
__)	-11.8133
▁antibody	-11.8136
就可以	-11.8136
▁finance	-11.8137
▁metric	-11.8138
▁Mu	-11.8138
mos	-11.8139
分工	-11.814
分享	-11.8141
两者	-11.8142
▁Wilson	-11.8142
Strategy	-11.8144
central	-11.8145
nr	-11.8145
▁struck	-11.8146
互	-11.8147
▁Adam	-11.8148
▁homework	-11.8148
sex	-11.8149
▁bunch	-11.8149
垄断	-11.815
▁physicians	-11.815
responsibilities	-11.8152
buff	-11.8152
审理	-11.8152
PU	-11.8154
附	-11.8154
ava	-11.8156
维度	-11.8158
Transition	-11.8159
▁Death	-11.8161
▁bomb	-11.8162
树立	-11.8164
▁emerge	-11.8166
▁electro	-11.8167
ess	-11.8168
▁'';	-11.8168
产量	-11.8169
SW	-11.8169
dal	-11.817
▁abundant	-11.817
联合国	-11.817
寻找	-11.8171
代谢	-11.8172
Dictionary	-11.8173
sexual	-11.8174
upper	-11.8174
yu	-11.8175
▁conceptual	-11.8175
Based	-11.8177
▁alignment	-11.8178
clo	-11.8178
▁burned	-11.8181
▁fibers	-11.8181
通用	-11.8182
党的十八大以来	-11.8183
rr	-11.8183
▁weekly	-11.8184
▁intention	-11.8185
谱	-11.8185
gif	-11.8186
争	-11.8187
▁Assembly	-11.8187
分解	-11.8189
▁contamination	-11.819
审	-11.819
Payload	-11.8192
▁gardens	-11.8193
▁adolescents	-11.8194
َ	-11.8195
▁reliability	-11.8197
emit	-11.8197
▁wooden	-11.8197
IMAGE	-11.8198
lite	-11.8198
>()	-11.8199
gle	-11.8199
▁Others	-11.82
▁mammals	-11.82
法官	-11.8201
}")	-11.8201
▁Stephen	-11.8202
Cart	-11.8203
厚	-11.8204
RB	-11.8204
onic	-11.8204
jquery	-11.8205
▁initialize	-11.8205
▁compression	-11.8207
谋	-11.8209
indices	-11.821
▁occasion	-11.821
阶级	-11.8211
Win	-11.8212
{$	-11.8213
▁counts	-11.8214
曲线	-11.8216
事故	-11.8216
▁assault	-11.8218
oz	-11.8218
▁Watch	-11.8219
spir	-11.8221
政党	-11.8223
仪	-11.8228
情形	-11.8228
▁resistant	-11.8228
ography	-11.8229
Done	-11.8229
▁striking	-11.823
PB	-11.823
away	-11.8232
▁wash	-11.8234
das	-11.8238
▁Garden	-11.824
▁complement	-11.824
▁Area	-11.824
人民币	-11.8241
结束	-11.8244
付	-11.8245
回归	-11.8245
第一次	-11.8246
▁council	-11.8246
▁commission	-11.8246
existing	-11.8246
Controls	-11.8249
hill	-11.825
▁tied	-11.8251
▁Mountain	-11.8251
development	-11.8254
配套	-11.8254
优质	-11.8254
容量	-11.8256
▁packet	-11.8262
停	-11.8263
▁invest	-11.8265
collapse	-11.8266
coll	-11.8267
▁thoroughly	-11.8267
晶	-11.8267
▁sciences	-11.8268
分布式	-11.8268
ala	-11.8269
RGB	-11.8272
▁convey	-11.8274
reverse	-11.8275
效	-11.8276
▁Es	-11.8279
▁variants	-11.8279
▁debris	-11.828
▁Abraham	-11.8281
▁Put	-11.8281
canvas	-11.8282
▁Hol	-11.8282
▁duties	-11.8282
尿	-11.8283
▁livestock	-11.8285
▁Gene	-11.8286
ily	-11.8286
Acc	-11.8286
▁Wild	-11.8287
chemical	-11.8287
xF	-11.829
ati	-11.8291
事实上	-11.8291
ub	-11.8292
Your	-11.8294
verb	-11.8294
▁satisfied	-11.8294
发射	-11.8295
乡村振兴	-11.8296
▁illustrated	-11.8296
▁accordance	-11.8297
sal	-11.8297
厂	-11.8297
▁ruled	-11.8297
Cr	-11.8299
▁assessments	-11.8302
spin	-11.8302
风格	-11.8302
而在	-11.8302
▁clouds	-11.8302
bel	-11.8304
HOST	-11.8306
▁Gas	-11.8309
Signature	-11.8309
贯彻	-11.8311
指令	-11.8312
▁Ze	-11.8313
mate	-11.8316
Ho	-11.8318
▁Impact	-11.8319
shi	-11.8319
胡	-11.832
wikipedia	-11.832
▁Drug	-11.8321
▁Wales	-11.8321
ante	-11.8322
的国家	-11.8323
());	-11.8323
FI	-11.8325
▁BE	-11.8326
Normal	-11.8326
▁solely	-11.8326
▁masses	-11.8327
≤	-11.8328
▁Things	-11.8328
▁grace	-11.8328
药品	-11.8331
产业发展	-11.8331
information	-11.8331
▁faculty	-11.8332
日常	-11.8333
所在	-11.8333
▁Governor	-11.8334
病人	-11.8334
奥	-11.8336
▁teens	-11.8336
powered	-11.8337
tensor	-11.8338
▁Ancient	-11.8338
▁Harry	-11.8338
▁keyboard	-11.8339
▁magazine	-11.834
▁bears	-11.834
▁peripheral	-11.8341
▁Ste	-11.8342
增加了	-11.8343
TL	-11.8344
▁continuously	-11.8344
▁Win	-11.8344
channels	-11.8345
某一	-11.8347
▁twelve	-11.835
▁defeat	-11.835
堂	-11.835
采集	-11.8351
▁sed	-11.8352
▁obtaining	-11.8352
USE	-11.8353
▁swimming	-11.8353
stan	-11.8354
竞争力	-11.8358
▁chocolate	-11.836
▁Andrew	-11.836
▁paintings	-11.8362
▁Jones	-11.8362
endl	-11.8363
Wait	-11.8365
▁attacked	-11.8365
▁accumulation	-11.8365
suite	-11.8366
▁placeholder	-11.8366
护	-11.8367
盛	-11.8367
▁lesions	-11.8367
▁Teaching	-11.8368
▁asks	-11.837
矿	-11.8371
pol	-11.8372
产权	-11.8374
全局	-11.8374
▁Mississippi	-11.8375
setText	-11.8375
为基础	-11.8375
persistence	-11.8377
toBe	-11.8377
指南	-11.8377
法人	-11.8378
友	-11.8378
▁assign	-11.838
赵	-11.838
▁>>>	-11.8381
▁DO	-11.8381
concat	-11.8381
自身的	-11.8381
▁indicator	-11.8383
ended	-11.8385
burg	-11.8385
ido	-11.8386
▁pitch	-11.8386
▁temporal	-11.8386
AV	-11.8387
▁winning	-11.8387
infty	-11.8389
▁unto	-11.8389
many	-11.839
Resolver	-11.8391
▁phones	-11.8392
RPC	-11.8394
版本	-11.8394
▁smallest	-11.8396
功率	-11.8397
▁admitted	-11.8397
▁Town	-11.8398
添加	-11.8398
Segment	-11.8399
▁fleet	-11.84
▁crimes	-11.8401
ن	-11.8402
一年	-11.8402
▁Mediterranean	-11.8403
ي	-11.8403
lf	-11.8404
▁angry	-11.8405
refresh	-11.8407
委托	-11.8407
proj	-11.8408
fragment	-11.8409
公司的	-11.8411
serif	-11.8413
云计算	-11.8416
att	-11.8418
borne	-11.8418
意识形态	-11.8418
▁dried	-11.8419
▁vacuum	-11.842
hw	-11.8422
恶	-11.8422
Ni	-11.8422
▁crash	-11.8422
▁phases	-11.8423
▁pen	-11.8425
▁okay	-11.8425
θ	-11.8426
ces	-11.8426
▁developments	-11.8427
举措	-11.843
ack	-11.8431
Article	-11.8432
▁citizen	-11.8432
▁colab	-11.8436
巨大的	-11.8436
categories	-11.8436
渗透	-11.8436
adj	-11.8438
▁notable	-11.8438
Setup	-11.8439
;}	-11.8441
▁therapies	-11.8442
▁Need	-11.8442
▁Physics	-11.8442
OD	-11.8442
▁succeeded	-11.8444
融	-11.8444
▁gaps	-11.8446
Convert	-11.8446
equi	-11.8446
▁soils	-11.8447
▁Han	-11.8449
navigation	-11.845
▁literal	-11.845
tk	-11.845
sea	-11.8451
burn	-11.8451
Then	-11.8451
▁impressive	-11.8452
▁heaven	-11.8455
UT	-11.8455
▁strip	-11.8456
rpc	-11.8457
▁ban	-11.8457
camera	-11.8459
指挥	-11.846
functions	-11.8461
的需要	-11.8462
实例	-11.8462
▁licensed	-11.8463
raise	-11.8465
视为	-11.8466
▁rainfall	-11.8466
Answer	-11.8466
Touch	-11.8467
的学习	-11.8468
▁officially	-11.8469
subsection	-11.8469
rl	-11.8469
Fail	-11.8469
▁satisfaction	-11.847
tier	-11.847
▁profound	-11.8471
Oh	-11.8471
▁confident	-11.8473
ε	-11.8473
gang	-11.8473
▁organism	-11.8476
Contains	-11.8476
▁thy	-11.8476
Arguments	-11.8477
OM	-11.8479
▁dentist	-11.848
rn	-11.8481
▁promotes	-11.8481
贵	-11.8481
▁placing	-11.8481
▁Teachers	-11.8482
幼儿	-11.8483
▁consensus	-11.8484
▁blockchain	-11.8486
▁producers	-11.8487
cia	-11.8488
铁路	-11.8489
▁seasons	-11.8489
▁sees	-11.849
arguments	-11.849
▁specimens	-11.8494
有权	-11.8495
▁'%	-11.8496
租	-11.8498
sock	-11.8499
雨	-11.85
patient	-11.85
emia	-11.8501
▁scenes	-11.8501
▁accidents	-11.8502
▁defining	-11.8503
dra	-11.8505
扶贫	-11.8506
票	-11.8506
有序	-11.8506
concurrent	-11.8507
resistant	-11.8507
▁Video	-11.8508
▁Egyptian	-11.8509
ben	-11.8509
▁Mal	-11.851
Tx	-11.8511
▁Mat	-11.8512
logs	-11.8513
塔	-11.8513
▁suppose	-11.8513
▁quantitative	-11.8514
▁Case	-11.8514
▁villages	-11.8515
仲裁	-11.8516
cid	-11.8518
GM	-11.8519
PRO	-11.852
▁Ser	-11.8522
Annotation	-11.8522
mov	-11.8523
▁influenza	-11.8525
▁participating	-11.8526
▁assistant	-11.8528
pra	-11.8528
▁contrary	-11.8529
▁Bro	-11.8529
研究的	-11.8529
▁athletes	-11.8534
▁counting	-11.8535
epsilon	-11.8536
中共	-11.8539
岩	-11.8539
pha	-11.8539
▁Similar	-11.8541
其实	-11.8542
ale	-11.8543
▁survived	-11.8544
▁EPA	-11.8547
▁Deep	-11.8549
LR	-11.8551
lm	-11.8551
nia	-11.8554
▁Feb	-11.8555
mission	-11.8556
ridge	-11.8556
▁arranged	-11.8557
sensor	-11.8558
▁brothers	-11.8559
▁Berlin	-11.8559
bell	-11.856
侵犯	-11.856
▁Aug	-11.856
graf	-11.856
Transfer	-11.856
▁holy	-11.8561
▁Mental	-11.8562
Components	-11.8562
设定	-11.8565
▁TRGL	-11.8566
▁Heritage	-11.8568
▁atmospheric	-11.8568
VO	-11.8569
ه	-11.8569
SERVER	-11.8569
▁pushing	-11.857
chrome	-11.857
估计	-11.8572
▁immunity	-11.8573
minute	-11.8573
Summary	-11.8575
ل	-11.8575
TI	-11.8578
▁prevented	-11.8578
使用的	-11.8578
gin	-11.8579
SDL	-11.858
frequency	-11.8582
高于	-11.8583
哈	-11.8584
▁Very	-11.8585
carbon	-11.8585
▁civilization	-11.8586
▁simulations	-11.8588
balance	-11.8588
▁tight	-11.8591
▁erosion	-11.8592
发展中国家	-11.8592
fact	-11.8592
▁immuno	-11.8594
▁exports	-11.8594
绩效	-11.8596
她	-11.8596
方便	-11.8597
的重大	-11.8599
contract	-11.86
法学	-11.86
Sensor	-11.86
}]	-11.8601
▁'{	-11.8601
▁vitro	-11.8602
Side	-11.8603
secondary	-11.8603
故事	-11.8604
▁floating	-11.8605
▁assets	-11.8607
痛	-11.8608
▁bars	-11.8608
制度的	-11.861
▁Gi	-11.861
▁slight	-11.8612
▁tre	-11.8613
整理	-11.8615
race	-11.8616
工厂	-11.8616
▁unnecessary	-11.8616
引发	-11.8617
外国	-11.8618
▁Bridge	-11.8618
▁loud	-11.8619
境	-11.8623
废	-11.8625
▁Follow	-11.8625
stroke	-11.8625
第一个	-11.8626
▁fetch	-11.8628
刑事	-11.8629
旨在	-11.8629
证券	-11.8629
▁tackle	-11.863
▁artistic	-11.8631
Tables	-11.8633
lect	-11.8635
▁weren	-11.8636
rous	-11.8636
answer	-11.8636
发生的	-11.8637
/${	-11.8641
▁methodology	-11.8641
视觉	-11.8642
tron	-11.8644
▁perspectives	-11.8645
rev	-11.8646
修订	-11.8647
▁ADHD	-11.8649
▁fate	-11.865
same	-11.8651
л	-11.8652
晚	-11.8652
▁authentication	-11.8653
▁affairs	-11.8654
▁speakers	-11.8655
reddit	-11.8655
ω	-11.8655
Black	-11.8658
▁worried	-11.8658
▁stops	-11.8658
▁Miss	-11.8659
Lo	-11.866
▁по	-11.8662
定期	-11.8662
night	-11.8663
成效	-11.8663
▁nuts	-11.8665
▁crossing	-11.8665
▁failing	-11.8666
Dynamic	-11.8667
surface	-11.8667
▁distribute	-11.8669
vars	-11.867
▁importantly	-11.8672
especially	-11.8673
投	-11.8674
▁correlated	-11.8675
aging	-11.8675
▁Oregon	-11.8675
registry	-11.8676
▁interviews	-11.8676
placeholder	-11.8678
各项	-11.8679
Geometry	-11.8679
边界	-11.8681
▁occupation	-11.8683
▁realm	-11.8684
Proc	-11.8684
Subject	-11.8684
钢	-11.8685
>::	-11.8686
▁designing	-11.8687
▁protest	-11.8687
▁wondering	-11.8687
▁physiological	-11.8688
▁editing	-11.8688
吗	-11.869
君	-11.8691
▁cloth	-11.8691
unt	-11.8692
▁carries	-11.8696
parts	-11.8697
▁humidity	-11.8698
▁Γ	-11.87
ctl	-11.87
手术	-11.87
unk	-11.87
▁heal	-11.87
leave	-11.8703
SOURCE	-11.8705
加密	-11.8705
で	-11.8705
▁Materials	-11.8706
秦	-11.8706
▁compete	-11.8707
坚决	-11.8707
effective	-11.8708
福	-11.871
Messages	-11.8712
▁solved	-11.8712
具体的	-11.8712
skin	-11.8713
commands	-11.8713
FileName	-11.8714
Mat	-11.8715
Sprintf	-11.8715
atomic	-11.8715
债券	-11.8716
arity	-11.8716
▁mini	-11.8716
Unmarshal	-11.8717
▁Indigenous	-11.8718
Old	-11.8718
▁Know	-11.8718
Ac	-11.8718
Wrap	-11.8718
▁Generally	-11.872
各级	-11.872
▁dont	-11.8722
▁shooting	-11.8723
profit	-11.8723
м	-11.8724
ando	-11.8725
信仰	-11.8726
IG	-11.873
ogenic	-11.8731
排除	-11.8732
梁	-11.8733
UPDATE	-11.8733
NEW	-11.8733
د	-11.8734
▁residential	-11.8735
rie	-11.8736
大脑	-11.8736
Ids	-11.8739
塞	-11.8739
economic	-11.8739
▁Mor	-11.874
Repo	-11.874
▁Philadelphia	-11.8742
works	-11.8743
▁Ur	-11.8744
▁acceptance	-11.8746
running	-11.8747
▁Moses	-11.8748
RN	-11.8748
概括	-11.8748
nch	-11.8752
▁Policy	-11.8754
▁weakness	-11.8754
一方	-11.8754
▁interfere	-11.8756
Ab	-11.8756
č	-11.8756
graphics	-11.8756
▁awarded	-11.8757
▁Pope	-11.8757
后来	-11.8757
乙	-11.876
▁settle	-11.876
▁compatible	-11.8762
▁deposits	-11.8762
GH	-11.8762
▁gains	-11.8763
▁nurse	-11.8764
Shift	-11.8765
▁Century	-11.8766
Rec	-11.8767
atic	-11.8769
▁chip	-11.8769
真理	-11.8769
鱼	-11.8769
▁canal	-11.877
人文	-11.8771
▁Statistics	-11.8771
能否	-11.8772
▁inspiration	-11.8772
▁Way	-11.8772
▁coefficient	-11.8772
▁painted	-11.8772
▁emotion	-11.8772
谷	-11.8772
▁trick	-11.8772
▁accomplished	-11.8773
statement	-11.8774
▁tour	-11.8774
情境	-11.8775
▁smile	-11.8776
宏观	-11.8777
€	-11.8777
pyx	-11.8777
usage	-11.8778
▁tired	-11.8779
▁indoor	-11.8779
许可	-11.8779
▁segments	-11.8779
cop	-11.878
Press	-11.8781
▁USE	-11.8783
cup	-11.8784
▁cook	-11.8784
todo	-11.8788
▁valley	-11.8789
▁avoided	-11.8789
lem	-11.8789
▁preferences	-11.8789
不少	-11.879
▁isinstance	-11.8792
丝	-11.8793
▁profiles	-11.8794
▁Jr	-11.8796
取决于	-11.8797
政权	-11.8797
▁wings	-11.8798
▁Taylor	-11.8798
▁domains	-11.8798
zing	-11.8798
▁discomfort	-11.8798
▁irrigation	-11.88
unknown	-11.8801
小时	-11.8802
▁Download	-11.8803
必要	-11.8804
▁explaining	-11.8804
▁distinctive	-11.8806
▁patent	-11.8809
▁hip	-11.8809
▁Mother	-11.881
▁PURPOSE	-11.881
wel	-11.8811
▁Prime	-11.8812
先生	-11.8813
▁circles	-11.8813
人体	-11.8814
▁payments	-11.8815
▁Williams	-11.8815
ups	-11.8817
aki	-11.8818
schedule	-11.8818
▁traveling	-11.8818
ket	-11.8819
KB	-11.8819
DEF	-11.882
▁weights	-11.8821
波动	-11.8821
▁meditation	-11.8823
▁essence	-11.8824
模	-11.8826
hyperlink	-11.8827
▁integrate	-11.8827
限	-11.8827
Bin	-11.8828
SG	-11.8828
Management	-11.8829
▁Depending	-11.883
▁audit	-11.883
所有的	-11.883
▁relieve	-11.8831
initialize	-11.8832
孩子	-11.8832
冲击	-11.8834
▁prompt	-11.8834
▁winds	-11.8834
anchor	-11.8835
▁compost	-11.8836
彻底	-11.8836
▁closing	-11.8836
▁Five	-11.8836
▁cope	-11.8838
▁∀	-11.8838
articles	-11.8839
▁BUT	-11.8839
交互	-11.884
Ar	-11.8841
Delegate	-11.8842
▁chains	-11.8843
▁Usually	-11.8845
也就是	-11.8845
货币政策	-11.8846
▁handled	-11.8846
▁afternoon	-11.8847
Gateway	-11.8847
Android	-11.8847
▁Ga	-11.8848
ators	-11.8849
▁proud	-11.885
叫	-11.885
templates	-11.885
Tuple	-11.885
▁continent	-11.8851
▁Sp	-11.8852
▁hasn	-11.8852
▁inflammatory	-11.8853
▁watched	-11.8853
WE	-11.8854
vor	-11.8854
否则	-11.8854
▁Arizona	-11.8854
▁robots	-11.8854
敏感	-11.8855
▁illustrate	-11.8856
NK	-11.8856
▁oils	-11.8856
天下	-11.8856
对应	-11.8858
依托	-11.8859
课堂教学	-11.8863
Req	-11.8865
kotlin	-11.8865
▁Grant	-11.8865
▁Oil	-11.8869
▁Carbon	-11.887
▁tourism	-11.887
Rel	-11.8871
▁Oh	-11.8871
▁interpreted	-11.8873
tas	-11.8875
reason	-11.8876
已有	-11.8878
▁combinations	-11.8878
▁mutual	-11.8878
▁medieval	-11.8878
吸引	-11.8878
相反	-11.8879
▁malaria	-11.888
Dataset	-11.8881
▁Core	-11.8882
▁registration	-11.8882
▁opts	-11.8882
wr	-11.8883
急	-11.8883
complex	-11.8884
▁assay	-11.8884
刚	-11.8885
^\	-11.8886
办学	-11.8887
▁campus	-11.8887
journal	-11.8887
reload	-11.8887
White	-11.8889
tax	-11.8889
细菌	-11.889
更高	-11.8891
vc	-11.8892
▁bills	-11.8892
▁Pain	-11.8895
▁UI	-11.8897
▁worksheets	-11.8898
万人	-11.8898
Errors	-11.89
▁investments	-11.89
▁spelling	-11.8901
tone	-11.8902
▁flesh	-11.8902
Diff	-11.8902
准	-11.8903
▁expenses	-11.8905
▁ancestors	-11.8905
▁cave	-11.8908
资源的	-11.8908
▁trap	-11.8909
tuple	-11.891
▁Ram	-11.8911
▁verb	-11.8912
促	-11.8912
▁tanks	-11.8913
▁Pen	-11.8914
Im	-11.8914
▁allergies	-11.8916
新技术	-11.8919
▁attempting	-11.8921
<>();	-11.8922
▁deer	-11.8922
leaf	-11.8924
Stage	-11.8924
boy	-11.8925
RED	-11.8925
helpers	-11.8926
variant	-11.8929
Team	-11.8929
▁worn	-11.893
▁fallen	-11.893
}</	-11.893
▁Hard	-11.8932
聚焦	-11.8933
侵害	-11.8934
▁drama	-11.8935
亮	-11.8935
MY	-11.8938
Subscription	-11.8938
使其	-11.894
▁earned	-11.8942
▁]];	-11.8942
▁missions	-11.8942
inst	-11.8942
Omega	-11.8943
▁randomly	-11.8943
Ship	-11.8944
Graphics	-11.8945
▁Iraq	-11.8945
▁soap	-11.8946
稳定性	-11.8946
▁whilst	-11.8946
▁absorbed	-11.8948
▁androidx	-11.8949
▁Animal	-11.895
Archive	-11.895
paths	-11.895
▁beans	-11.895
▁impression	-11.8953
reduce	-11.8953
大气	-11.8953
序	-11.8954
妇女	-11.8956
rays	-11.8956
组件	-11.8957
tm	-11.8957
▁fake	-11.8957
▁incorrect	-11.8958
ien	-11.8959
优秀	-11.8959
Tool	-11.8962
美术	-11.8962
▁invented	-11.8962
▁diets	-11.8968
{%	-11.8968
ctor	-11.897
背	-11.8971
▁MA	-11.8971
UTC	-11.8972
的各种	-11.8974
fil	-11.8975
%),	-11.8976
▁manifest	-11.8978
的文化	-11.8978
▁Course	-11.8979
差距	-11.898
▁coins	-11.898
nal	-11.8982
rock	-11.8982
▁earthquake	-11.8983
nf	-11.8984
Bi	-11.8986
载体	-11.8988
[:,	-11.8988
略	-11.8988
▁allergic	-11.8989
▁speeds	-11.8989
▁ver	-11.899
middle	-11.899
▁separately	-11.8991
▁backup	-11.8991
▁Standards	-11.8992
合理的	-11.8993
扬	-11.8994
Submit	-11.8996
rite	-11.8997
▁mere	-11.8998
had	-11.8998
承认	-11.8999
taking	-11.9
的设计	-11.9001
▁receiver	-11.9001
attrs	-11.9001
▁Maria	-11.9003
▁subtle	-11.9004
▁extinction	-11.9005
▁für	-11.9005
▁poet	-11.9005
紧	-11.9006
▁epi	-11.9008
▁mess	-11.9008
EVENT	-11.9009
sar	-11.9009
▁Search	-11.9009
Authorization	-11.901
▁sophisticated	-11.9011
有效地	-11.9011
总量	-11.9014
▁artery	-11.9014
▁SP	-11.9014
overlay	-11.9015
保留	-11.9016
HF	-11.9016
▁conversations	-11.9017
▁cited	-11.9018
xxx	-11.902
Period	-11.9021
TB	-11.9025
▁bugs	-11.9026
XXX	-11.903
▁triggered	-11.903
Encoding	-11.9031
degree	-11.9031
▁Lewis	-11.9032
▁stakeholders	-11.9035
▁symptom	-11.9036
文化的	-11.9038
计量	-11.9039
必要的	-11.9039
los	-11.904
Missing	-11.9041
rian	-11.9042
▁Quality	-11.9042
▁analyzing	-11.9042
▁router	-11.9042
▁Saturday	-11.9042
ways	-11.9043
Pin	-11.9044
▁prone	-11.9044
▁limiting	-11.9044
▁sperm	-11.9045
记载	-11.9045
Off	-11.9046
▁Jim	-11.9048
▁award	-11.9048
尾	-11.9048
dor	-11.9048
stance	-11.9048
vertical	-11.905
未成年人	-11.9053
▁intensive	-11.9056
spot	-11.9059
wl	-11.906
▁duplicate	-11.906
推行	-11.9061
▁Schools	-11.9061
探	-11.9063
previous	-11.9064
generation	-11.9065
PV	-11.9065
▁promotion	-11.9065
Fill	-11.9067
条规定	-11.9067
▁cow	-11.9069
Hit	-11.907
▁referring	-11.907
▁featured	-11.907
notify	-11.9071
▁Sleep	-11.9071
▁neighbors	-11.9071
Jo	-11.9072
SDK	-11.9072
▁syn	-11.9072
疏	-11.9073
禁	-11.9074
诸多	-11.9075
宇宙	-11.9075
hm	-11.9077
欲	-11.9077
大大	-11.9077
▁talks	-11.9078
Syntax	-11.9078
▁gray	-11.9079
▁replacing	-11.908
▁pink	-11.9081
extensions	-11.9081
scala	-11.9081
▁blocked	-11.9081
▁eaten	-11.9082
dic	-11.9082
▁panic	-11.9083
防治	-11.9086
Ta	-11.9087
지	-11.909
**	-11.909
▁prescription	-11.909
▁slide	-11.9091
▁arrangement	-11.9091
住房	-11.9091
▁residence	-11.9092
我们要	-11.9092
rw	-11.9093
记者	-11.9094
leq	-11.9095
与其他	-11.9096
tables	-11.9097
adapter	-11.9097
城镇	-11.9098
司	-11.9098
▁viable	-11.91
▁bucket	-11.91
anim	-11.91
▁fiction	-11.9102
▁bike	-11.9105
始	-11.9106
▁staying	-11.9106
▁Provide	-11.9107
▁reproduction	-11.9107
▁sustained	-11.9109
▁cameras	-11.9109
▁Jun	-11.9109
▁broadcast	-11.911
▁Recent	-11.9113
超越	-11.9114
uck	-11.9115
iii	-11.9115
▁apt	-11.9116
▁offices	-11.9116
▁Netherlands	-11.9117
多数	-11.9117
}}\	-11.9118
▁determines	-11.9119
except	-11.9119
Holder	-11.9119
▁Grade	-11.9121
▁probe	-11.9121
▁на	-11.9121
一体	-11.9121
人群	-11.9122
▁sheets	-11.9123
EV	-11.9124
▁bowl	-11.9125
validator	-11.9127
▁golden	-11.9127
▁deck	-11.9128
折	-11.913
▁shopping	-11.913
信息的	-11.9131
▁agreements	-11.9131
working	-11.9133
▁packaging	-11.9135
池	-11.9138
疫苗	-11.9139
future	-11.9139
演	-11.9141
▁Story	-11.9144
▁identifier	-11.9144
▁packages	-11.9146
▁"")	-11.9146
states	-11.9147
Verify	-11.9148
更大	-11.9148
▁organisation	-11.9149
▁Dam	-11.915
▁lakes	-11.915
▁invited	-11.9153
▁Tuesday	-11.9155
▁Chemical	-11.9156
Shader	-11.9156
NL	-11.9156
▁constitutional	-11.9157
▁XML	-11.9157
▁Edition	-11.9157
hs	-11.916
▁submit	-11.916
ert	-11.9161
▁excluded	-11.9161
bug	-11.9162
活动的	-11.9163
Pad	-11.9164
published	-11.9164
▁arbitrary	-11.9165
▁THIS	-11.9166
Os	-11.9167
▁chat	-11.9167
▁concentrated	-11.9169
▁dependence	-11.9169
▁Bre	-11.9169
XX	-11.9171
`)	-11.9172
▁Choose	-11.9172
chu	-11.9174
▁consuming	-11.9174
▁affordable	-11.9175
Compute	-11.9176
▁FDA	-11.9177
NH	-11.9178
▁Democratic	-11.9178
may	-11.9181
ī	-11.9182
▁advertising	-11.9183
Navigation	-11.9188
▁gauge	-11.9188
祖	-11.9189
mph	-11.9191
Mac	-11.9192
NV	-11.9193
▁resilience	-11.9193
伯	-11.9194
Well	-11.9196
listener	-11.9198
▁overlap	-11.92
sap	-11.9201
▁Process	-11.9202
▁Edit	-11.9202
＂,	-11.9202
▁telephone	-11.9203
▁preference	-11.9204
▁pesticides	-11.9206
在此	-11.9212
▁fulfill	-11.9213
批判	-11.9214
有一个	-11.9214
▁hazards	-11.9214
逆	-11.9215
▁voting	-11.9216
▁distinguished	-11.9216
拒绝	-11.9216
▁exclusively	-11.9217
▁racism	-11.9217
interest	-11.9217
▁Captain	-11.9218
地域	-11.9218
associated	-11.9219
▁thorough	-11.9219
▁Daily	-11.9219
解读	-11.922
▁databases	-11.9221
癌	-11.9221
路线	-11.9222
大力	-11.9223
关系的	-11.9224
▁restriction	-11.9224
孙	-11.9224
aut	-11.9224
ching	-11.9229
cons	-11.9232
▁attracted	-11.9234
方针	-11.9235
▁deleted	-11.9235
▁pit	-11.9236
duction	-11.9237
▁retrieve	-11.9237
净	-11.9237
rod	-11.9237
跟	-11.924
▁firms	-11.9242
使学生	-11.9242
被告	-11.9242
aff	-11.9244
RL	-11.9244
▁logs	-11.9248
丁	-11.925
Pi	-11.925
架	-11.925
▁fee	-11.925
车辆	-11.925
External	-11.9251
大于	-11.9251
边缘	-11.9252
财富	-11.9252
▁investors	-11.9253
▁Neuro	-11.9253
ка	-11.9255
流量	-11.9256
HE	-11.9256
▁disagree	-11.9256
graphic	-11.9256
▁automated	-11.9258
应用于	-11.9258
▁Dun	-11.9261
gem	-11.9261
ت	-11.9263
cookie	-11.9263
mx	-11.9265
tenant	-11.9266
cum	-11.9266
Nullable	-11.9267
station	-11.9268
▁Cho	-11.9268
nth	-11.9268
▁castle	-11.9269
平面	-11.9269
▁variability	-11.927
tics	-11.9272
▁Large	-11.9272
κ	-11.9273
▁potassium	-11.9274
▁cyber	-11.9274
▁momentum	-11.9274
承诺	-11.9275
▁Available	-11.9275
Fetch	-11.9277
normalize	-11.9277
[...]
