<unk>	0
<s>	0
</s>	0
<SEP>	0
<CLS>	0
\n	0
\t	0
<img>	0
<img/>	0
</img>	0
<h2>	0
<h2/>	0
</h2>	0
<td>	0
<td/>	0
</td>	0
<strong>	0
<strong/>	0
</strong>	0
<table>	0
<table/>	0
</table>	0
<tr>	0
<tr/>	0
</tr>	0
<li>"	0
<li/>	0
</li>	0
<b>	0
<b/>	0
</b>	0
<h3>	0
<h3/>	0
</h3>	0
<br>	0
<br/>	0
</br>	0
<h4>	0
<h4/>	0
</h4>	0
<h5>	0
<h5/>	0
</h5>	0
<p>	0
<p/>	0
</p>	0
<h1>	0
<h1/>	0
</h1>	0
<tbody>	0
<tbody/>	0
</tbody>	0
0	0
1	0
2	0
3	0
4	0
5	0
6	0
7	0
8	0
9	0
０	0
１	0
２	0
３	0
４	0
５	0
６	0
７	0
８	0
９	0
+	0
-	0
=	0
，	0
。	0
！	0
？	0
、	0
：	0
￥	0
.	0
!	0
?	0
...	0
。。。	0
。。。。。。	0
《	0
》	0
【	0
】	0
『	0
』	0
```	0
<!--	0
-->	0
---	0
<!DOCTYPE>	0
；	0
．	0
＝	0
＜	0
＞	0
－	0
＋	0
％	0
‼	0
㊣	0
／	0
｜	0
[商品]	0
[图]	0
[视频]	0
[链接]	0
~	0
\uff5e	0
<|endoftext|>	0
<|im_start|>	0
<|im_end|>	0
<|object_ref_start|>	0
<|object_ref_end|>	0
<|box_start|>	0
<|box_end|>	0
<|quad_start|>	0
<|quad_end|>	0
<|vision_start|>	0
<|vision_end|>	0
<|vision_pad|>	0
<|image_pad|>	0
<|video_pad|>	0
<|fim_prefix|>	0
<|fim_middle|>	0
<|fim_suffix|>	0
<|fim_pad|>	0
<|repo_name|>	0
<|file_sep|>	0
<|tool_call|>	0
<|execute_start|>	0
<|execute_end|>	0
<tool_call>	0
</tool_call>	0
<tool_response>	0
</tool_response>	0
<tools>	0
</tools>	0
<think>	0
</think>	0
▁▁	0
▁▁▁▁	0
▁▁▁▁▁▁▁▁	0
▁▁▁▁▁▁▁▁▁▁▁▁▁▁▁▁	0
▁▁▁▁▁▁▁▁▁▁▁▁▁▁▁▁▁▁▁▁▁▁▁▁▁▁▁▁▁▁▁▁	0
▁▁▁▁▁▁▁▁▁▁▁▁▁▁▁▁▁▁▁▁▁▁▁▁▁▁▁▁▁▁▁▁▁▁▁▁▁▁▁▁▁▁▁▁▁▁▁▁▁▁▁▁▁▁▁▁▁▁▁▁▁▁▁▁	0
<reserved_0>	0
<reserved_1>	0
<reserved_2>	0
<reserved_3>	0
<reserved_4>	0
<reserved_5>	0
<reserved_6>	0
<reserved_7>	0
<reserved_8>	0
<reserved_9>	0
<reserved_10>	0
<reserved_11>	0
<reserved_12>	0
<reserved_13>	0
<reserved_14>	0
<reserved_15>	0
<reserved_16>	0
<reserved_17>	0
<reserved_18>	0
<reserved_19>	0
<0x00>	0
<0x01>	0
<0x02>	0
<0x03>	0
<0x04>	0
<0x05>	0
<0x06>	0
<0x07>	0
<0x08>	0
<0x09>	0
<0x0A>	0
<0x0B>	0
<0x0C>	0
<0x0D>	0
<0x0E>	0
<0x0F>	0
<0x10>	0
<0x11>	0
<0x12>	0
<0x13>	0
<0x14>	0
<0x15>	0
<0x16>	0
<0x17>	0
<0x18>	0
<0x19>	0
<0x1A>	0
<0x1B>	0
<0x1C>	0
<0x1D>	0
<0x1E>	0
<0x1F>	0
<0x20>	0
<0x21>	0
<0x22>	0
<0x23>	0
<0x24>	0
<0x25>	0
<0x26>	0
<0x27>	0
<0x28>	0
<0x29>	0
<0x2A>	0
<0x2B>	0
<0x2C>	0
<0x2D>	0
<0x2E>	0
<0x2F>	0
<0x30>	0
<0x31>	0
<0x32>	0
<0x33>	0
<0x34>	0
<0x35>	0
<0x36>	0
<0x37>	0
<0x38>	0
<0x39>	0
<0x3A>	0
<0x3B>	0
<0x3C>	0
<0x3D>	0
<0x3E>	0
<0x3F>	0
<0x40>	0
<0x41>	0
<0x42>	0
<0x43>	0
<0x44>	0
<0x45>	0
<0x46>	0
<0x47>	0
<0x48>	0
<0x49>	0
<0x4A>	0
<0x4B>	0
<0x4C>	0
<0x4D>	0
<0x4E>	0
<0x4F>	0
<0x50>	0
<0x51>	0
<0x52>	0
<0x53>	0
<0x54>	0
<0x55>	0
<0x56>	0
<0x57>	0
<0x58>	0
<0x59>	0
<0x5A>	0
<0x5B>	0
<0x5C>	0
<0x5D>	0
<0x5E>	0
<0x5F>	0
<0x60>	0
<0x61>	0
<0x62>	0
<0x63>	0
<0x64>	0
<0x65>	0
<0x66>	0
<0x67>	0
<0x68>	0
<0x69>	0
<0x6A>	0
<0x6B>	0
<0x6C>	0
<0x6D>	0
<0x6E>	0
<0x6F>	0
<0x70>	0
<0x71>	0
<0x72>	0
<0x73>	0
<0x74>	0
<0x75>	0
<0x76>	0
<0x77>	0
<0x78>	0
<0x79>	0
<0x7A>	0
<0x7B>	0
<0x7C>	0
<0x7D>	0
<0x7E>	0
<0x7F>	0
<0x80>	0
<0x81>	0
<0x82>	0
<0x83>	0
<0x84>	0
<0x85>	0
<0x86>	0
<0x87>	0
<0x88>	0
<0x89>	0
<0x8A>	0
<0x8B>	0
<0x8C>	0
<0x8D>	0
<0x8E>	0
<0x8F>	0
<0x90>	0
<0x91>	0
<0x92>	0
<0x93>	0
<0x94>	0
<0x95>	0
<0x96>	0
<0x97>	0
<0x98>	0
<0x99>	0
<0x9A>	0
<0x9B>	0
<0x9C>	0
<0x9D>	0
<0x9E>	0
<0x9F>	0
<0xA0>	0
<0xA1>	0
<0xA2>	0
<0xA3>	0
<0xA4>	0
<0xA5>	0
<0xA6>	0
<0xA7>	0
<0xA8>	0
<0xA9>	0
<0xAA>	0
<0xAB>	0
<0xAC>	0
<0xAD>	0
<0xAE>	0
<0xAF>	0
<0xB0>	0
<0xB1>	0
<0xB2>	0
<0xB3>	0
<0xB4>	0
<0xB5>	0
<0xB6>	0
<0xB7>	0
<0xB8>	0
<0xB9>	0
<0xBA>	0
<0xBB>	0
<0xBC>	0
<0xBD>	0
<0xBE>	0
<0xBF>	0
<0xC0>	0
<0xC1>	0
<0xC2>	0
<0xC3>	0
<0xC4>	0
<0xC5>	0
<0xC6>	0
<0xC7>	0
<0xC8>	0
<0xC9>	0
<0xCA>	0
<0xCB>	0
<0xCC>	0
<0xCD>	0
<0xCE>	0
<0xCF>	0
<0xD0>	0
<0xD1>	0
<0xD2>	0
<0xD3>	0
<0xD4>	0
<0xD5>	0
<0xD6>	0
<0xD7>	0
<0xD8>	0
<0xD9>	0
<0xDA>	0
<0xDB>	0
<0xDC>	0
<0xDD>	0
<0xDE>	0
<0xDF>	0
<0xE0>	0
<0xE1>	0
<0xE2>	0
<0xE3>	0
<0xE4>	0
<0xE5>	0
<0xE6>	0
<0xE7>	0
<0xE8>	0
<0xE9>	0
<0xEA>	0
<0xEB>	0
<0xEC>	0
<0xED>	0
<0xEE>	0
<0xEF>	0
<0xF0>	0
<0xF1>	0
<0xF2>	0
<0xF3>	0
<0xF4>	0
<0xF5>	0
<0xF6>	0
<0xF7>	0
<0xF8>	0
<0xF9>	0
<0xFA>	0
<0xFB>	0
<0xFC>	0
<0xFD>	0
<0xFE>	0
<0xFF>	0
▁	-1.36158
,	-3.67275
▁the	-4.16773
s	-4.68114
▁of	-4.68336
_	-4.72249
▁and	-4.79026
▁to	-4.86851
"	-4.99445
/	-5.0252
(	-5.12684
:	-5.13282
)	-5.1377
▁a	-5.17331
▁in	-5.17342
▁is	-5.53128
'	-5.58013
;	-5.76652
▁that	-5.84002
▁for	-5.86909
▁(	-5.95876
a	-5.99065
>	-6.00168
的	-6.13645
▁with	-6.19079
▁The	-6.24774
▁are	-6.27368
▁as	-6.31223
▁on	-6.33615
▁be	-6.33785
t	-6.33801
i	-6.35019
▁it	-6.35447
▁{	-6.37929
e	-6.37948
x	-6.44502
d	-6.50323
▁or	-6.5234
’	-6.54908
▁from	-6.56523
▁by	-6.57074
com	-6.59226
▁you	-6.60072
\	-6.61344
▁this	-6.62005
://	-6.64017
▁was	-6.64162
▁I	-6.65222
}	-6.67052
*	-6.70992
▁can	-6.72705
▁have	-6.77114
▁not	-6.79098
https	-6.80269
A	-6.8225
▁an	-6.85162
ing	-6.88318
▁at	-6.88338
▁}	-6.89931
);	-6.9211
[	-6.92428
和	-6.93725
m	-6.97948
	-6.9883
{	-6.99686
id	-7.02172
p	-7.05498
ed	-7.05545
▁<	-7.05549
c	-7.05679
▁if	-7.06594
”	-7.07205
]	-7.08926
&	-7.09193
S	-7.10587
▁#	-7.12687
▁de	-7.13496
n	-7.13572
在	-7.13977
▁which	-7.17662
▁their	-7.17745
f	-7.18899
O	-7.19027
▁your	-7.19933
b	-7.20857
▁they	-7.21024
item	-7.21234
▁will	-7.2174
y	-7.22806
▁we	-7.23586
()	-7.25294
▁but	-7.26476
<	-7.27793
▁more	-7.28878
▁has	-7.29422
P	-7.29952
%	-7.31728
哦	-7.32183
▁In	-7.33013
en	-7.3746
▁were	-7.37797
r	-7.37886
▁$	-7.38163
▁all	-7.38685
D	-7.39707
re	-7.43809
▁one	-7.44066
/:	-7.44919
o	-7.44997
er	-7.45
年	-7.47633
in	-7.48755
▁also	-7.48858
▁This	-7.53001
),	-7.54843
C	-7.55263
▁A	-7.56075
是	-7.56389
▁about	-7.58347
“	-7.58365
▁other	-7.58761
L	-7.59354
v	-7.59741
▁new	-7.59999
get	-7.61699
h	-7.61849
",	-7.61957
▁It	-7.63515
▁do	-7.63822
F	-7.6529
）	-7.65445
▁his	-7.65622
img	-7.65662
（	-7.6611
$	-7.66982
▁when	-7.67314
▁he	-7.68288
u	-7.68554
▁//	-7.69352
の	-7.69487
taobao	-7.69914
l	-7.70732
▁so	-7.71592
|	-7.71676
▁“	-7.717
to	-7.71985
与	-7.71992
亲	-7.7244
al	-7.7359
▁time	-7.73621
::	-7.73875
ly	-7.74278
▁class	-7.7431
g	-7.75319
▁been	-7.75489
▁use	-7.76089
▁than	-7.76264
▁may	-7.76436
CN	-7.76488
k	-7.77509
("	-7.77551
▁into	-7.78107
htm	-7.79416
B	-7.80063
▁@	-7.80155
if	-7.807
alicdn	-7.8071
▁who	-7.80887
imgextra	-7.80959
',	-7.81309
▁out	-7.81956
▁them	-7.8302
▁there	-7.83625
es	-7.84274
▁had	-7.84354
▁import	-7.84485
▁return	-7.845
▁[	-7.84727
▁would	-7.85265
▁|	-7.85517
中	-7.85671
name	-7.85948
▁some	-7.86385
▁these	-7.86707
T	-7.87752
▁people	-7.87917
I	-7.88765
▁its	-7.89057
▁up	-7.91066
 	-7.92261
对	-7.93132
`	-7.93176
▁only	-7.94299
('	-7.94425
▁like	-7.9469
▁what	-7.9649
is	-7.96539
return	-7.97113
▁used	-7.97357
▁*	-7.9738
▁our	-7.97907
▁public	-7.98657
为	-7.99099
亲亲	-7.99536
</	-8.00206
this	-8.00933
E	-8.01119
▁no	-8.01285
▁how	-8.0212
了	-8.02185
▁such	-8.02209
等	-8.02979
j	-8.04371
z	-8.05039
▁most	-8.05063
▁first	-8.05566
mpmedia	-8.05833
or	-8.07124
on	-8.07178
▁two	-8.08276
();	-8.08519
data	-8.09335
▁any	-8.10412
▁over	-8.11645
">	-8.12538
▁should	-8.13557
▁my	-8.15393
▁then	-8.15835
X	-8.17367
▁many	-8.17688
▁get	-8.19174
ve	-8.20366
▁using	-8.20728
▁If	-8.20801
▁just	-8.21289
div	-8.21321
▁make	-8.21479
set	-8.21529
type	-8.22077
▁data	-8.22114
▁between	-8.22498
R	-8.24615
th	-8.25282
V	-8.25294
▁could	-8.25552
#	-8.25902
有	-8.26308
▁well	-8.27311
▁where	-8.27611
//	-8.27645
▁work	-8.27656
▁because	-8.27915
""	-8.28617
px	-8.29363
▁ال	-8.29488
▁through	-8.29565
H	-8.2994
M	-8.30443
▁function	-8.30922
trade	-8.31812
▁We	-8.31904
不	-8.32037
以	-8.33292
▁في	-8.33304
int	-8.34505
▁her	-8.34674
w	-8.3469
人	-8.35091
png	-8.35985
▁years	-8.36132
▁need	-8.3655
Y	-8.3704
▁self	-8.37272
▁after	-8.37426
de	-8.37438
を	-8.38805
an	-8.39105
呢	-8.39807
N	-8.40235
▁way	-8.40574
issue	-8.40943
Type	-8.41685
▁very	-8.42006
上	-8.42171
us	-8.4242
▁even	-8.42815
▁different	-8.42845
G	-8.43133
▁help	-8.43279
▁each	-8.43883
性	-8.44071
▁end	-8.44101
jpg	-8.44329
▁For	-8.45
http	-8.46316
▁water	-8.46383
detail	-8.46385
||	-8.46626
▁same	-8.47908
▁being	-8.47916
▁–	-8.48912
،	-8.49882
The	-8.49926
the	-8.49997
▁system	-8.50193
):	-8.50314
▁number	-8.50327
は	-8.50405
▁those	-8.51421
下单	-8.51535
end	-8.51726
▁much	-8.52466
▁He	-8.52538
able	-8.52923
大	-8.52982
・	-8.53381
self	-8.53395
に	-8.53423
ml	-8.53916
org	-8.54253
–	-8.54309
—	-8.54368
▁said	-8.54519
▁la	-8.54963
String	-8.55312
▁me	-8.55564
":	-8.56906
size	-8.56987
月	-8.57387
Name	-8.57435
▁found	-8.5773
*/	-8.58268
从	-8.58468
▁while	-8.58947
▁both	-8.59007
▁high	-8.59452
▁information	-8.5979
')	-8.59859
string	-8.60143
path	-8.60186
▁un	-8.60308
▁You	-8.60586
K	-8.60672
and	-8.60718
一	-8.61412
到	-8.61477
▁As	-8.61568
▁under	-8.61789
而	-8.61796
at	-8.6227
或	-8.62331
Data	-8.62428
▁see	-8.6278
['	-8.62796
▁during	-8.62815
▁const	-8.62928
")	-8.63021
▁name	-8.6332
▁value	-8.63431
▁long	-8.6363
▁know	-8.63972
))	-8.64246
▁before	-8.64338
▁They	-8.64715
が	-8.65281
▁life	-8.65667
可以	-8.65799
W	-8.65979
吗	-8.66063
▁set	-8.66067
의	-8.66089
▁good	-8.66089
▁now	-8.66384
将	-8.66469
Z	-8.66685
▁world	-8.66856
▁made	-8.67265
▁part	-8.68084
▁study	-8.68112
▁et	-8.68305
code	-8.68461
as	-8.68944
▁But	-8.68951
q	-8.69547
key	-8.69794
▁в	-8.69894
▁REDIRECT	-8.70339
▁children	-8.7071
▁she	-8.70794
os	-8.70798
▁important	-8.71086
破壁机	-8.71486
no	-8.71619
时	-8.71658
value	-8.71693
▁`	-8.72098
**	-8.721
List	-8.72121
message	-8.72389
Id	-8.72961
▁There	-8.73117
▁health	-8.73147
▁void	-8.7341
▁don	-8.73431
▁else	-8.73863
span	-8.73909
▁take	-8.74107
($	-8.7411
video	-8.74728
▁type	-8.74763
进行	-8.74868
功能	-8.75311
test	-8.75506
](	-8.75789
list	-8.75936
username	-8.76068
ة	-8.76442
;	-8.76855
man	-8.77085
后	-8.77221
el	-8.77316
▁does	-8.7751
text	-8.77679
▁must	-8.77963
it	-8.78231
new	-8.78506
▁What	-8.78655
其	-8.78854
▁him	-8.79201
mp	-8.79327
li	-8.79372
下	-8.79621
▁back	-8.79658
▁students	-8.79665
te	-8.79911
add	-8.80355
也	-8.8049
▁case	-8.80849
이	-8.81255
");	-8.82291
user	-8.82315
▁still	-8.82317
需要	-8.82426
▁true	-8.82454
这款	-8.82946
▁C	-8.83035
日	-8.8304
▁year	-8.83118
index	-8.83603
地	-8.83694
▁example	-8.8385
服务	-8.83938
▁To	-8.84111
▁around	-8.84212
^	-8.84589
▁def	-8.84989
ers	-8.85338
log	-8.8544
▁often	-8.85479
▁three	-8.85726
发展	-8.85748
file	-8.85784
▁When	-8.85903
le	-8.85914
comment	-8.85994
amp	-8.86498
▁day	-8.86596
▁want	-8.86959
▁These	-8.87276
▁own	-8.87284
▁without	-8.87377
__	-8.8743
▁find	-8.87727
的哦	-8.87803
em	-8.87979
中国	-8.88041
▁process	-8.88445
To	-8.88463
},	-8.8848
好	-8.88579
],	-8.89446
for	-8.89493
param	-8.89544
▁And	-8.89678
da	-8.89837
ll	-8.90133
out	-8.903
▁think	-8.9055
▁change	-8.90587
▁So	-8.9074
var	-8.90857
新	-8.91409
▁body	-8.91731
▁test	-8.91754
通过	-8.9179
▁research	-8.92031
▁di	-8.92175
class	-8.9242
ID	-8.9264
time	-8.92837
▁right	-8.92872
io	-8.92969
а	-8.93089
▁down	-8.93201
要	-8.93403
@	-8.93956
J	-8.94261
un	-8.94397
▁per	-8.94413
▁might	-8.94438
U	-8.94546
ation	-8.94867
▁result	-8.95178
na	-8.9518
▁here	-8.9554
并	-8.95676
In	-8.96302
▁int	-8.96434
▁did	-8.96642
▁However	-8.97231
▁state	-8.97232
​​	-8.97329
▁der	-8.97664
ي	-8.97773
ist	-8.98266
▁T	-8.98416
▁every	-8.98699
▁following	-8.98743
之	-8.98756
▁B	-8.98825
收货时	-8.99209
▁including	-8.99261
▁من	-8.99564
爆款	-8.99576
▁static	-8.99798
您的快递	-8.99963
min	-8.99973
已经派	-8.99977
件了	-9.00331
ic	-9.00511
请检查	-9.00656
是否完整	-9.0068
确认无误后	-9.00714
再签收	-9.00718
当场验货	-9.00724
快递的外包装	-9.00725
具有	-9.00938
▁private	-9.00984
▁null	-9.01188
html	-9.0123
▁within	-9.0124
▁called	-9.01307
▁New	-9.01874
容量	-9.02056
全国联保	-9.02269
▁small	-9.0241
使用	-9.02671
▁better	-9.02732
line	-9.02977
▁human	-9.03018
up	-9.03336
▁best	-9.03437
法	-9.03642
Get	-9.04176
str	-9.04193
▁another	-9.04374
▁place	-9.04413
Set	-9.04891
é	-9.04895
ا	-9.04949
st	-9.05601
▁power	-9.05847
可	-9.05917
color	-9.05926
及	-9.0593
▁M	-9.05955
ne	-9.05957
include	-9.06195
▁food	-9.06268
▁des	-9.06659
客服	-9.0667
▁few	-9.07013
▁non	-9.07096
▁var	-9.07952
▁point	-9.08027
▁known	-9.08354
▁large	-9.08365
Test	-9.08565
ar	-9.08666
▁U	-9.08915
企业	-9.08951
▁too	-9.09009
▁us	-9.0901
Q	-9.09325
msg	-9.09577
▁go	-9.099
label	-9.09927
▁given	-9.09943
用	-9.09971
File	-9.10106
で	-9.10203
▁energy	-9.10238
技术	-9.10295
所	-9.10516
url	-9.11145
▁De	-9.1128
▁false	-9.11494
▁since	-9.11607
github	-9.11691
um	-9.11802
▁/**	-9.12034
▁file	-9.12099
▁great	-9.12189
▁possible	-9.12261
play	-9.12261
www	-9.12307
▁things	-9.12351
▁support	-9.12656
您	-9.12673
会	-9.13045
化	-9.13272
者	-9.13288
工作	-9.13442
▁‘	-9.13748
国家	-9.13817
에	-9.1426
问题	-9.14371
link	-9.14386
▁development	-9.14514
▁last	-9.14669
▁school	-9.14847
년	-9.14912
▁form	-9.14961
▁An	-9.1516
と	-9.15192
▁order	-9.15285
Object	-9.1533
预约	-9.15503
▁</	-9.15587
▁results	-9.15622
NAME	-9.15622
多	-9.15818
me	-9.15983
ity	-9.16104
go	-9.16147
Value	-9.16219
left	-9.16243
来	-9.16418
▁provide	-9.16423
config	-9.16453
▁disease	-9.16491
研究	-9.16506
co	-9.16508
Error	-9.16671
▁against	-9.16802
▁problem	-9.16831
ch	-9.17091
▁control	-9.17281
▁person	-9.17313
of	-9.1735
评价	-9.17593
len	-9.17864
app	-9.18054
▁child	-9.18094
▁common	-9.1813
shop	-9.18146
于	-9.18243
▁group	-9.18365
public	-9.18396
form	-9.18628
到货后	-9.18699
出	-9.19072
start	-9.19307
▁cells	-9.19419
▁something	-9.19674
ma	-9.19914
被	-9.20013
如	-9.20014
db	-9.20235
right	-9.20242
begin	-9.20252
▁area	-9.20263
▁create	-9.20294
▁really	-9.20333
et	-9.20448
教育	-9.20452
cloud	-9.20523
▁means	-9.20722
▁model	-9.20821
▁University	-9.20932
高	-9.2118
▁risk	-9.21335
by	-9.21355
be	-9.21415
冷饮	-9.21417
热饮	-9.2143
▁E	-9.2154
▁level	-9.21604
json	-9.2163
社会	-9.2169
▁less	-9.22232
и	-9.22243
max	-9.22266
但	-9.22278
을	-9.22387
▁How	-9.22415
就	-9.22553
input	-9.22626
一个	-9.22658
table	-9.22872
▁women	-9.22962
▁social	-9.23095
系统	-9.23232
果蔬汁	-9.23324
▁come	-9.2353
▁und	-9.23568
起	-9.23811
▁J	-9.23929
▁become	-9.2397
▁/*	-9.24035
net	-9.24136
▁say	-9.2438
ion	-9.24493
▁method	-9.24506
三	-9.24832
▁patients	-9.25202
▁off	-9.25239
▁final	-9.2537
▁available	-9.25434
▁&&	-9.25498
▁early	-9.25717
▁current	-9.25845
Service	-9.26087
map	-9.26408
▁local	-9.26495
▁range	-9.26499
▁look	-9.26781
true	-9.2688
▁several	-9.26931
▁{	-9.27678
▁G	-9.27824
가	-9.27868
天	-9.27883
']	-9.2808
由	-9.28081
do	-9.28113
▁cause	-9.28184
error	-9.285
▁treatment	-9.28605
');	-9.28707
all	-9.28731
ul	-9.28793
▁///	-9.28827
▁line	-9.28845
▁American	-9.28922
▁du	-9.28984
▁blood	-9.29008
▁due	-9.29327
▁learning	-9.29355
元	-9.29486
▁always	-9.29553
子	-9.29693
▁home	-9.29709
好物推荐	-9.29774
ية	-9.29918
▁little	-9.29988
用户反馈	-9.30207
));	-9.30407
Exception	-9.30428
▁string	-9.30513
▁second	-9.30548
info	-9.30738
api	-9.30756
col	-9.30805
ten	-9.31177
抢购	-9.31201
数据	-9.3125
▁going	-9.31401
▁R	-9.31408
▁family	-9.31643
><	-9.31788
js	-9.32081
销款	-9.32326
这款是咱们	-9.32332
▁based	-9.32472
整体不错	-9.32533
管理	-9.32677
,”	-9.32816
家热	-9.3283
向	-9.32981
▁low	-9.33141
est	-9.33148
box	-9.33152
▁van	-9.33155
▁history	-9.33349
width	-9.33405
▁One	-9.33427
实现	-9.3373
▁times	-9.33806
▁next	-9.3383
免过滤	-9.33926
ness	-9.34056
state	-9.34142
top	-9.3428
е	-9.34728
row	-9.34916
▁care	-9.35039
以及	-9.35065
▁above	-9.35184
▁err	-9.35305
define	-9.35433
水	-9.35438
▁K	-9.35523
▁language	-9.35595
学	-9.35812
本	-9.36039
建设	-9.36046
▁start	-9.36171
「	-9.36238
▁show	-9.36241
val	-9.36274
作为	-9.36293
▁until	-9.36321
content	-9.36358
我们	-9.36373
小	-9.36576
一机多用	-9.36614
▁nil	-9.36634
▁government	-9.36717
▁levels	-9.37066
State	-9.37117
▁specific	-9.37255
都	-9.37256
▁**	-9.37455
▁try	-9.37627
▁include	-9.37701
model	-9.37728
Key	-9.3779
▁On	-9.37897
▁never	-9.37954
▁project	-9.37957
length	-9.37983
▁At	-9.38001
▁N	-9.38374
▁give	-9.38411
能	-9.38478
▁changes	-9.38479
▁why	-9.38521
▁others	-9.38727
ism	-9.38859
全	-9.39015
因此	-9.39083
)	-9.39184
Request	-9.39238
md	-9.39331
▁United	-9.39422
▁present	-9.39604
质保	-9.39847
奶昔	-9.39952
one	-9.39973
function	-9.39987
ke	-9.4001
▁keep	-9.40073
▁let	-9.40077
core	-9.40129
son	-9.40269
ca	-9.40436
＂	-9.40555
▁That	-9.4068
ce	-9.40736
create	-9.40773
ge	-9.4082
▁making	-9.40865
▁##	-9.40899
▁either	-9.4092
land	-9.4146
▁species	-9.41468
▁die	-9.41525
▁fact	-9.41538
ia	-9.4175
il	-9.41802
▁days	-9.41833
▁among	-9.41869
经济	-9.41947
View	-9.42004
▁done	-9.42151
se	-9.42331
▁problems	-9.42366
▁least	-9.42471
内	-9.42865
转速	-9.42868
dir	-9.42881
▁light	-9.43
ت	-9.43221
[]	-9.4334
";	-9.43421
];	-9.43448
▁already	-9.43467
▁Some	-9.4352
▁func	-9.4352
这个	-9.43687
}}	-9.43783
는	-9.43878
▁conditions	-9.43987
ات	-9.44003
▁sure	-9.44015
▁higher	-9.44036
▁left	-9.44073
▁says	-9.44091
▁areas	-9.44105
())	-9.44112
lib	-9.44339
▁source	-9.44437
py	-9.44624
第	-9.44636
▁country	-9.44957
▁later	-9.44967
▁All	-9.45024
▁increase	-9.4508
▁error	-9.45353
Text	-9.45431
▁men	-9.45481
▁single	-9.45511
node	-9.4552
res	-9.45579
은	-9.45612
err	-9.45638
喜欢带走哈	-9.45706
Info	-9.45807
▁No	-9.4599
▁le	-9.46027
image	-9.46181
▁natural	-9.4621
group	-9.46317
▁experience	-9.46482
我国	-9.46499
▁run	-9.46558
▁open	-9.46636
清洗	-9.46659
age	-9.46667
▁having	-9.46716
title	-9.46799
点	-9.46877
▁working	-9.47175
没有	-9.4719
使	-9.47389
▁God	-9.47395
▁likely	-9.4743
信息	-9.47472
sh	-9.47598
▁required	-9.47602
电器类	-9.47609
我	-9.4762
▁free	-9.47774
▁role	-9.47843
▁systems	-9.47916
▁enough	-9.47923
▁program	-9.48101
提供	-9.48145
操作完成	-9.48154
」	-9.482
收到商品	-9.48227
共两年	-9.48231
▁lot	-9.48241
天内及时	-9.48247
再得一	-9.48249
绑定激活生效可	-9.48249
年延保	-9.48253
▁field	-9.48282
Map	-9.48299
▁href	-9.48385
ad	-9.4841
▁needs	-9.48478
▁understand	-9.48504
▁main	-9.48583
▁various	-9.48619
▁access	-9.48662
based	-9.48742
request	-9.48881
num	-9.48986
▁require	-9.49068
о	-9.49131
家	-9.49258
▁key	-9.49317
文化	-9.4932
Node	-9.49343
ment	-9.49411
const	-9.49581
▁future	-9.49762
▁response	-9.49907
玉米汁	-9.50051
la	-9.50094
Time	-9.50134
/:^	-9.50165
给	-9.50179
);	-9.50316
▁text	-9.50318
▁full	-9.50319
로	-9.50561
▁Re	-9.50581
▁whether	-9.50742
▁course	-9.50792
])	-9.50902
User	-9.5094
ter	-9.51017
':	-9.51103
▁States	-9.51175
less	-9.51248
操作视频	-9.51301
电饭煲	-9.51307
▁National	-9.51381
▁four	-9.51551
▁و	-9.51577
▁feel	-9.51628
у	-9.51831
ه	-9.5201
▁far	-9.52166
▁*/	-9.52209
二	-9.52226
▁est	-9.52322
▁war	-9.52555
▁together	-9.52597
ref	-9.52682
▁air	-9.52937
▁side	-9.52961
▁read	-9.53087
▁learn	-9.53121
▁studies	-9.53184
▁space	-9.53207
am	-9.53258
能力	-9.53368
分	-9.53445
gt	-9.53477
▁general	-9.53559
array	-9.53648
把	-9.53677
▁similar	-9.53874
具体操作流程	-9.53911
▁real	-9.53913
联系我们获取	-9.53931
▁list	-9.53938
▁effect	-9.53948
制度	-9.53982
九阳	-9.54106
Path	-9.54195
my	-9.5421
null	-9.54219
▁population	-9.54233
▁System	-9.54385
这	-9.5448
搅拌	-9.5449
tr	-9.54562
▁along	-9.54569
());	-9.54619
▁H	-9.54707
▁By	-9.54806
▁away	-9.54901
▁across	-9.54925
ler	-9.54994
▁book	-9.55062
▁environment	-9.55089
浓汤	-9.55176
ton	-9.55194
im	-9.55199
▁effects	-9.55259
该	-9.55379
field	-9.55478
▁à	-9.55612
ant	-9.55656
▁community	-9.55863
result	-9.55973
Context	-9.55977
▁again	-9.56065
▁usually	-9.56118
Krs	-9.56124
date	-9.56333
"\	-9.5635
▁cases	-9.56369
▁object	-9.56564
den	-9.5673
▁old	-9.56856
▁});	-9.569
要求	-9.56982
分析	-9.57019
▁question	-9.57053
这些	-9.57062
bin	-9.57179
▁further	-9.57182
▁analysis	-9.5729
Size	-9.57308
▁sub	-9.57372
或者	-9.57518
▁though	-9.57589
▁however	-9.57679
▁major	-9.57792
炖煮	-9.57828
绵粥	-9.57856
with	-9.57865
▁put	-9.57996
button	-9.57998
▁education	-9.57999
Model	-9.58046
bar	-9.58085
▁period	-9.58095
▁makes	-9.58257
▁potential	-9.58284
php	-9.58398
▁hand	-9.58509
}{	-9.58547
应	-9.58594
src	-9.5882
▁actually	-9.59044
▁certain	-9.59119
fa	-9.59123
▁significant	-9.59352
▁cancer	-9.59382
▁cell	-9.59461
ir	-9.59497
▁values	-9.59531
▁doesn	-9.59538
▁words	-9.59586
Index	-9.59761
▁technology	-9.59763
▁age	-9.59888
前	-9.5992
▁After	-9.5994
summary	-9.60055
base	-9.60068
▁post	-9.60247
政府	-9.60251
';	-9.60295
▁While	-9.60631
▁La	-9.60761
国	-9.60782
ie	-9.60815
无	-9.60906
▁###	-9.60955
方法	-9.61068
▁St	-9.61068
status	-9.61076
▁associated	-9.61104
di	-9.61192
Response	-9.61375
▁types	-9.614
转	-9.6141
Table	-9.61438
▁bar	-9.6145
▁total	-9.6156
▁lower	-9.61584
▁am	-9.61614
post	-9.61639
client	-9.61819
▁short	-9.61886
script	-9.61965
▁below	-9.61981
ive	-9.61992
Code	-9.61998
行	-9.62072
▁paper	-9.62101
▁amount	-9.62306
▁design	-9.62384
not	-9.62497
即	-9.62725
ian	-9.6276
▁brain	-9.62855
·	-9.62881
count	-9.62969
사	-9.62994
口感	-9.63205
▁seen	-9.63265
哈	-9.63269
▁heart	-9.63369
醇豆浆	-9.63404
杂粮糊	-9.63414
组织	-9.6344
▁today	-9.63443
▁individual	-9.63452
▁once	-9.63593
nbsp	-9.63729
▁especially	-9.63824
mm	-9.64068
▁Dr	-9.64071
men	-9.64114
▁English	-9.64157
rs	-9.64173
▁word	-9.64198
{\	-9.64366
▁String	-9.64416
ta	-9.64532
▁whole	-9.64696
更	-9.64714
지	-9.64815
▁percent	-9.64934
case	-9.64946
▁content	-9.64955
▁License	-9.64971
▁lead	-9.65067
align	-9.65119
自	-9.65184
▁Do	-9.65198
▁<<	-9.65205
▁م	-9.65454
bizOrderId	-9.65555
▁activity	-9.65559
▁plant	-9.65561
▁bir	-9.65569
▁查看订单	-9.65569
▁color	-9.65605
麻烦亲	-9.65605
from	-9.65623
则	-9.65673
▁thing	-9.65686
体	-9.65721
适合	-9.65891
した	-9.65966
包括	-9.66015
read	-9.66109
▁production	-9.6623
▁Be	-9.66268
到手价	-9.66296
满意的话	-9.66302
如果对本次	-9.66308
ha	-9.66347
▁pre	-9.6643
ms	-9.66433
▁—	-9.66578
し	-9.66656
▁She	-9.66669
▁countries	-9.66758
▁и	-9.66819
学生	-9.66901
Field	-9.67067
对于	-9.67084
Item	-9.67101
就是	-9.67347
▁law	-9.67349
中的	-9.67368
▁addition	-9.6748
▁groups	-9.67591
한	-9.67635
参数	-9.67657
▁rather	-9.67716
▁game	-9.6778
를	-9.67826
…	-9.67881
ro	-9.68381
个	-9.68422
▁}	-9.68427
use	-9.68464
提高	-9.68769
方式	-9.68828
(),	-9.68981
外	-9.69024
main	-9.69098
设计	-9.69122
▁team	-9.69128
body	-9.69151
der	-9.69506
page	-9.69524
▁million	-9.69581
▁cannot	-9.69777
说	-9.69791
pre	-9.69808
▁physical	-9.69852
ً	-9.6986
▁issues	-9.69897
▁growth	-9.69899
si	-9.69982
活动	-9.6999
\\	-9.69991
▁mean	-9.7007
▁knowledge	-9.70123
New	-9.70141
▁rate	-9.7017
▁simple	-9.70206
▁past	-9.70361
部	-9.70388
][	-9.70486
▁version	-9.70496
▁position	-9.7052
▁Le	-9.70569
Message	-9.7076
Class	-9.70793
学习	-9.708
香线香	-9.70808
收到	-9.70845
▁created	-9.7086
▁impact	-9.70884
open	-9.71004
▁call	-9.71112
▁quality	-9.71138
天无理由	-9.71279
["	-9.71303
▁•	-9.71327
format	-9.71329
고	-9.71348
不同	-9.71363
▁ways	-9.7137
"""	-9.7142
▁von	-9.71561
default	-9.71564
▁«	-9.71668
For	-9.7179
인	-9.71936
ur	-9.72203
version	-9.72225
如果	-9.72274
同	-9.72297
▁increased	-9.72349
java	-9.72361
init	-9.72424
图	-9.72605
▁approach	-9.72629
let	-9.72858
▁World	-9.72896
▁young	-9.7292
▁needed	-9.72958
▁surface	-9.72965
四	-9.73085
Is	-9.73332
gh	-9.73452
view	-9.73477
力	-9.73499
util	-9.73733
lo	-9.73791
区	-9.73902
This	-9.73922
文	-9.73937
ent	-9.73962
▁action	-9.73989
网络	-9.74029
op	-9.74104
ization	-9.74115
Config	-9.74294
filename	-9.74432
▁hard	-9.74435
根据	-9.74587
▁live	-9.7459
per	-9.74629
block	-9.74637
Add	-9.74677
▁considered	-9.74723
▁came	-9.7478
▁size	-9.74784
▁particular	-9.7479
▁man	-9.74816
▁echo	-9.74898
▁print	-9.75031
▁idea	-9.75052
▁image	-9.75059
市场	-9.75095
▁};	-9.75211
▁build	-9.75283
▁got	-9.75444
▁With	-9.75561
KrwP	-9.75597
▁thought	-9.75638
Client	-9.75798
它	-9.75827
Group	-9.75847
see	-9.75927
▁resources	-9.76048
安全	-9.76051
ty	-9.76108
▁death	-9.76192
▁symptoms	-9.76223
▁service	-9.76274
▁upon	-9.76383
▁site	-9.76416
形成	-9.76437
▁на	-9.76453
"></	-9.76533
▁plants	-9.76542
▁yet	-9.76543
object	-9.7666
▁factors	-9.76695
▁story	-9.76742
»	-9.76783
利用	-9.76783
▁package	-9.76874
ine	-9.76952
料理	-9.77044
Event	-9.77102
리	-9.77125
还	-9.77152
▁became	-9.77167
世界	-9.77195
It	-9.77204
▁user	-9.77295
▁background	-9.77343
主要	-9.7739
){	-9.77398
Array	-9.77402
▁report	-9.7747
event	-9.77489
order	-9.77491
pos	-9.77544
style	-9.77576
▁terms	-9.77626
▁pain	-9.77655
▁white	-9.77655
量	-9.77672
ber	-9.77712
▁evidence	-9.7781
TVs	-9.77812
▁shown	-9.77868
名	-9.7793
▁con	-9.77984
▁top	-9.77996
▁century	-9.78058
▁writing	-9.78076
▁taken	-9.7809
▁article	-9.78182
au	-9.78245
店铺	-9.78246
▁methods	-9.78274
内胆	-9.78289
port	-9.78326
▁money	-9.78388
ya	-9.7842
Image	-9.78449
с	-9.78599
▁building	-9.78635
▁doing	-9.78702
山	-9.78706
型	-9.78722
▁●	-9.78741
▁questions	-9.78786
ies	-9.78807
最后一个大	-9.78819
点亮以后也是可以继续为您服务的哦	-9.78824
笑脸的	-9.78825
点亮下	-9.78829
共	-9.78835
▁developed	-9.78885
▁works	-9.78888
OGi	-9.7889
▁style	-9.78893
term	-9.79011
▁months	-9.79015
No	-9.79071
We	-9.79081
▁check	-9.79085
Date	-9.79105
ance	-9.7913
▁Here	-9.79208
▁cost	-9.79215
▁reduce	-9.79221
ok	-9.79222
当	-9.79274
ac	-9.79315
▁understanding	-9.79337
材质	-9.79338
成为	-9.79444
▁material	-9.7974
结构	-9.79744
同时	-9.79752
▁provided	-9.79757
▁War	-9.79829
▁activities	-9.79964
环境	-9.80103
he	-9.80158
ary	-9.80208
▁een	-9.80228
▁context	-9.80232
시	-9.80324
append	-9.80359
▁My	-9.80391
▁structure	-9.80417
▁city	-9.80465
ス	-9.80508
保护	-9.80529
公司	-9.80614
这种	-9.80624
▁pressure	-9.8073
▁able	-9.80943
▁black	-9.8118
source	-9.8124
▁global	-9.81338
干磨	-9.81342
细腻研磨	-9.81353
dev	-9.81359
生	-9.81361
▁products	-9.8137
成	-9.81492
推动	-9.81542
void	-9.81585
▁clear	-9.81625
ry	-9.81652
创新	-9.81691
▁fun	-9.81734
▁medical	-9.81832
▁break	-9.8184
sub	-9.81854
低音	-9.81893
资源	-9.81933
tag	-9.81982
▁default	-9.82087
With	-9.82095
day	-9.82126
百亿补贴	-9.82204
▁reason	-9.82245
height	-9.82293
▁business	-9.82375
科学	-9.82401
기	-9.82412
OS	-9.82459
▁almost	-9.82466
▁expect	-9.82486
▁positive	-9.82518
▁develop	-9.82532
ra	-9.82571
ol	-9.8266
▁according	-9.82751
已经	-9.82779
▁skills	-9.82823
run	-9.82905
▁etc	-9.82908
▁с	-9.82943
高性价比	-9.82955
清爽	-9.83007
like	-9.8305
▁view	-9.83058
顺滑	-9.83062
日常价	-9.83075
免煮	-9.83076
活动来袭	-9.83076
▁John	-9.83083
时间	-9.83373
建立	-9.83383
▁answer	-9.83457
▁kind	-9.83821
▁necessary	-9.83912
▁养生	-9.83912
关系	-9.84021
ka	-9.84096
Energy	-9.84157
Count	-9.84216
▁effective	-9.84248
so	-9.84341
}	-9.84366
理论	-9.84374
▁comes	-9.84507
▁someone	-9.84511
▁software	-9.84545
search	-9.84612
Title	-9.84719
header	-9.84749
长	-9.84768
▁practice	-9.84771
▁shows	-9.84803
▁related	-9.84894
▁multiple	-9.84957
Base	-9.84976
▁five	-9.84984
▁loss	-9.85166
▁im	-9.85203
法律	-9.85301
▁instead	-9.85351
que	-9.85393
args	-9.85411
▁getting	-9.85427
▁itself	-9.8544
▁provides	-9.85548
ting	-9.85614
position	-9.85672
Result	-9.85695
买家购买	-9.85702
同一时间很多	-9.85706
不知道是什么原因您没有	-9.85707
项目	-9.85755
▁science	-9.858
▁condition	-9.85855
▁nature	-9.85861
不能	-9.85862
保	-9.85937
▁themselves	-9.85979
▁الم	-9.8599
gen	-9.85996
▁training	-9.86039
Of	-9.86055
正	-9.86202
df	-9.86292
▁original	-9.8655
cm	-9.86554
市	-9.86599
数	-9.86707
产品	-9.8671
▁sense	-9.8672
stars	-9.86738
▁normal	-9.86842
他	-9.87042
​​"	-9.87065
い	-9.87154
▁took	-9.87172
机制	-9.87326
▁page	-9.8749
▁rights	-9.87666
▁management	-9.87706
ы	-9.87794
支持	-9.87844
▁skin	-9.87895
▁love	-9.87904
▁probably	-9.88038
▁half	-9.88087
lt	-9.88136
ci	-9.88171
▁ever	-9.88278
я	-9.88284
应用	-9.88304
已	-9.88408
commit	-9.88425
▁near	-9.88448
ling	-9.88479
일	-9.88484
▁US	-9.88493
▁het	-9.88594
体系	-9.88649
▁improve	-9.88652
자	-9.88675
red	-9.88702
▁states	-9.88728
打	-9.88774
必须	-9.88815
▁climate	-9.8886
▁services	-9.88929
▁ب	-9.88978
System	-9.89025
物	-9.89058
处理	-9.89071
政治	-9.89168
▁America	-9.89248
/*	-9.89269
▁mind	-9.89382
ate	-9.8944
▁event	-9.89625
标准	-9.89629
update	-9.89762
▁output	-9.89827
sr	-9.8984
▁allow	-9.89847
着	-9.89994
year	-9.90062
▁region	-9.9014
mo	-9.90191
▁living	-9.90213
▁performance	-9.9023
lang	-9.9024
刀头	-9.90249
影响	-9.90313
ized	-9.90346
spm	-9.90382
实施	-9.90383
▁code	-9.9041
控制	-9.90468
Status	-9.90504
▁York	-9.90528
权	-9.90576
▁difficult	-9.90626
Element	-9.90688
▁close	-9.90739
▁move	-9.90742
ها	-9.90814
lar	-9.90823
params	-9.90825
能够	-9.9086
스	-9.90951
▁materials	-9.91004
最	-9.91138
에서	-9.9119
▁step	-9.91203
▁plan	-9.91246
ab	-9.91273
▁W	-9.91279
check	-9.91318
}\	-9.91351
▁hours	-9.91364
▁dans	-9.91387
query	-9.91427
▁array	-9.9149
Manager	-9.91507
生产	-9.91556
service	-9.91692
store	-9.91704
Color	-9.91723
▁longer	-9.91774
道	-9.91818
▁matter	-9.91826
▁company	-9.9198
context	-9.91998
▁add	-9.92037
人使用	-9.92076
▁перенаправление	-9.92138
度	-9.92168
看您还	-9.92175
▁taking	-9.92183
没有下单	-9.92205
▁numbers	-9.92231
相关	-9.92246
ts	-9.92248
▁parts	-9.9234
center	-9.92398
▁average	-9.92404
else	-9.92587
server	-9.92625
current	-9.92636
行为	-9.92704
▁head	-9.92723
ال	-9.92787
hd	-9.92847
도	-9.92927
▁healthy	-9.93023
▁members	-9.93031
相	-9.93114
ri	-9.93145
▁South	-9.93188
大容量	-9.93197
})	-9.93276
True	-9.93348
▁modern	-9.93453
▁individuals	-9.93482
ba	-9.93534
▁compared	-9.93619
方	-9.93652
_{	-9.93657
▁complex	-9.93668
期	-9.93704
历史	-9.93708
put	-9.93793
▁turn	-9.93867
obj	-9.93913
"]	-9.93917
FZ	-9.9393
level	-9.93981
▁standard	-9.93991
▁land	-9.94046
▁temperature	-9.9418
({	-9.94186
作用	-9.94216
м	-9.94227
▁prevent	-9.94236
From	-9.94278
▁published	-9.9428
▁$\	-9.94287
font	-9.94292
م	-9.94362
手	-9.9439
▁parents	-9.9444
▁easy	-9.94518
▁points	-9.94557
▁believe	-9.94561
▁product	-9.94619
可能	-9.94644
mi	-9.94782
▁по	-9.94803
位	-9.94824
ns	-9.94828
▁complete	-9.94846
重	-9.94863
する	-9.94899
▁didn	-9.94907
ti	-9.94913
可以买	-9.94942
false	-9.9498
back	-9.94983
▁network	-9.95111
请确认收货地址	-9.95193
▁added	-9.95194
产业	-9.95233
ally	-9.95251
▁border	-9.95323
又	-9.95329
response	-9.95334
▁political	-9.9534
number	-9.9535
政策	-9.95456
And	-9.9547
由于	-9.95498
▁Health	-9.95523
arg	-9.95622
光	-9.95633
Number	-9.95672
IP	-9.9568
target	-9.95691
build	-9.95699
float	-9.95786
▁animals	-9.95788
▁strong	-9.95789
▁online	-9.95882
▁تحويل	-9.96006
▁target	-9.96321
push	-9.96339
▁weight	-9.96381
▁par	-9.96383
다	-9.96451
Input	-9.96494
▁recent	-9.96506
></	-9.96625
▁student	-9.96655
▁included	-9.96657
大学	-9.96682
last	-9.96694
▁researchers	-9.96696
▁application	-9.96747
▁national	-9.96756
▁margin	-9.9679
基本	-9.96831
▁anti	-9.96851
▁reading	-9.96919
类	-9.96975
▁produce	-9.97004
On	-9.97035
▁play	-9.97043
▁started	-9.97051
好的	-9.9709
▁ensure	-9.97096
各	-9.971
提出	-9.97124
By	-9.97316
print	-9.9737
▁Many	-9.97458
心	-9.97486
▁computer	-9.9751
▁Most	-9.97538
▁Your	-9.97574
join	-9.97636
非	-9.97695
▁solution	-9.97716
▁del	-9.97791
内容	-9.98057
▁expected	-9.9807
write	-9.98085
促进	-9.98114
▁options	-9.98189
Source	-9.98192
认为	-9.98224
т	-9.98256
▁anything	-9.98274
▁В	-9.98314
cn	-9.98338
▁"""	-9.98364
▁looking	-9.98488
▁continue	-9.98543
▁events	-9.98589
▁week	-9.98667
▁His	-9.98704
has	-9.98723
加强	-9.98723
选择	-9.98727
byte	-9.98757
器	-9.98795
Page	-9.9881
ja	-9.98836
If	-9.98876
KruA	-9.99059
▁economic	-9.99141
点击	-9.99164
auth	-9.99349
▁على	-9.99514
output	-9.99537
▁special	-9.99538
▁North	-9.99667
发	-9.99676
▁written	-9.99687
 —	-9.99812
▁difference	-9.99864
▁super	-9.99864
▁gas	-9.99929
▁Although	-10.0004
на	-10.0011
▁Now	-10.0015
Server	-10.0021
▁simply	-10.0022
ver	-10.0025
面	-10.0035
▁height	-10.0041
▁big	-10.0043
合作	-10.0045
▁built	-10.0045
▁subject	-10.0061
▁input	-10.0072
▁seems	-10.0074
▁width	-10.0075
▁account	-10.0079
▁face	-10.0083
▁personal	-10.0091
pi	-10.0094
▁began	-10.01
sum	-10.0125
一些	-10.0133
aus	-10.0137
方面	-10.0147
▁std	-10.0147
ctx	-10.0156
load	-10.0159
${	-10.016
比	-10.017
你好亲亲	-10.0184
Int	-10.0188
▁consider	-10.0197
▁ability	-10.0204
AS	-10.0208
All	-10.0211
▁series	-10.0211
ko	-10.0214
▁Research	-10.0214
来试试呢	-10.0218
▁相信产品一定会让您满意的哦	-10.0218
▁outside	-10.0222
▁focus	-10.0227
▁greater	-10.0235
active	-10.0235
으로	-10.0243
section	-10.0243
​​​"	-10.0244
模式	-10.0245
教学	-10.0248
Re	-10.0248
制	-10.025
再	-10.0275
风险	-10.0276
式	-10.0278
▁damage	-10.0282
▁},	-10.029
▁market	-10.0291
▁display	-10.03
▁Then	-10.0302
▁instance	-10.0303
推进	-10.0312
DB	-10.0315
first	-10.0316
▁car	-10.0333
find	-10.0334
▁que	-10.0336
▁oil	-10.0336
к	-10.0346
ip	-10.0348
次	-10.035
br	-10.0353
这一	-10.0355
private	-10.0355
tar	-10.0361
▁soil	-10.0363
ui	-10.0366
▁bit	-10.0367
▁job	-10.0368
▁door	-10.037
美国	-10.0372
▁behavior	-10.0377
old	-10.038
ون	-10.038
▁export	-10.0384
▁tell	-10.0386
率	-10.0389
▁went	-10.0396
▁interest	-10.04
▁caused	-10.0404
▁reported	-10.0405
▁Can	-10.0418
ED	-10.0422
▁throughout	-10.0428
SBwl	-10.0429
YINPO	-10.0429
주	-10.0436
Update	-10.0437
日本	-10.0447
pt	-10.0466
▁patient	-10.0468
po	-10.0475
存在	-10.0481
ga	-10.0482
▁base	-10.0483
▁trying	-10.0484
明	-10.0486
改革	-10.0487
▁May	-10.0491
▁industry	-10.0491
ni	-10.0491
web	-10.0528
部分	-10.0536
▁rest	-10.0538
机器支持	-10.0539
您的订单已经	-10.0541
王	-10.0544
env	-10.0548
金	-10.055
其他	-10.0558
uint	-10.0561
▁ground	-10.0567
链接	-10.0571
▁force	-10.0577
و	-10.0589
▁وال	-10.0592
icon	-10.0592
▁Earth	-10.0601
细胞	-10.0608
▁involved	-10.0608
领域	-10.0612
btn	-10.0617
off	-10.0617
▁uses	-10.0618
质量问题	-10.0634
select	-10.0636
▁address	-10.0637
▁Energy	-10.0637
show	-10.0638
°	-10.064
va	-10.0649
▁term	-10.065
▁benefits	-10.0656
事	-10.0664
过程	-10.0668
▁designed	-10.068
fer	-10.0684
细腻	-10.0689
号	-10.0699
char	-10.0702
▁request	-10.0713
next	-10.0713
д	-10.0714
▁society	-10.0715
▁allows	-10.0716
led	-10.0718
目标	-10.0719
>	-10.0727
▁additional	-10.0727
▁quite	-10.0736
LJ	-10.0738
▁Also	-10.074
ка	-10.0741
▁sometimes	-10.0747
精神	-10.0747
meta	-10.0759
入	-10.0766
ating	-10.0772
▁Al	-10.0775
long	-10.0791
解决	-10.0792
▁avoid	-10.0796
▁determine	-10.0796
н	-10.0808
과	-10.0819
▁command	-10.083
教师	-10.0834
▁stress	-10.0838
URL	-10.084
规定	-10.0849
root	-10.0849
煎药壶	-10.0867
▁essential	-10.0871
▁write	-10.0876
▁Our	-10.0882
里	-10.0882
▁takes	-10.0886
struct	-10.0892
让	-10.0892
▁inside	-10.0909
Line	-10.0912
▁REDIRECTION	-10.0918
▁directly	-10.0921
media	-10.0922
▁Co	-10.0929
流	-10.0931
も	-10.0942
Create	-10.0942
▁negative	-10.0942
action	-10.0949
▁follow	-10.0953
Action	-10.0965
▁auto	-10.0967
帮您	-10.0969
▁sleep	-10.0974
不断	-10.0976
水平	-10.0978
感谢您对我们的支持	-10.0985
▁attention	-10.0992
▁includes	-10.0993
但是	-10.1002
▁java	-10.1004
▁British	-10.1007
▁house	-10.1007
▁features	-10.1013
▁expression	-10.1015
▁causes	-10.1019
城市	-10.102
工程	-10.1022
▁heat	-10.1025
得	-10.1028
й	-10.103
▁relationship	-10.1035
options	-10.1037
都是	-10.1051
▁culture	-10.1052
​​​	-10.1054
▁Is	-10.106
▁record	-10.1062
▁font	-10.1064
▁elements	-10.1064
如何	-10.1069
▁protein	-10.107
▁assert	-10.1083
cast	-10.1093
frac	-10.11
Start	-10.1101
田	-10.1105
执行	-10.1106
平台	-10.1112
▁India	-10.1112
受	-10.1116
基础	-10.1118
▁defined	-10.1118
▁basic	-10.1122
nd	-10.1122
低	-10.1123
Method	-10.1128
▁bad	-10.1128
PC	-10.1129
▁helps	-10.1131
▁environmental	-10.1131
▁music	-10.1137
▁lives	-10.1142
bottom	-10.1154
专业	-10.1165
▁Q	-10.1165
国际	-10.1169
保障	-10.1179
投资	-10.1179
▁models	-10.118
▁title	-10.1183
▁won	-10.1187
▁nothing	-10.1199
回	-10.12
mu	-10.1208
▁double	-10.1212
▁OF	-10.1214
د	-10.1221
App	-10.123
ret	-10.1231
热	-10.124
head	-10.1244
bo	-10.1255
▁Since	-10.1255
作	-10.1262
▁Se	-10.1262
ア	-10.1263
▁thus	-10.1264
▁试用后不喜欢可以退哦	-10.1266
因	-10.1267
▁easily	-10.1278
이다	-10.1279
Log	-10.1282
价格	-10.1286
每分钟	-10.1286
▁bool	-10.1287
mon	-10.1296
人民	-10.1298
container	-10.1312
local	-10.1313
▁isn	-10.1314
▁unique	-10.1316
▁tests	-10.1318
can	-10.133
豆浆机	-10.133
杯体	-10.133
有什么问题都是可以咨询小客服的	-10.1331
▁generally	-10.1332
农业	-10.1347
▁property	-10.1347
▁China	-10.1351
▁therefore	-10.1355
parse	-10.1358
ec	-10.1359
应当	-10.136
▁se	-10.1372
cc	-10.1372
关于	-10.1385
menu	-10.1392
电机空载	-10.1393
▁mass	-10.1394
▁popular	-10.1397
▁variety	-10.1399
light	-10.1408
ster	-10.1409
▁sources	-10.1409
▁entire	-10.141
▁une	-10.141
ng	-10.1421
▁primary	-10.1423
其中	-10.1426
价值	-10.1429
free	-10.143
ff	-10.1432
▁useful	-10.1433
▁solid	-10.1448
▁review	-10.1449
call	-10.1452
知识	-10.1455
ن	-10.1456
어	-10.1459
看	-10.146
发现	-10.1462
特	-10.1462
党	-10.1468
▁everything	-10.1473
dd	-10.1475
▁particularly	-10.1479
思想	-10.148
　	-10.1486
▁sea	-10.1487
▁dis	-10.1488
提升	-10.149
▁center	-10.1492
▁See	-10.1497
les	-10.1502
から	-10.1505
一键	-10.1508
▁contains	-10.1511
scale	-10.1515
pa	-10.1517
▁contact	-10.1524
▁movement	-10.1525
原	-10.1526
Point	-10.1528
std	-10.1529
images	-10.1533
%;	-10.1533
质量	-10.1536
▁sound	-10.1536
完成	-10.1539
her	-10.154
军	-10.1544
▁via	-10.1544
doc	-10.1545
杯	-10.156
过	-10.1562
▁According	-10.1566
ung	-10.1567
we	-10.1568
л	-10.1572
:	-10.1582
地区	-10.1588
ex	-10.159
绑定	-10.1606
视频	-10.1608
教	-10.1628
海	-10.163
情况	-10.1634
mer	-10.1634
▁previous	-10.1638
split	-10.164
▁situation	-10.164
ability	-10.1648
ُ	-10.1649
直接	-10.1659
▁theory	-10.1659
▁memory	-10.1676
월	-10.168
亲是什么原因没	-10.1689
可以说下	-10.1689
天内绑定延保	-10.1689
柴火饭	-10.169
▁international	-10.1698
智能	-10.1704
▁policy	-10.1705
ou	-10.1709
Override	-10.171
经	-10.1713
▁media	-10.1713
rate	-10.1718
因为	-10.1719
way	-10.1721
▁II	-10.1726
论	-10.1728
filter	-10.173
▁produced	-10.1735
▁schools	-10.1735
加	-10.1738
bit	-10.174
ring	-10.1746
▁six	-10.1759
▁film	-10.1761
в	-10.1762
tb	-10.1765
token	-10.1769
线	-10.1772
▁programs	-10.1779
sch	-10.1787
▁described	-10.1788
一般	-10.1796
option	-10.1797
坚持	-10.1802
发生	-10.1803
防烫	-10.181
Button	-10.1811
食品级不锈钢	-10.1813
全家享	-10.1813
▁running	-10.1841
▁minutes	-10.1852
git	-10.1855
Content	-10.1856
▁Let	-10.1859
▁task	-10.1859
▁kids	-10.1861
▁First	-10.1862
▁stop	-10.1863
ee	-10.1865
न	-10.1867
机构	-10.187
▁received	-10.187
▁diet	-10.187
去	-10.1871
▁safety	-10.1872
未	-10.1874
五	-10.1875
▁art	-10.1896
▁larger	-10.1901
▁device	-10.1901
"><	-10.1901
▁ago	-10.1902
▁San	-10.1903
pe	-10.1905
auto	-10.1906
kan	-10.1908
ated	-10.1909
▁French	-10.1914
▁Not	-10.1917
▁Er	-10.1918
实践	-10.1922
ين	-10.1924
按	-10.1924
nt	-10.193
售后非常有保障哦	-10.1936
这边支持	-10.1936
ki	-10.1937
ク	-10.1938
在收到货	-10.1945
Query	-10.1949
▁co	-10.1961
电	-10.1964
▁night	-10.1969
tab	-10.1972
р	-10.1974
라	-10.1977
▁properties	-10.1979
▁share	-10.1986
开展	-10.1997
par	-10.2003
▁forms	-10.2008
升	-10.2009
ada	-10.201
▁THE	-10.2015
代	-10.2022
Builder	-10.2027
▁Science	-10.2028
な	-10.2039
du	-10.2039
▁third	-10.2042
▁towards	-10.2047
や	-10.205
ze	-10.205
cd	-10.2051
ous	-10.2052
Controller	-10.2052
内可以退换	-10.2062
▁functions	-10.2065
ize	-10.2067
▁pay	-10.2069
▁Mar	-10.207
over	-10.2079
学校	-10.2088
stream	-10.2098
▁Use	-10.2109
س	-10.2112
host	-10.212
▁red	-10.2122
铜匠	-10.213
▁direct	-10.2131
▁None	-10.2131
API	-10.2134
目前	-10.2136
▁developing	-10.2137
ley	-10.2141
▁except	-10.2151
▁के	-10.2153
两	-10.2157
author	-10.2164
▁speed	-10.2165
gl	-10.217
▁fire	-10.2173
Version	-10.2176
▁element	-10.2178
不沾	-10.2182
▁document	-10.2183
▁character	-10.2185
香甜	-10.2186
温	-10.2187
不外溢	-10.2189
智能感温	-10.219
进一步	-10.2191
▁From	-10.22
▁tree	-10.2201
ب	-10.2203
성	-10.2207
全面	-10.2212
마	-10.2216
▁told	-10.2216
ext	-10.2223
▁behind	-10.2224
Form	-10.2229
▁requires	-10.2231
自带	-10.2232
立	-10.2233
公	-10.2233
▁animal	-10.2233
确认收货	-10.2235
master	-10.2235
空	-10.224
空间	-10.224
▁WEITERLEITUNG	-10.2241
home	-10.2258
▁date	-10.2259
▁flow	-10.2271
▁highly	-10.2271
▁mental	-10.2273
る	-10.2275
基于	-10.2276
▁late	-10.228
ial	-10.228
科技	-10.2281
▁lines	-10.2281
▁constant	-10.2282
值	-10.2286
▁occur	-10.2297
GD	-10.2297
他们	-10.2298
point	-10.2303
▁safe	-10.2306
传统	-10.2307
tmall	-10.2308
▁During	-10.2313
Command	-10.2313
▁wrong	-10.2316
Entity	-10.232
fe	-10.2325
х	-10.2344
▁grow	-10.2347
也是	-10.2349
开	-10.2352
{}	-10.2353
▁multi	-10.2354
▁feet	-10.2357
▁School	-10.2367
▁ideas	-10.2368
mar	-10.2373
con	-10.2374
▁daily	-10.2375
模型	-10.238
▁critical	-10.2381
条件	-10.2384
り	-10.2391
▁correct	-10.2395
rm	-10.24
▁Even	-10.2403
操作	-10.2403
****************	-10.2406
需求	-10.2413
史	-10.242
中心	-10.2427
▁لل	-10.2427
条	-10.2429
▁quickly	-10.2432
google	-10.2433
▁protect	-10.2451
▁More	-10.2454
td	-10.2455
增加	-10.246
á	-10.2463
▁Europe	-10.2465
▁OR	-10.2465
ish	-10.2469
▁files	-10.247
▁para	-10.2475
Task	-10.2475
Resource	-10.2479
▁purpose	-10.249
km	-10.2506
ful	-10.2506
阶段	-10.2507
美	-10.2509
▁status	-10.2514
▁eye	-10.2515
▁أ	-10.2517
▁currently	-10.2522
method	-10.2525
▁everyone	-10.2527
▁pass	-10.2528
▁weeks	-10.2528
有效	-10.2537
example	-10.255
za	-10.2551
control	-10.2554
▁El	-10.2563
▁growing	-10.2566
ル	-10.257
▁ل	-10.2571
咨询客服	-10.258
破壁机可以打	-10.2583
产生	-10.2584
▁cut	-10.2586
▁da	-10.2589
全球	-10.2597
▁pro	-10.2599
▁identify	-10.2603
ner	-10.2605
г	-10.2609
▁dan	-10.261
▁eat	-10.2612
project	-10.2618
书	-10.2619
구	-10.2622
css	-10.2622
▁val	-10.2637
机	-10.2638
▁showed	-10.264
赠送	-10.2643
采用	-10.2645
▁leading	-10.2669
▁bring	-10.2671
层	-10.2674
cl	-10.2677
である	-10.2682
card	-10.2692
reponame	-10.2693
▁offer	-10.2693
▁ask	-10.2697
▁inter	-10.2702
保一年	-10.2703
▁lack	-10.2708
ik	-10.2708
▁traditional	-10.2711
米糊	-10.2714
▁voor	-10.2715
机器成品码	-10.2716
至	-10.272
▁limited	-10.2721
款	-10.2726
表	-10.2733
▁infection	-10.2733
before	-10.2735
金融	-10.2737
조	-10.2741
▁resource	-10.2744
▁seem	-10.2744
▁carbon	-10.2746
合	-10.2748
sa	-10.2754
▁tools	-10.2759
万	-10.2762
▁applications	-10.2763
([	-10.2777
 /:	-10.2782
cal	-10.2783
▁yang	-10.2784
▁security	-10.2786
生活	-10.2788
▁affect	-10.2794
完善	-10.2796
▁whose	-10.2799
▁beginning	-10.2805
▁poor	-10.2809
▁influence	-10.281
▁factor	-10.281
▁lost	-10.2817
▁West	-10.2821
通	-10.2826
结果	-10.2829
▁significantly	-10.2831
п	-10.2832
▁choose	-10.2846
▁Or	-10.2848
소	-10.2851
官方联	-10.2851
赠送一年	-10.2852
▁processes	-10.2853
▁International	-10.2855
质	-10.2856
iss	-10.2856
▁section	-10.2857
ut	-10.2859
Output	-10.2861
와	-10.2863
▁observed	-10.2873
的呢	-10.2881
做	-10.289
▁companies	-10.29
서	-10.2901
상	-10.2904
南	-10.2905
▁thinking	-10.2905
space	-10.2907
▁copy	-10.2907
def	-10.2909
▁teachers	-10.2924
▁initial	-10.2927
工业	-10.2935
过程中	-10.2942
是否	-10.2951
after	-10.2965
▁decision	-10.2969
▁although	-10.2972
▁appropriate	-10.2973
▁European	-10.2973
▁scientists	-10.2974
tion	-10.2975
气	-10.2975
▁act	-10.2978
assert	-10.2979
く	-10.298
Options	-10.2984
pr	-10.2985
Handler	-10.2986
结合	-10.2992
▁overall	-10.2993
第一	-10.2999
▁green	-10.3001
▁meaning	-10.3001
▁author	-10.3005
mat	-10.3005
Mode	-10.302
▁Other	-10.3022
▁table	-10.3024
课程	-10.3029
开始	-10.3035
▁Why	-10.3035
▁active	-10.3036
▁creating	-10.3041
▁distribution	-10.3044
tmp	-10.3047
▁soon	-10.3053
▁central	-10.3055
▁devices	-10.306
ak	-10.3061
▁objects	-10.3064
।	-10.3069
设备	-10.3069
▁exercise	-10.3076
email	-10.3077
▁users	-10.3078
▁friends	-10.3083
新品	-10.3088
но	-10.3088
▁wide	-10.3095
开发	-10.3095
▁location	-10.3095
▁success	-10.3098
border	-10.3098
路	-10.3099
▁goal	-10.3099
▁asked	-10.31
宝贝	-10.3102
hi	-10.3109
▁established	-10.3109
成本	-10.3113
▁fish	-10.3117
总	-10.3119
range	-10.3123
▁held	-10.3125
Krtf	-10.3129
主	-10.3129
▁foods	-10.314
▁/>	-10.315
대	-10.3154
参与	-10.3158
▁yourself	-10.316
▁gives	-10.3162
opt	-10.3162
▁diseases	-10.3166
side	-10.3166
西	-10.3174
chi	-10.3175
ise	-10.3177
You	-10.3178
alpha	-10.3178
Function	-10.3179
docs	-10.318
tree	-10.3185
农村	-10.3188
▁contain	-10.3191
weight	-10.3197
ofl	-10.32
Component	-10.3203
lock	-10.322
▁Go	-10.3224
民	-10.3226
ado	-10.3228
▁NULL	-10.323
先	-10.323
Token	-10.3231
▁completely	-10.324
parent	-10.3244
定	-10.3244
▁Na	-10.3257
病	-10.3259
人才	-10.3261
▁Because	-10.3264
您收到	-10.327
高硼硅玻璃	-10.3272
的发展	-10.3275
▁protected	-10.3277
重要	-10.3294
장	-10.3295
▁namespace	-10.3296
▁stage	-10.3309
close	-10.3309
As	-10.3313
▁block	-10.3313
▁unit	-10.3319
work	-10.3327
ल	-10.3327
▁les	-10.3327
해	-10.333
▁sample	-10.3332
Property	-10.3333
Access	-10.3335
nav	-10.3336
变	-10.3344
一种	-10.3345
part	-10.3346
▁saw	-10.3348
ru	-10.3349
related	-10.3351
▁argument	-10.3354
之间	-10.336
非常方便的哈	-10.3362
▁actual	-10.3365
ов	-10.3365
▁padding	-10.3374
ek	-10.3378
▁fine	-10.339
nom	-10.3395
▁tool	-10.3396
tra	-10.34
▁Sa	-10.3406
Buffer	-10.3408
不是	-10.3408
▁Center	-10.3418
▁please	-10.342
▁uit	-10.342
变化	-10.3421
▁financial	-10.3423
▁module	-10.3423
例如	-10.3426
▁catch	-10.3427
▁room	-10.3432
▁techniques	-10.3433
▁increasing	-10.3433
▁hope	-10.3435
▁communities	-10.3435
나	-10.3436
Read	-10.3437
▁exist	-10.3446
规范	-10.3449
▁En	-10.3451
None	-10.346
}$	-10.3462
▁redirect	-10.3465
的哈	-10.3465
eq	-10.3466
▁Me	-10.347
▁distance	-10.3473
static	-10.3476
商	-10.3478
有关	-10.3481
▁front	-10.3486
system	-10.3488
where	-10.3493
▁General	-10.3497
Block	-10.3499
单	-10.3501
的重要	-10.3502
▁shall	-10.3505
任务	-10.3507
▁applied	-10.3512
tro	-10.352
spec	-10.3524
▁regular	-10.3527
dict	-10.3529
▁communication	-10.3532
attr	-10.3536
description	-10.3537
gi	-10.3539
▁website	-10.3542
た	-10.3543
▁changed	-10.3547
proto	-10.3549
Address	-10.355
头	-10.3551
izing	-10.3556
ft	-10.3558
र	-10.356
从而	-10.3561
全自动多功能	-10.3562
计划	-10.3564
▁collection	-10.3564
EIHM	-10.3564
sTga	-10.3565
追加	-10.3566
mode	-10.3566
行业	-10.3566
处	-10.3568
common	-10.3569
▁إلى	-10.357
各种	-10.3572
▁distributed	-10.3575
▁performed	-10.358
特征	-10.3581
admin	-10.3584
수	-10.3587
IN	-10.3588
达到	-10.3589
反	-10.3593
lu	-10.3596
▁sent	-10.3599
af	-10.36
德	-10.3609
정	-10.3609
▁himself	-10.3609
je	-10.3612
▁protection	-10.3612
共同	-10.3615
▁deep	-10.3615
▁testing	-10.3617
▁ein	-10.3618
▁existing	-10.3621
jJ	-10.3622
▁goes	-10.3625
▁followed	-10.3626
▁Institute	-10.3627
随着	-10.3629
om	-10.3635
End	-10.3636
ini	-10.364
▁describe	-10.3644
background	-10.3644
材料	-10.3653
▁receive	-10.3659
▁mit	-10.3675
▁books	-10.3675
▁allowed	-10.3675
lin	-10.3685
Call	-10.3687
▁details	-10.3688
▁rates	-10.3697
nTm	-10.3698
包邮	-10.3704
SNZI	-10.3705
▁March	-10.3709
新的	-10.3709
正品保障	-10.3709
드	-10.371
▁therapy	-10.3712
address	-10.3715
US	-10.3716
Un	-10.3717
FA	-10.372
▁deal	-10.372
▁importance	-10.3721
ang	-10.3723
ع	-10.3724
▁extra	-10.3731
▁military	-10.3731
比较	-10.3736
mod	-10.3736
xml	-10.3737
▁steps	-10.3742
▁differences	-10.3743
delete	-10.3744
▁scientific	-10.3745
▁Act	-10.3769
自己	-10.3773
▁supply	-10.3783
transform	-10.3786
▁Get	-10.3787
全国	-10.3792
▁"$	-10.38
react	-10.3801
▁appear	-10.3803
ó	-10.3817
▁German	-10.3819
product	-10.3819
▁现在购买	-10.3821
▁trees	-10.3822
构建	-10.3831
近	-10.3836
down	-10.3843
ile	-10.3846
管	-10.3847
▁becomes	-10.3849
▁leave	-10.3853
▁California	-10.3854
计算	-10.3856
ef	-10.3856
▁Un	-10.3859
榨汁机	-10.3859
现代	-10.386
眼光真	-10.386
▁April	-10.3861
▁${	-10.3863
生态	-10.3865
培养	-10.3868
风	-10.3871
▁month	-10.3871
▁visit	-10.3873
治理	-10.3875
村	-10.3877
break	-10.3877
Vector	-10.3886
ho	-10.3886
","	-10.3889
ists	-10.389
▁root	-10.3891
的沉	-10.3892
▁waste	-10.3892
▁basis	-10.39
▁humans	-10.3901
具体	-10.3906
vector	-10.3907
▁acid	-10.3908
▁recently	-10.3912
▁throw	-10.3916
▁machine	-10.3918
hr	-10.3921
tor	-10.3925
满意	-10.3926
▁cross	-10.3927
▁talk	-10.3931
CR	-10.3939
ities	-10.3946
原则	-10.3948
▁hands	-10.3951
▁serious	-10.3951
▁digital	-10.3951
idae	-10.3956
▁costs	-10.3962
▁African	-10.3965
克	-10.3965
▁measure	-10.3969
▁clinical	-10.397
Default	-10.397
cell	-10.3972
▁rules	-10.3975
tt	-10.3981
▁[]	-10.3986
▁eyes	-10.3986
▁River	-10.3987
sp	-10.3992
安	-10.3992
▁reduced	-10.3994
ium	-10.4003
▁meet	-10.4005
▁🔴	-10.4006
香薰	-10.4011
天然沉	-10.4012
安神助眠	-10.4012
家用睡眠	-10.4012
天内联系	-10.4013
可延保一年	-10.4013
共两年保修	-10.4013
榨汁杯	-10.4015
▁anyone	-10.4019
▁benefit	-10.402
▁fall	-10.4029
▁brought	-10.403
▁interface	-10.4031
Stream	-10.4031
vo	-10.4036
单位	-10.4041
手只要	-10.4042
▁presence	-10.4045
원	-10.4054
property	-10.4057
module	-10.4057
▁solar	-10.4061
▁search	-10.4063
出现	-10.4064
uri	-10.4068
wa	-10.4071
▁families	-10.4074
reg	-10.4076
display	-10.4078
▁spread	-10.4078
▁typically	-10.4083
board	-10.4085
リ	-10.41
endif	-10.4108
uk	-10.4109
▁Thus	-10.4114
▁pretty	-10.4115
ana	-10.4119
ML	-10.4119
ae	-10.4125
个人	-10.413
bb	-10.4135
利	-10.4136
▁places	-10.4139
부	-10.414
为了	-10.4141
ом	-10.4141
▁reference	-10.4143
▁middle	-10.4144
实验	-10.4147
▁alone	-10.4147
which	-10.4147
▁smaller	-10.4147
规划	-10.4154
▁relative	-10.4163
▁Department	-10.4163
更加	-10.4164
▁Ver	-10.4166
联系我们	-10.4166
平	-10.4168
▁reach	-10.4169
▁construction	-10.417
debug	-10.4172
▁birth	-10.4178
▁component	-10.4181
▁Her	-10.4182
战略	-10.4188
▁release	-10.4193
▁teaching	-10.4193
car	-10.4197
された	-10.4197
▁remove	-10.4202
location	-10.4204
UI	-10.4206
重大	-10.4207
▁Africa	-10.4214
▁June	-10.4217
rd	-10.4218
▁People	-10.4224
▁identified	-10.4232
▁located	-10.4236
▁char	-10.4238
▁passed	-10.4243
业务	-10.4245
▁equal	-10.4245
▁drug	-10.425
▁Each	-10.4252
remove	-10.4253
rem	-10.4255
代表	-10.426
▁forward	-10.4264
第二	-10.4265
▁remains	-10.4266
网	-10.4268
tu	-10.428
▁server	-10.4282
▁providing	-10.4284
▁sites	-10.4285
▁parameters	-10.4286
▁professional	-10.4291
得到	-10.4294
获得	-10.4296
important	-10.4298
▁rule	-10.4309
should	-10.431
请第一时间联系我们	-10.4317
中遇到问题	-10.4318
Max	-10.4319
▁Another	-10.4319
▁nearly	-10.4322
如签收	-10.4324
您妥善处理	-10.4325
▁exposure	-10.4328
视频链接	-10.4328
▁doctor	-10.433
FEnergy	-10.4339
▁degree	-10.4339
raw	-10.434
low	-10.4346
ah	-10.4347
pp	-10.4347
治疗	-10.4349
自然	-10.4352
▁scale	-10.4355
按照	-10.4356
▁Ne	-10.4357
▁severe	-10.436
▁install	-10.436
▁reasons	-10.4362
non	-10.4364
▁none	-10.4366
▁connection	-10.4368
Instance	-10.4369
州	-10.4372
▁interesting	-10.4374
Sub	-10.4378
ps	-10.4383
口	-10.4387
▁History	-10.4391
▁Don	-10.4395
▁projects	-10.4397
▁fast	-10.4397
▁attack	-10.44
ram	-10.4401
ل	-10.4403
동	-10.4409
site	-10.441
你好	-10.4414
程序	-10.4414
▁por	-10.4414
ping	-10.4418
session	-10.442
▁wanted	-10.4424
▁City	-10.4429
这是	-10.443
▁sun	-10.4438
ence	-10.444
▁extends	-10.4444
ped	-10.4444
▁member	-10.4448
▁cover	-10.4449
▁older	-10.4449
▁für	-10.4449
child	-10.4451
▁∷	-10.4451
ш	-10.4457
▁Il	-10.4457
sql	-10.4463
北	-10.4468
types	-10.4475
健康	-10.4487
▁Canada	-10.4487
▁moment	-10.4491
这款破壁机	-10.4493
]);	-10.4494
▁August	-10.4497
save	-10.45
ger	-10.45
▁Man	-10.4501
▁respect	-10.4506
Application	-10.4511
▁choice	-10.4511
基	-10.4514
bi	-10.4514
▁mother	-10.4516
地方	-10.4516
Factory	-10.4517
▁coming	-10.452
理解	-10.4522
措施	-10.4525
▁concept	-10.4525
ER	-10.4526
Order	-10.4531
上的	-10.4534
▁struct	-10.4538
满足	-10.4539
▁images	-10.454
ea	-10.4543
形式	-10.4544
비	-10.4545
▁successful	-10.4545
革命	-10.4549
scope	-10.4549
交易	-10.4552
▁Great	-10.4553
echo	-10.4554
▁beyond	-10.4556
mb	-10.4563
▁examples	-10.4565
▁State	-10.4568
ted	-10.4569
▁price	-10.4574
train	-10.4574
ING	-10.4575
速	-10.4577
▁stay	-10.4579
所以	-10.4581
形	-10.4581
▁earth	-10.4588
石	-10.4588
cy	-10.4589
IL	-10.4589
▁от	-10.4594
组	-10.4598
▁feature	-10.4599
Length	-10.4599
cr	-10.4601
▁cold	-10.4606
▁Therefore	-10.4607
NO	-10.4617
▁web	-10.4618
▁woman	-10.4619
ap	-10.462
▁node	-10.462
hat	-10.4621
▁remember	-10.4622
apache	-10.4624
▁season	-10.4625
▁measures	-10.4625
行政	-10.4625
因素	-10.4625
▁dog	-10.4633
级	-10.4635
▁gene	-10.4637
▁عام	-10.4638
buffer	-10.4639
用户	-10.4646
咱们家	-10.4648
▁option	-10.4652
ku	-10.4655
▁Black	-10.4658
send	-10.4666
联系	-10.4672
工	-10.4675
▁leaves	-10.4675
▁Ha	-10.4678
fi	-10.4679
▁internal	-10.468
重点	-10.4681
▁hold	-10.4686
double	-10.4688
','	-10.4691
▁King	-10.4694
ator	-10.4696
理	-10.4696
pc	-10.4699
sim	-10.47
ト	-10.4705
▁responsible	-10.4706
还是	-10.4708
Or	-10.4713
Val	-10.4714
nn	-10.4719
IT	-10.4725
表示	-10.4729
▁legal	-10.4734
dy	-10.4742
De	-10.4746
▁September	-10.4747
▁update	-10.4753
人员	-10.4754
▁workers	-10.4755
IO	-10.4756
及其	-10.4759
▁games	-10.4763
▁fields	-10.4763
▁items	-10.4764
OK	-10.4766
files	-10.4767
cf	-10.4769
▁direction	-10.477
template	-10.477
▁(*	-10.4771
▁note	-10.4773
ラ	-10.4777
▁shape	-10.4783
▁volume	-10.4784
eb	-10.4789
ла	-10.4793
▁summer	-10.4796
▁variable	-10.4799
言	-10.4802
▁led	-10.4803
▁clean	-10.4806
价格优惠	-10.4806
强	-10.4809
▁boolean	-10.4809
制定	-10.4809
▁affected	-10.4809
带回家吧	-10.4813
喜欢就赶快	-10.4813
网热销	-10.4813
▁largest	-10.4819
▁ت	-10.4819
▁adults	-10.4826
▁met	-10.4833
cb	-10.4834
か	-10.4835
ology	-10.4836
确定	-10.4837
且	-10.4839
▁gave	-10.4844
▁length	-10.4845
à	-10.485
在的哦	-10.4853
动	-10.4853
other	-10.4856
▁Once	-10.4857
Link	-10.4858
sel	-10.486
进入	-10.4861
▁components	-10.4862
▁setting	-10.4863
ları	-10.4863
ف	-10.4864
▁practices	-10.4865
▁ancient	-10.4876
时代	-10.4877
▁save	-10.488
í	-10.4881
系	-10.4885
gar	-10.4892
省	-10.4892
责任	-10.4893
年哦	-10.49
▁proper	-10.49
▁pattern	-10.4903
biz	-10.4909
林	-10.4913
sur	-10.4914
tan	-10.4919
▁dry	-10.4923
▁England	-10.4938
RE	-10.4949
▁apply	-10.4949
中央	-10.495
Filter	-10.4951
▁operation	-10.4953
マ	-10.4953
▁named	-10.4955
import	-10.4958
element	-10.4967
Web	-10.4971
评估	-10.4973
▁np	-10.4979
简单文字	-10.4981
后使用机器	-10.4981
退到您支付宝里面	-10.4982
赞美一下	-10.4982
instance	-10.4983
确认收货后	-10.4985
▁micro	-10.4985
txt	-10.499
▁maintain	-10.499
ier	-10.4993
として	-10.4995
取	-10.5001
能源	-10.5003
尔	-10.5006
%)	-10.5008
▁saying	-10.5011
▁bacteria	-10.5012
章	-10.5015
Not	-10.5018
▁raise	-10.5027
▁Using	-10.5028
device	-10.5031
package	-10.5032
미	-10.5033
del	-10.5034
sha	-10.5034
▁Day	-10.5039
▁happen	-10.5039
sk	-10.504
▁France	-10.5041
▁died	-10.5042
合同	-10.5042
▁obtain	-10.5051
集	-10.5055
sen	-10.5059
▁presented	-10.5063
以上	-10.5064
▁机器	-10.5064
清	-10.5065
Port	-10.5067
Be	-10.5068
▁starting	-10.5068
frame	-10.507
使得	-10.5076
▁efforts	-10.5078
▁July	-10.5082
entry	-10.5083
▁sur	-10.5084
ж	-10.5087
(&	-10.5095
约	-10.5107
ド	-10.5111
了解	-10.5115
MS	-10.5116
▁map	-10.5117
▁suggest	-10.5118
▁separate	-10.5119
社	-10.5123
▁tissue	-10.5126
▁patterns	-10.5131
grid	-10.5136
graph	-10.5139
win	-10.5147
种	-10.5151
我们送一年	-10.5153
五谷浆	-10.5153
▁worked	-10.5154
ite	-10.5157
▁earlier	-10.5158
双	-10.5166
区域	-10.5169
margin	-10.517
▁occurs	-10.5173
shape	-10.5178
command	-10.518
cmd	-10.5183
Ref	-10.5187
▁Notes	-10.5189
jo	-10.5195
▁app	-10.5201
▁progress	-10.5202
导致	-10.5206
此	-10.5207
ard	-10.5211
세	-10.5213
▁→	-10.5213
yl	-10.5213
▁Indian	-10.5216
而且	-10.5217
▁remain	-10.5221
▁actions	-10.5224
城	-10.5224
▁effort	-10.5225
▁names	-10.5229
▁equipment	-10.523
ure	-10.5236
ative	-10.524
buf	-10.5243
所有	-10.5251
▁achieve	-10.5252
学科	-10.5254
Op	-10.5255
▁cultural	-10.5256
स	-10.5261
增强	-10.5266
then	-10.5268
古	-10.5276
func	-10.5277
部门	-10.5277
mal	-10.5278
offset	-10.5281
전	-10.5289
arr	-10.5295
▁London	-10.5297
any	-10.5297
▁teeth	-10.5301
信	-10.5301
아	-10.5302
make	-10.5307
联保	-10.531
优化	-10.5312
but	-10.5313
False	-10.5314
cache	-10.5315
局	-10.5316
np	-10.5316
▁Per	-10.5319
▁database	-10.5319
全国整机	-10.5327
使用满意	-10.5329
ر	-10.5333
年哦亲	-10.5334
password	-10.5339
DIR	-10.5341
源	-10.5343
世	-10.5345
电子	-10.5351
无法	-10.5351
▁opportunity	-10.5353
人类	-10.5356
▁Sch	-10.5361
▁Just	-10.5363
▁مراجع	-10.5367
イ	-10.5369
vi	-10.537
机器	-10.5374
step	-10.5375
fd	-10.5378
均	-10.5379
减少	-10.5383
ker	-10.5384
'],	-10.5386
数字	-10.5387
ice	-10.5388
▁chance	-10.5393
Format	-10.5394
well	-10.5394
iz	-10.5404
ptr	-10.5406
运用	-10.542
▁window	-10.5425
综合	-10.5426
▁balance	-10.5431
▁ones	-10.5431
ship	-10.5434
ç	-10.544
ville	-10.5448
values	-10.5453
Open	-10.5454
▁forces	-10.5463
▁essay	-10.5465
pl	-10.5467
实际	-10.5469
empty	-10.5472
▁float	-10.5474
Box	-10.5476
TYPE	-10.5479
▁Jesus	-10.5484
▁findings	-10.5486
▁fi	-10.5489
▁await	-10.5491
送延	-10.5491
明确	-10.5492
▁moving	-10.5494
生物	-10.55
제	-10.5501
▁teacher	-10.5502
产品拍照	-10.5503
▁Chinese	-10.5505
▁obtained	-10.5506
劳动	-10.551
▁limit	-10.5511
ロ	-10.5512
▁placed	-10.5514
column	-10.5515
意	-10.5516
▁perform	-10.5519
dan	-10.5524
are	-10.553
▁County	-10.5533
▁organization	-10.5533
َ	-10.5535
▁Press	-10.5535
▁wrote	-10.5535
▁capacity	-10.5537
之后	-10.5539
application	-10.5542
{{	-10.5544
▁DNA	-10.5553
He	-10.5555
▁powerful	-10.556
保证	-10.5564
稍等	-10.5569
赞美	-10.5569
OR	-10.5571
▁넘겨주기	-10.5572
▁exactly	-10.5576
Le	-10.5582
python	-10.5586
▁phase	-10.5587
edit	-10.5588
▁proposed	-10.5589
▁religious	-10.5591
▁있다	-10.5591
▁easier	-10.5593
▁layer	-10.5598
Url	-10.56
间	-10.5601
主体	-10.5606
ой	-10.5607
▁majority	-10.5607
cu	-10.5608
My	-10.5616
强调	-10.5616
utils	-10.5617
状态	-10.5617
handle	-10.5621
▁challenges	-10.5621
利益	-10.5623
▁Li	-10.5626
ck	-10.5628
▁January	-10.5629
第三	-10.5629
▁father	-10.5631
म	-10.5634
(\	-10.564
radius	-10.5641
Container	-10.5642
tic	-10.5646
▁virus	-10.5647
prop	-10.5647
Api	-10.565
微	-10.5655
▁resistance	-10.5655
ч	-10.566
▁mode	-10.5661
트	-10.5661
temp	-10.5666
Core	-10.5666
调整	-10.5669
官	-10.5671
▁immune	-10.5673
指	-10.5674
▁gets	-10.5678
leri	-10.5678
total	-10.5682
▁toward	-10.5682
fig	-10.5683
点击链接可查看	-10.5685
長	-10.5686
纯豆浆	-10.5687
▁Copyright	-10.5691
ix	-10.5697
che	-10.57
Configuration	-10.5702
Connection	-10.5702
cat	-10.5704
▁miles	-10.5706
▁description	-10.5716
Module	-10.5722
▁increases	-10.5723
conf	-10.5723
▁President	-10.5724
document	-10.5731
req	-10.5731
▁chemical	-10.5734
川	-10.5737
▁explain	-10.5738
▁capital	-10.5738
resource	-10.574
now	-10.574
▁regions	-10.5747
();	-10.5748
unit	-10.575
fs	-10.5752
hash	-10.5754
▁sugar	-10.5755
▁fuel	-10.5757
车	-10.5759
两个	-10.576
▁adalah	-10.5766
▁son	-10.5769
▁Of	-10.5772
▁familie	-10.5773
▁Education	-10.5775
当前	-10.5776
白	-10.5784
Attribute	-10.5795
▁November	-10.5795
Store	-10.5796
进	-10.58
▁tried	-10.5802
▁commonly	-10.5805
▁drugs	-10.5811
▁src	-10.5812
カ	-10.5816
क	-10.5818
▁huge	-10.5822
Level	-10.5822
时期	-10.5823
Label	-10.5828
▁relatively	-10.5828
▁appears	-10.5828
▁Con	-10.583
lan	-10.5832
▁में	-10.5838
▁pour	-10.5839
cos	-10.584
▁solutions	-10.584
▁removed	-10.5846
▁eating	-10.5847
▁East	-10.585
字以上	-10.5853
click	-10.5854
ray	-10.5855
▁figure	-10.5864
发表成功	-10.5865
产品如果	-10.5866
正面操作	-10.5867
拍照或者视频	-10.5867
}"	-10.5867
把收到的产品	-10.5868
快速浆	-10.5868
FEUq	-10.5868
只有	-10.5869
tes	-10.587
——	-10.587
sec	-10.587
那	-10.5871
don	-10.5872
之一	-10.5874
](#	-10.5875
方案	-10.5875
At	-10.5877
final	-10.588
▁economy	-10.5884
才能	-10.5887
运动	-10.5888
科	-10.5892
book	-10.5896
显示	-10.5899
▁signal	-10.5907
ina	-10.5914
ble	-10.5915
▁hair	-10.5915
ji	-10.5915
之间的	-10.5916
king	-10.5918
bus	-10.5922
持续	-10.5927
▁diabetes	-10.5929
▁match	-10.593
知	-10.5932
▁Ca	-10.5934
Bar	-10.5935
▁weather	-10.5936
▁born	-10.5944
▁strategies	-10.5948
우	-10.5948
▁Ge	-10.5953
Header	-10.5955
▁sign	-10.5956
周	-10.5957
▁October	-10.596
nin	-10.5965
rich	-10.5966
using	-10.597
▁eine	-10.597
task	-10.5971
б	-10.5973
▁immediately	-10.5975
draw	-10.5977
▁rise	-10.5981
▁standards	-10.5987
▁Am	-10.599
▁giving	-10.5994
^{	-10.5998
ny	-10.6001
降低	-10.6002
探索	-10.6002
报告	-10.6011
▁Washington	-10.6012
▁baby	-10.6014
▁federal	-10.6015
积极	-10.6016
▁samples	-10.6016
▁С	-10.6017
文件	-10.602
▁characters	-10.6024
▁David	-10.6034
ye	-10.6039
▁Pre	-10.6039
▁Water	-10.604
き	-10.6041
PP	-10.6041
▁Pe	-10.6042
▁Pro	-10.6046
▁formula	-10.6047
ö	-10.605
▁Journal	-10.605
ON	-10.605
▁genetic	-10.6051
fn	-10.6053
channel	-10.6054
ق	-10.6055
Range	-10.6068
▁operations	-10.6069
资本	-10.607
치	-10.6072
▁independent	-10.6073
▁strength	-10.6073
▁treated	-10.6074
Column	-10.6081
dt	-10.6087
▁soort	-10.609
▁variables	-10.609
▁REDIRECCIÓN	-10.6091
ible	-10.6091
bool	-10.6094
copy	-10.6095
▁tax	-10.6097
超	-10.6097
▁House	-10.6104
▁requirements	-10.6105
斯	-10.6107
才	-10.6113
Session	-10.6114
Tag	-10.612
▁storage	-10.6121
Position	-10.6124
价	-10.6125
只	-10.6128
▁den	-10.6131
▁auf	-10.6132
完全	-10.6133
▁parent	-10.6143
▁demand	-10.6145
cdn	-10.6145
assets	-10.6147
ки	-10.6152
Style	-10.6152
▁из	-10.6167
▁Ni	-10.6168
▁failure	-10.6169
▁supported	-10.6169
bind	-10.6173
▁native	-10.6173
화	-10.6174
▁winter	-10.6174
是指	-10.6176
art	-10.6179
华	-10.6179
ham	-10.6181
▁William	-10.6182
决定	-10.6194
▁laws	-10.6196
산	-10.6198
▁Bo	-10.62
▁Americans	-10.62
▁Their	-10.6201
称	-10.6201
▁Note	-10.6202
掌握	-10.6206
花	-10.6207
▁Roman	-10.6208
▁Di	-10.6209
▁prior	-10.6212
▁failed	-10.6213
flow	-10.6214
era	-10.6214
▁tend	-10.6216
▁highest	-10.6223
▁mid	-10.6224
▁statement	-10.6224
KEY	-10.6225
现在	-10.623
▁structures	-10.623
交	-10.6231
民族	-10.6239
▁wind	-10.6239
欢迎光临	-10.6239
▁nation	-10.624
▁combination	-10.6243
升级款	-10.6245
电炖锅	-10.6245
Check	-10.6246
自身	-10.6255
以下	-10.6257
用于	-10.6257
▁returned	-10.626
取得	-10.626
▁fixed	-10.6261
cur	-10.6262
事件	-10.6262
▁Public	-10.6263
▁fully	-10.6263
艺术	-10.6264
cs	-10.6267
▁classes	-10.6269
建筑	-10.6269
▁naam	-10.6278
CD	-10.6279
vers	-10.628
▁selected	-10.6285
Target	-10.6289
▁determined	-10.6292
▁looks	-10.6295
范围	-10.6299
Location	-10.63
检测	-10.6304
▁female	-10.6304
▁Church	-10.6311
增长	-10.6312
决策	-10.6314
▁High	-10.6316
خ	-10.6317
天无理由的	-10.6319
▁treat	-10.6321
▁Make	-10.6324
统一	-10.6328
台	-10.6329
Provider	-10.6331
dis	-10.6332
情	-10.6333
mail	-10.6334
▁perhaps	-10.6337
Last	-10.6346
▁continued	-10.6348
你	-10.6352
nu	-10.6363
的影响	-10.6372
土地	-10.6374
关注	-10.6374
▁definition	-10.6375
▁gain	-10.6378
>>	-10.6378
ken	-10.638
dc	-10.6381
▁Mr	-10.6381
▁handle	-10.6384
神	-10.6385
▁solve	-10.639
$$	-10.6392
▁Please	-10.6392
▁relevant	-10.6393
ك	-10.6397
ре	-10.6399
▁generation	-10.6402
Write	-10.6404
ли	-10.6407
▁Car	-10.6413
▁offers	-10.6414
实	-10.6415
Reference	-10.642
主义	-10.6421
政	-10.6424
经营	-10.6425
では	-10.6427
▁buy	-10.6427
▁otherwise	-10.6428
ify	-10.6431
▁screen	-10.6434
▁maximum	-10.6434
▁blue	-10.6435
▁parameter	-10.6437
▁alternative	-10.6438
stack	-10.6442
▁carried	-10.6442
字	-10.6443
的延保	-10.6443
▁signs	-10.6446
▁visual	-10.6447
▁previously	-10.6458
ans	-10.6462
vis	-10.6463
▁contrast	-10.6466
指出	-10.6466
规则	-10.6466
beta	-10.6468
▁characteristics	-10.6469
▁format	-10.647
▁party	-10.6473
\"	-10.6477
Change	-10.648
▁George	-10.6484
感	-10.6487
▁December	-10.6489
tur	-10.6492
▁eerst	-10.6492
Row	-10.6493
治	-10.6497
▁ver	-10.6498
的问题	-10.6498
Tree	-10.6501
▁console	-10.6503
▁sequence	-10.6504
game	-10.6504
▁picture	-10.6505
"`	-10.6508
▁represent	-10.6508
Str	-10.6509
▁technique	-10.6521
▁James	-10.6523
人们	-10.6525
/**	-10.6526
概念	-10.6527
equal	-10.6528
▁office	-10.6533
人的	-10.6541
sc	-10.6549
login	-10.6551
不仅	-10.6553
istic	-10.6555
▁ex	-10.6556
bf	-10.6556
Windows	-10.6557
▁resulting	-10.6559
▁implementation	-10.6562
Net	-10.6563
▁happens	-10.6563
▁generate	-10.6564
]:	-10.6575
pack	-10.6575
▁hot	-10.6577
自由	-10.6582
та	-10.6584
▁uint	-10.6584
▁extremely	-10.6586
退	-10.6588
"),	-10.6589
pro	-10.659
▁participants	-10.6591
rt	-10.6593
▁track	-10.6593
jpghttp	-10.6594
▁chronic	-10.6595
▁Ko	-10.6597
ph	-10.6601
▁road	-10.6604
您好	-10.6605
▁piece	-10.6606
▁former	-10.6608
Char	-10.6609
internal	-10.6615
▁gepubliceerd	-10.6616
▁UK	-10.6616
▁muscle	-10.6617
Sunm	-10.6619
xDr	-10.6621
▁historical	-10.6622
▁notice	-10.6623
Mqu	-10.6624
▁specified	-10.6625
ius	-10.6626
};	-10.6628
that	-10.663
▁conducted	-10.6631
▁Web	-10.6631
Select	-10.6634
▁dari	-10.6635
叶刀片	-10.6635
family	-10.6637
张	-10.6637
发挥	-10.6638
ES	-10.6639
▁trans	-10.6643
▁أن	-10.6644
▁planning	-10.6644
ナ	-10.6645
▁connected	-10.6647
hu	-10.6648
▁dark	-10.6652
ren	-10.6655
▁feeling	-10.6657
▁Die	-10.6671
▁الأ	-10.6672
CC	-10.6675
dist	-10.6676
ella	-10.6681
波	-10.6682
资金	-10.6685
▁friend	-10.6685
▁virtual	-10.6688
하는	-10.6689
真	-10.6691
应该	-10.6698
▁bio	-10.6699
▁alcohol	-10.6702
▁released	-10.671
Body	-10.6711
modules	-10.6714
▁eventually	-10.6716
▁educational	-10.6718
Out	-10.6724
常	-10.6729
▁letter	-10.673
▁moved	-10.6731
▁finding	-10.6732
保持	-10.6732
▁stories	-10.6733
县	-10.6733
▁ALIH	-10.6737
bot	-10.6738
▁override	-10.674
少	-10.6741
带	-10.6744
ム	-10.6747
▁Mo	-10.6749
ue	-10.6749
▁una	-10.675
match	-10.6752
▁Union	-10.6753
极	-10.6757
und	-10.6759
▁send	-10.676
▁Australia	-10.676
▁income	-10.6762
未来	-10.6765
Collection	-10.6767
▁Paul	-10.6768
What	-10.6772
▁staff	-10.6772
Http	-10.6775
▁experiences	-10.6777
وا	-10.6777
▁Two	-10.678
▁discovered	-10.6786
▁frequency	-10.6788
▁billion	-10.6789
▁church	-10.6789
▁consumption	-10.6789
▁drive	-10.6793
▁playing	-10.6793
CH	-10.6794
idx	-10.6794
CO	-10.6794
▁formed	-10.6802
mH	-10.6808
math	-10.6811
▁processing	-10.6812
iM	-10.6815
▁Da	-10.6819
▁units	-10.6819
▁Society	-10.6819
维护	-10.6821
▁fat	-10.6826
深	-10.6834
银行	-10.6835
您的眼光真	-10.6836
▁generated	-10.6838
营养粥	-10.6839
果仁露	-10.6839
pdf	-10.6845
效率	-10.6845
replace	-10.6846
ф	-10.6847
门	-10.6847
业	-10.6849
fill	-10.6851
prefix	-10.6852
▁random	-10.6854
▁finally	-10.6862
作品	-10.6864
针对	-10.6865
建	-10.6868
患者	-10.6869
▁opportunities	-10.6873
Control	-10.6874
运行	-10.6874
▁felt	-10.6876
协议	-10.6877
Post	-10.6877
▁library	-10.6879
自己的	-10.688
our	-10.6881
Entry	-10.6882
го	-10.6882
▁column	-10.6884
程度	-10.6886
任何	-10.6888
La	-10.6889
▁cities	-10.6892
▁Christ	-10.6894
东	-10.6897
▁Ma	-10.6898
▁références	-10.6901
通常	-10.6903
sm	-10.6909
▁cycle	-10.6909
▁guide	-10.691
不同的	-10.6911
测试	-10.6912
世纪	-10.6915
许多	-10.6916
▁AND	-10.6921
house	-10.6921
ros	-10.6926
▁Lord	-10.6928
Json	-10.6931
ия	-10.6932
▁reports	-10.6932
xe	-10.6938
each	-10.6939
▁goals	-10.694
ions	-10.6941
su	-10.6944
usr	-10.6947
▁slow	-10.6947
insert	-10.6949
▁mentioned	-10.695
ov	-10.695
节	-10.6951
▁literature	-10.6951
规模	-10.6952
▁Ho	-10.6956
ان	-10.696
eur	-10.6963
Layout	-10.6964
▁Park	-10.6967
收入	-10.6971
models	-10.6972
优势	-10.6973
▁Over	-10.6974
▁ready	-10.6976
选	-10.6977
怎么	-10.6977
エ	-10.6977
▁fruit	-10.6979
▁town	-10.6983
▁client	-10.6985
mark	-10.6987
院	-10.6989
▁Figure	-10.699
Types	-10.6991
ors	-10.6993
props	-10.6997
▁clearly	-10.7001
六	-10.7004
اء	-10.7004
une	-10.7007
Dir	-10.701
▁hear	-10.7013
ン	-10.7014
▁introduced	-10.7015
cite	-10.7016
指导	-10.7017
ю	-10.7018
走	-10.7019
タ	-10.7021
▁أو	-10.7022
▁heard	-10.7023
С	-10.7024
▁suggests	-10.7029
▁court	-10.703
左右	-10.7032
tenschappelijke	-10.7033
写	-10.7036
▁Vi	-10.7041
▁heavy	-10.7042
▁metal	-10.7043
gAh	-10.7047
vec	-10.7049
▁formation	-10.705
▁Germany	-10.7054
公共	-10.7055
解	-10.7057
не	-10.7057
GET	-10.706
的是	-10.706
▁challenge	-10.706
more	-10.7067
力量	-10.7069
▁wild	-10.7071
工具	-10.7077
qui	-10.7077
▁})	-10.7079
real	-10.7079
虽然	-10.708
▁containing	-10.7081
项	-10.7083
mem	-10.7087
▁turned	-10.7087
ging	-10.709
يا	-10.7091
ball	-10.7095
▁Japan	-10.7096
的基本	-10.7096
コ	-10.7098
语言	-10.7101
任	-10.7105
sort	-10.7106
▁serve	-10.7112
经验	-10.7112
八	-10.7115
sin	-10.7123
ju	-10.7124
▁Примечания	-10.7131
ERROR	-10.7132
global	-10.7132
▁store	-10.7133
画	-10.7136
▁shift	-10.7138
▁है	-10.7139
是一个	-10.714
profile	-10.714
▁male	-10.714
▁regarding	-10.7142
ran	-10.7142
▁Internet	-10.7153
相对	-10.7154
▁strategy	-10.7161
马	-10.7162
gel	-10.7162
▁authors	-10.7172
▁adult	-10.7174
▁north	-10.7174
진	-10.7175
▁learned	-10.7177
方向	-10.7177
▁dead	-10.7182
▁travel	-10.7185
▁follows	-10.7191
▁Ar	-10.7196
ica	-10.7197
ج	-10.72
eg	-10.7201
▁records	-10.7201
▁technologies	-10.7202
现在拍	-10.7209
fold	-10.721
▁express	-10.721
ot	-10.7211
▁disorder	-10.7214
▁recommended	-10.7215
Delete	-10.7215
▁crucial	-10.7217
见	-10.7218
ins	-10.7223
eu	-10.7224
▁measured	-10.723
exp	-10.7231
RT	-10.7231
河	-10.7236
米	-10.7236
word	-10.7238
▁radio	-10.7238
▁perfect	-10.724
品	-10.7241
改变	-10.7242
意义	-10.7246
▁vision	-10.7248
▁zero	-10.7248
轻	-10.725
还可以	-10.7259
▁sort	-10.7261
():	-10.7268
An	-10.7269
▁aspects	-10.7269
毫升	-10.7273
white	-10.7274
▁properly	-10.7278
党的	-10.728
$(	-10.7296
ii	-10.7296
木	-10.7297
▁reality	-10.7299
▁genes	-10.7306
One	-10.7314
▁changing	-10.7317
▁mostly	-10.7318
▁fight	-10.7318
▁fear	-10.7319
명	-10.7321
▁Are	-10.7324
▁mouth	-10.7328
▁Association	-10.7328
) —	-10.7331
ev	-10.7333
▁года	-10.7334
Do	-10.7335
â	-10.7337
closed	-10.7337
创造	-10.7338
最终	-10.7339
▁College	-10.7339
▁إ	-10.7339
▁depression	-10.734
▁Pi	-10.7345
并且	-10.735
"))	-10.7354
▁plans	-10.7362
shadow	-10.7363
▁played	-10.7363
▁commercial	-10.7363
▁unless	-10.7369
▁Both	-10.7372
war	-10.7373
▁worth	-10.7377
升级	-10.7392
接受	-10.7392
▁decisions	-10.7394
▁olarak	-10.7397
Min	-10.7399
社会主义	-10.7399
Pos	-10.7402
try	-10.7403
核	-10.7406
▁depending	-10.7409
르	-10.7414
报	-10.7416
success	-10.7421
▁discussion	-10.7425
fc	-10.7431
items	-10.7431
战	-10.7434
▁carry	-10.7435
});	-10.7436
IF	-10.7438
water	-10.7445
▁charge	-10.7451
检查	-10.7458
▁interested	-10.7462
▁creation	-10.7463
您的订单	-10.7464
▁host	-10.7465
sta	-10.7465
▁هو	-10.7471
消费	-10.7473
观	-10.7474
▁load	-10.7477
▁operator	-10.7477
process	-10.7479
▁college	-10.7483
hover	-10.7487
达	-10.749
高校	-10.7494
Search	-10.7496
rat	-10.7499
ль	-10.7509
监督	-10.7512
▁birds	-10.7513
CS	-10.7514
色	-10.7515
▁assessment	-10.7515
Cache	-10.7517
占	-10.752
国内	-10.7523
制造	-10.7524
▁explore	-10.7526
甚至	-10.7529
dr	-10.7532
ino	-10.7533
▁relationships	-10.7534
▁respectively	-10.7535
xc	-10.7535
考虑	-10.7536
)]	-10.7537
bc	-10.7539
▁decided	-10.754
▁procedure	-10.7545
rc	-10.7548
pm	-10.7551
했다	-10.7552
▁reaction	-10.7556
▁south	-10.756
bash	-10.7569
▁upper	-10.757
по	-10.7572
mus	-10.7573
▁topic	-10.7588
Up	-10.7591
ré	-10.7592
▁estimated	-10.7594
Edit	-10.7594
▁Sun	-10.7594
▁Red	-10.7598
▁reducing	-10.76
Width	-10.7611
▁nor	-10.7614
First	-10.7615
明显	-10.7617
▁bone	-10.7619
▁enjoy	-10.7621
ской	-10.7624
Spec	-10.7626
군	-10.7629
▁hit	-10.7629
선	-10.7633
▁geldig	-10.7636
士	-10.7638
▁Class	-10.7639
▁manner	-10.7642
には	-10.7642
▁aren	-10.7643
して	-10.7649
提供了	-10.7652
ised	-10.7654
▁improved	-10.7656
▁efficiency	-10.7661
Num	-10.7666
Interface	-10.7668
▁Western	-10.767
ron	-10.7673
课	-10.7673
'),	-10.7675
人口	-10.7678
KrvE	-10.7678
ー	-10.7679
化学	-10.768
▁river	-10.7684
▁emissions	-10.7685
xf	-10.7687
lat	-10.7688
▁kept	-10.7691
造成	-10.7696
^"""	-10.7696
税	-10.7697
Description	-10.7699
▁couple	-10.7701
▁Air	-10.7702
▁Fa	-10.7705
▁wall	-10.7706
Var	-10.7709
▁approximately	-10.7715
▁frequently	-10.7717
니	-10.7721
软件	-10.7723
▁milk	-10.7724
▁academic	-10.7724
EMAIL	-10.7727
world	-10.7727
▁Christian	-10.7727
▁seven	-10.7727
oJ	-10.7737
IS	-10.7739
格	-10.7741
▁dem	-10.7744
▁news	-10.7747
Device	-10.7748
▁Sea	-10.7748
▁February	-10.775
采取	-10.7759
access	-10.7761
▁Math	-10.7762
▁tasks	-10.7768
mas	-10.7768
老	-10.7769
▁aware	-10.7772
强化	-10.7773
▁square	-10.7774
▁reduction	-10.7776
▁adding	-10.778
ın	-10.7783
▁involves	-10.779
▁Su	-10.7792
ный	-10.7795
Integer	-10.7795
▁수	-10.7801
▁organizations	-10.7804
▁external	-10.7807
▁truth	-10.7807
▁anxiety	-10.7809
단	-10.7818
▁whom	-10.7818
▁foreign	-10.7818
Unit	-10.7824
▁surgery	-10.7826
▁gender	-10.783
pass	-10.783
▁spend	-10.7832
역	-10.7835
ные	-10.7842
▁그	-10.7843
domain	-10.7843
互联网	-10.7849
受到	-10.785
wood	-10.7853
od	-10.7857
▁thousands	-10.7863
▁sex	-10.7864
▁rare	-10.7869
settings	-10.7877
▁hour	-10.7878
▁indicate	-10.7878
▁contribute	-10.7878
▁fresh	-10.7879
iv	-10.7882
▁DOORVERWIJZING	-10.7888
发展的	-10.7888
some	-10.7891
对象	-10.7893
▁advanced	-10.7895
gu	-10.7898
▁attempt	-10.7898
▁planet	-10.7899
ко	-10.79
hhE	-10.79
none	-10.7901
▁Lo	-10.7901
ZoJt	-10.7902
资产	-10.7903
法治	-10.7904
民主	-10.7904
▁believed	-10.7908
har	-10.7908
keys	-10.7908
榨汁	-10.791
Channel	-10.791
xa	-10.7911
▁becoming	-10.7914
榨果汁	-10.7914
马克思主义	-10.7914
[:	-10.7917
▁Bu	-10.7919
ズ	-10.7919
blob	-10.7921
ide	-10.7922
派	-10.7923
교	-10.7926
▁bottom	-10.7926
云	-10.7927
loc	-10.7929
土	-10.7932
效果	-10.7939
Fig	-10.7942
产	-10.7942
AL	-10.7943
▁star	-10.7944
TO	-10.7946
▁Today	-10.7947
▁happened	-10.7947
▁res	-10.7952
野	-10.7953
▁effectively	-10.7955
padding	-10.7958
reference	-10.796
是一种	-10.7961
星	-10.7962
端	-10.7963
▁depends	-10.7972
zu	-10.7972
▁stuff	-10.7973
除	-10.7978
▁promote	-10.7978
监管	-10.798
Parameter	-10.7982
▁injury	-10.7983
cap	-10.7985
Helper	-10.7989
des	-10.799
__(	-10.7991
▁leads	-10.7994
就业	-10.7995
经过	-10.7995
specific	-10.7997
▁template	-10.8002
MC	-10.8004
ez	-10.8005
▁Ke	-10.8008
ной	-10.8012
既	-10.8015
李	-10.8016
▁widely	-10.8017
不知	-10.8022
长期	-10.8022
van	-10.8023
▁Government	-10.8025
司法	-10.8025
Record	-10.8034
太	-10.8045
GL	-10.8046
▁completed	-10.8048
END	-10.805
～	-10.805
▁maybe	-10.8052
差	-10.8053
{	-10.8054
▁transfer	-10.8056
内部	-10.8058
▁stand	-10.8059
调查	-10.8064
ids	-10.8071
///	-10.8072
ME	-10.8074
▁diagnosis	-10.8074
PATH	-10.8083
gal	-10.8083
▁forest	-10.8084
경	-10.8084
▁enter	-10.8088
"#	-10.8089
ط	-10.809
aria	-10.8091
调	-10.8095
▁sexual	-10.81
▁Human	-10.8101
▁oxygen	-10.8101
There	-10.8102
ase	-10.8107
▁Japanese	-10.8109
首先	-10.811
ement	-10.8114
▁ANY	-10.8115
ification	-10.8118
レ	-10.8127
한다	-10.813
▁killed	-10.8133
)$	-10.8133
▁speech	-10.8135
▁Du	-10.8138
▁race	-10.8141
▁API	-10.8147
▁за	-10.8149
物质	-10.8149
▁motion	-10.815
手段	-10.8151
tools	-10.8151
▁externes	-10.8161
aliyun	-10.8164
ز	-10.817
▁advice	-10.8171
分子	-10.8181
▁survey	-10.8184
▁Ab	-10.8185
بر	-10.8186
only	-10.819
▁decades	-10.8192
▁causing	-10.8202
建议	-10.8207
▁Paris	-10.8208
SE	-10.8209
声	-10.8212
▁email	-10.8215
▁plus	-10.8215
抗	-10.8219
▁combined	-10.822
rest	-10.8221
▁IS	-10.8224
身	-10.8226
易	-10.8229
▁policies	-10.8231
申请	-10.8236
DE	-10.8237
▁novel	-10.8237
▁degrees	-10.8239
ée	-10.824
送	-10.824
LE	-10.8241
▁numerous	-10.8242
▁freedom	-10.8242
change	-10.8245
▁مع	-10.8247
Document	-10.8248
ä	-10.8249
▁Council	-10.825
非常	-10.8253
▁mis	-10.8257
cha	-10.8259
ら	-10.8259
解释	-10.8262
▁عن	-10.8262
引导	-10.8263
▁salt	-10.8263
ST	-10.8264
▁disorders	-10.8266
▁eight	-10.8268
Project	-10.8271
▁das	-10.8274
▁breast	-10.8275
它们	-10.8278
加快	-10.8283
▁il	-10.8287
So	-10.8288
▁Foundation	-10.8289
▁fit	-10.8289
农民	-10.8293
▁خارجية	-10.8294
属于	-10.8298
▁origin	-10.8298
这样	-10.8299
放	-10.83
▁Students	-10.83
半	-10.83
stop	-10.8301
Account	-10.8302
▁Children	-10.8303
▁spent	-10.8304
▁efficient	-10.8304
AI	-10.8305
Properties	-10.8307
った	-10.8308
impl	-10.831
反应	-10.8312
ato	-10.8312
免	-10.8315
分配	-10.8316
▁pages	-10.8317
▁showing	-10.832
音	-10.8321
ell	-10.8324
random	-10.8327
み	-10.8329
▁Liens	-10.8329
目的	-10.833
Fi	-10.8331
webkit	-10.8333
▁covered	-10.8334
この	-10.8337
ai	-10.8337
▁players	-10.8337
Settings	-10.8342
kin	-10.8343
av	-10.8344
−	-10.8347
▁notes	-10.8348
register	-10.8352
▁Museum	-10.8353
▁player	-10.8354
▁transport	-10.8357
▁looked	-10.8359
件商品	-10.836
原因	-10.836
整体	-10.836
超过	-10.8361
类型	-10.8361
群	-10.8362
▁White	-10.8362
▁ratio	-10.8363
▁tested	-10.8364
player	-10.8365
Player	-10.8365
▁INFO	-10.8367
jar	-10.837
▁minimum	-10.8371
初	-10.8372
▁medicine	-10.8373
设置	-10.8374
▁speak	-10.8377
▁count	-10.8377
▁rich	-10.8378
▁Ta	-10.8378
シ	-10.8379
room	-10.8379
安排优先发货	-10.838
▁experiment	-10.838
INT	-10.8381
▁Open	-10.8382
拍哦	-10.8382
▁А	-10.8384
▁errors	-10.8387
▁Film	-10.8391
现象	-10.8391
chat	-10.8392
▁loop	-10.8394
▁morning	-10.8397
▁proteins	-10.8398
▁Robert	-10.84
▁garden	-10.8401
▁spring	-10.8402
ding	-10.8403
dim	-10.8404
▁round	-10.8405
'])	-10.8412
Left	-10.8413
AD	-10.8414
gif	-10.8414
fmt	-10.8416
clear	-10.8418
若	-10.8422
Activity	-10.8422
▁Art	-10.8423
▁emotional	-10.8425
▁represents	-10.8427
Next	-10.8428
稳定	-10.8429
要素	-10.843
目	-10.8433
▁Green	-10.8433
指标	-10.8435
mock	-10.8435
▁populations	-10.8437
▁meeting	-10.8438
DR	-10.8439
▁organic	-10.8442
开放	-10.8447
▁talking	-10.8448
算法	-10.8449
Height	-10.845
关键	-10.8451
Run	-10.8452
▁voice	-10.8453
cloudvideo	-10.8454
▁advantage	-10.8454
category	-10.8456
深入	-10.8458
融合	-10.8463
(*	-10.8463
▁Like	-10.8464
▁ISBN	-10.8465
ls	-10.8468
说明	-10.8468
ola	-10.8469
フ	-10.8469
▁dogs	-10.8475
▁allowing	-10.8475
▁bodies	-10.8478
arch	-10.8479
Template	-10.848
ants	-10.848
render	-10.848
▁configuration	-10.8483
每	-10.8484
▁experienced	-10.8484
▁wurde	-10.8487
▁sets	-10.8493
ata	-10.8494
sample	-10.8497
²	-10.8498
▁Social	-10.85
▁Development	-10.8501
远	-10.8502
独立	-10.8503
Utils	-10.8504
▁selection	-10.8505
위	-10.851
▁classroom	-10.8512
数学	-10.8514
pin	-10.8514
iter	-10.8519
室	-10.852
ning	-10.8521
plot	-10.8522
▁Google	-10.8525
ей	-10.8526
▁risks	-10.8527
ste	-10.8528
▁helped	-10.8529
意识	-10.853
充分	-10.8533
改	-10.8533
▁Court	-10.8535
▁Land	-10.8537
when	-10.8542
火	-10.8544
继续	-10.8544
job	-10.8544
EC	-10.8544
▁gold	-10.8546
▁transition	-10.8547
▁collected	-10.8548
承担	-10.8549
▁Inc	-10.855
▁مواليد	-10.855
▁Lu	-10.855
▁leaders	-10.8552
作者	-10.8555
android	-10.8556
xff	-10.8556
▁sentence	-10.8556
▁discuss	-10.8557
▁refer	-10.8558
修	-10.8565
▁reached	-10.8566
▁village	-10.8567
订单号	-10.8569
▁linked	-10.8573
sys	-10.8577
理念	-10.8577
bed	-10.8578
改善	-10.858
比如	-10.8586
elle	-10.8587
▁nuclear	-10.8587
▁valid	-10.8589
DC	-10.859
cli	-10.8597
百	-10.8602
▁career	-10.8611
需要尽早	-10.8614
Thread	-10.8617
文学	-10.8618
▁交易时间	-10.862
售后无忧	-10.862
可以随时咨询我们的	-10.862
中有不懂的	-10.8621
ven	-10.8622
logger	-10.8623
性能	-10.8627
▁links	-10.8627
문	-10.8627
▁mainly	-10.8628
interface	-10.8628
Handle	-10.8629
타	-10.863
当事人	-10.8632
大量	-10.8633
Frame	-10.8637
Co	-10.8639
满	-10.864
▁urban	-10.8641
Window	-10.8644
绿色	-10.8647
传播	-10.8649
vin	-10.8653
▁teach	-10.866
群众	-10.8662
▁myself	-10.8664
亲亲有	-10.8665
成果	-10.8666
立法	-10.867
确保	-10.867
################	-10.8671
▁specifically	-10.8671
lg	-10.8673
药	-10.8673
随时随地	-10.8674
з	-10.8675
▁phone	-10.8675
▁pick	-10.8681
▁Well	-10.8685
ло	-10.8686
cor	-10.8691
贸易	-10.8693
MAX	-10.8693
此外	-10.8693
▁ms	-10.8695
sal	-10.8695
bytes	-10.8696
▁identity	-10.8706
ey	-10.8707
nil	-10.8707
FILE	-10.871
▁IN	-10.8711
▁agreed	-10.8714
很	-10.8716
ks	-10.8716
讲	-10.8717
▁concentration	-10.8721
て	-10.8735
dom	-10.8744
%,	-10.8744
オ	-10.8747
食材	-10.8749
IC	-10.8752
▁plastic	-10.8753
ü	-10.8755
Assert	-10.8755
▁op	-10.8758
▁Jewish	-10.8758
▁Any	-10.8759
tal	-10.8761
itis	-10.8762
mask	-10.8763
ار	-10.8764
▁subjects	-10.8764
拉	-10.8767
nya	-10.8768
да	-10.8771
ş	-10.8771
phone	-10.8772
▁pen	-10.8772
却	-10.8773
power	-10.8777
▁settings	-10.8778
만	-10.8778
▁agree	-10.8778
pad	-10.878
信号	-10.8782
▁kill	-10.8786
stat	-10.8789
적	-10.8793
每个	-10.8793
▁Review	-10.8796
▁studied	-10.8796
▁wasn	-10.8797
‘	-10.8797
하고	-10.8797
▁Israel	-10.88
▁conflict	-10.88
▁android	-10.8801
▁####	-10.8801
▁Information	-10.8803
▁knew	-10.8805
版	-10.8806
交流	-10.8808
▁manage	-10.8809
▁iron	-10.8809
▁switch	-10.8816
严重	-10.882
根	-10.8831
家庭	-10.8832
案	-10.8833
yo	-10.8837
▁calls	-10.884
戦	-10.8841
早	-10.8842
那么	-10.8844
foo	-10.8847
rb	-10.8848
▁faster	-10.8849
▁Project	-10.8849
▁temperatures	-10.8849
big	-10.8849
▁Thomas	-10.8854
▁civil	-10.8857
LOG	-10.8857
ud	-10.8857
秒一	-10.886
▁shared	-10.8861
压	-10.8863
▁referred	-10.8864
▁happy	-10.8866
好喝有营养	-10.8866
鲜果汁	-10.8866
电力十足	-10.8867
▁radiation	-10.8867
无线便携	-10.8868
UN	-10.8868
喝呢	-10.8868
▁我给您推荐一款	-10.8868
JSON	-10.887
ele	-10.8871
▁Bar	-10.8873
▁als	-10.8873
Hash	-10.8874
▁Es	-10.8874
ми	-10.8876
▁electricity	-10.8876
ens	-10.8878
α	-10.8878
fr	-10.8882
де	-10.8886
lab	-10.8888
modal	-10.8891
PE	-10.8891
一定	-10.8896
依法	-10.8901
]]	-10.8902
▁Island	-10.8906
▁famous	-10.891
▁feed	-10.8913
▁entry	-10.8914
然而	-10.8915
的研究	-10.8917
校	-10.8918
▁violence	-10.893
▁suggested	-10.8932
zo	-10.8933
국	-10.8935
он	-10.8936
▁concerns	-10.8937
计算机	-10.894
▁infections	-10.8942
减	-10.8942
▁decrease	-10.8946
ан	-10.8951
window	-10.8951
启动	-10.8952
Storage	-10.8953
ı	-10.8953
layout	-10.8955
语	-10.8955
▁Em	-10.896
Cell	-10.896
region	-10.896
components	-10.8963
▁claim	-10.8967
农	-10.8969
▁outcomes	-10.897
AP	-10.8972
full	-10.8972
委员会	-10.8978
``	-10.898
短	-10.8981
▁rock	-10.8984
required	-10.8985
协调	-10.8985
EN	-10.8986
▁mice	-10.8987
▁motor	-10.8987
Load	-10.8988
▁wife	-10.8988
▁recorded	-10.8988
Util	-10.8989
适用	-10.8989
أ	-10.8992
地位	-10.8994
users	-10.8994
require	-10.8994
ical	-10.8999
▁ideal	-10.9
ano	-10.9002
ّ	-10.9003
▁station	-10.9003
▁throws	-10.9006
▁missing	-10.9006
dia	-10.9008
▁select	-10.9009
依据	-10.9012
phi	-10.9012
▁stored	-10.9014
act	-10.9015
居	-10.9016
Param	-10.9016
涉及	-10.9017
▁About	-10.9018
isation	-10.9021
License	-10.9031
符合	-10.9037
什么	-10.9039
文明	-10.904
性的	-10.904
diff	-10.9042
▁concern	-10.9044
▁dangerous	-10.9047
▁sounds	-10.9047
CA	-10.9048
▁HIV	-10.9054
▁hearing	-10.9055
lines	-10.9057
▁police	-10.9057
ь	-10.9062
لي	-10.9062
TH	-10.9065
Repository	-10.9065
axis	-10.9069
的呼唤	-10.9069
bu	-10.9071
▁occurred	-10.9071
员	-10.9073
▁vs	-10.9073
FC	-10.9075
berg	-10.9077
▁principles	-10.9078
▁practical	-10.9078
Local	-10.908
▁intended	-10.908
▁concepts	-10.908
江	-10.908
PR	-10.9084
addr	-10.9086
▁noted	-10.9087
entity	-10.9088
▁matrix	-10.9089
cp	-10.9089
▁exposed	-10.9095
▁board	-10.91
▁exists	-10.9101
دي	-10.9102
脚踩	-10.9105
Current	-10.9107
▁Com	-10.9108
▁Asia	-10.9109
▁Finally	-10.9111
速赶	-10.9112
查询	-10.9117
有什么顾虑	-10.9117
小可爱说	-10.9119
茫茫人海	-10.912
风火轮	-10.912
真是极	-10.912
有缘份	-10.912
有什么可以帮助您的	-10.912
▁exit	-10.9121
听到您	-10.9121
▁立马	-10.9121
您选择我们	-10.9122
ص	-10.9122
▁wish	-10.9123
Bsq	-10.9124
vm	-10.9125
请	-10.9126
btMW	-10.9127
▁嗨	-10.9127
构成	-10.9128
▁directory	-10.9129
还有	-10.9129
▁Der	-10.913
▁frame	-10.9132
▁slightly	-10.9133
▁lived	-10.9139
像	-10.9139
ique	-10.914
Operation	-10.9141
zi	-10.9142
▁recommend	-10.9142
▁chain	-10.9143
wrap	-10.9147
med	-10.9148
Host	-10.9157
▁Free	-10.9159
MM	-10.9163
lambda	-10.9164
整个	-10.9164
계	-10.9167
▁Learning	-10.9167
▁buildings	-10.9169
ма	-10.917
▁accurate	-10.9173
▁algorithm	-10.9176
Rule	-10.9176
▁Congress	-10.918
▁experiments	-10.9184
han	-10.9184
认识	-10.9186
▁official	-10.9186
扩大	-10.9186
오	-10.9187
函数	-10.9188
mac	-10.9194
▁fill	-10.9194
▁au	-10.9201
仅	-10.9204
成功	-10.9206
实行	-10.9207
hand	-10.9208
的主要	-10.9217
ى	-10.922
β	-10.922
▁peace	-10.9221
되었다	-10.9221
▁interaction	-10.9223
权利	-10.9226
▁Si	-10.9226
delta	-10.9231
▁helping	-10.9232
카	-10.9235
越	-10.9236
▁wait	-10.9237
▁uma	-10.9237
face	-10.925
ـ	-10.9252
ет	-10.9252
관	-10.9254
▁battle	-10.9256
svg	-10.926
直	-10.926
bg	-10.9263
▁بال	-10.9264
'))	-10.9272
▁Life	-10.9273
ura	-10.9273
优惠	-10.9273
ش	-10.9275
topic	-10.9276
义	-10.9278
▁industrial	-10.9281
custom	-10.9285
▁extent	-10.9288
财产	-10.9292
▁certainly	-10.9293
POST	-10.9294
思维	-10.9296
▁absolute	-10.9298
desc	-10.9306
)))	-10.9308
▁perspective	-10.9312
▁Law	-10.9313
一是	-10.9314
ра	-10.9315
sync	-10.9316
dot	-10.9316
▁watch	-10.9317
▁extreme	-10.9318
uit	-10.9319
returns	-10.932
▁detailed	-10.932
ん	-10.9323
kg	-10.9323
▁density	-10.9324
PS	-10.9325
豆浆	-10.9328
▁credit	-10.9328
▁purposes	-10.9332
▁approaches	-10.9334
▁served	-10.9334
▁pieces	-10.9336
mes	-10.9336
领导	-10.9338
▁Central	-10.9344
DATA	-10.9346
药膳	-10.9353
▁Pa	-10.9355
See	-10.9356
▁lose	-10.9358
的历史	-10.9359
account	-10.9359
▁Thanks	-10.9359
▁jobs	-10.9361
▁fundamental	-10.9362
▁Ad	-10.9365
然后	-10.9368
▁particles	-10.9369
ser	-10.9369
▁walk	-10.9369
Menu	-10.937
ological	-10.9371
还没有收到	-10.9374
▁cool	-10.9374
女	-10.9375
те	-10.9377
Params	-10.9378
▁几口人	-10.9381
合理	-10.9385
ien	-10.9387
属	-10.9387
感谢亲	-10.9388
▁despite	-10.9394
行动	-10.9394
노	-10.9395
西方	-10.9395
▁mechanism	-10.9397
fit	-10.9398
tle	-10.94
▁vitamin	-10.94
ita	-10.9403
▁Check	-10.9404
新时代	-10.9404
▁sustainable	-10.9405
基因	-10.9408
▁liver	-10.941
▁ice	-10.9412
▁الت	-10.9412
":"	-10.9413
plugin	-10.9414
▁languages	-10.9418
▁Weblinks	-10.942
proc	-10.9424
▁Russian	-10.9425
▁wear	-10.9425
▁operating	-10.9426
▁situations	-10.9427
ミ	-10.9431
相互	-10.9432
ما	-10.9432
▁photo	-10.9434
testing	-10.9436
▁electric	-10.9436
防	-10.9436
vel	-10.9438
▁전	-10.9439
▁Б	-10.944
▁meant	-10.9441
ong	-10.9441
layer	-10.9447
air	-10.9447
ries	-10.945
▁president	-10.9451
▁religion	-10.9451
哲学	-10.9451
法院	-10.9452
表达	-10.9453
▁linear	-10.9456
tre	-10.9456
传	-10.9462
▁arguments	-10.9465
ле	-10.9467
호	-10.9468
▁Spanish	-10.9469
connection	-10.9469
兵	-10.9472
▁Ru	-10.9473
吧	-10.9474
flex	-10.9474
Long	-10.9475
素	-10.9476
而是	-10.9477
▁potentially	-10.9477
Al	-10.9478
prototype	-10.9479
▁qui	-10.9481
▁corresponding	-10.9483
보	-10.9488
▁electrical	-10.949
sky	-10.949
▁"<	-10.9494
求	-10.9495
equals	-10.9495
段	-10.9497
pen	-10.95
connect	-10.95
失	-10.9501
获取	-10.9501
dar	-10.9502
rel	-10.9504
某	-10.9504
Icon	-10.9507
作出	-10.9507
逻辑	-10.9509
最后	-10.951
地址	-10.9512
す	-10.9514
している	-10.9517
종	-10.9519
NS	-10.9519
Card	-10.9525
▁counter	-10.9532
kf	-10.9533
▁engineering	-10.9534
▁discussed	-10.9537
特别是	-10.954
▁"${	-10.9542
▁km	-10.9542
▁Retrieved	-10.9545
Me	-10.9549
志	-10.9549
release	-10.955
▁successfully	-10.9551
▁Who	-10.9551
hidden	-10.9552
Job	-10.9554
▁prepared	-10.9554
▁warm	-10.9556
▁Program	-10.9559
such	-10.956
Close	-10.9561
▁Tri	-10.9562
▁labor	-10.9563
配置	-10.9568
ह	-10.957
Reader	-10.9573
Definition	-10.9575
成立	-10.9579
II	-10.958
mann	-10.9582
▁helpful	-10.9582
连接	-10.9582
toString	-10.9582
▁onto	-10.9585
то	-10.9586
▁Saint	-10.9589
▁Instead	-10.9591
ds	-10.9591
ig	-10.9598
▁Men	-10.9599
▁Ben	-10.96
▁expressed	-10.96
年代	-10.9602
ob	-10.9602
支付	-10.9605
small	-10.9605
资料	-10.9606
▁annual	-10.9606
ского	-10.9613
▁stream	-10.9614
小客服看下呢	-10.9615
适应	-10.9616
▁focused	-10.9617
▁experts	-10.9618
▁amounts	-10.9621
场	-10.9622
×	-10.9625
ara	-10.963
▁К	-10.9634
リー	-10.9638
",	-10.964
ari	-10.964
▁Such	-10.9644
ão	-10.9644
旧	-10.9644
▁Bay	-10.9645
Offset	-10.9646
Async	-10.9647
▁evolution	-10.9647
▁consistent	-10.9649
啊	-10.965
▁raised	-10.9651
anti	-10.9653
ウ	-10.9654
▁abuse	-10.9656
Root	-10.9656
履行	-10.9659
fl	-10.966
network	-10.9662
PA	-10.9663
▁straight	-10.9664
zip	-10.9665
通信	-10.9666
ий	-10.9667
Per	-10.9667
▁Yes	-10.9667
集中	-10.9667
▁monitoring	-10.967
▁comparison	-10.967
つ	-10.9671
▁domain	-10.9672
pool	-10.9672
二是	-10.9674
TR	-10.9675
nes	-10.9677
货币	-10.9682
mic	-10.9684
loss	-10.9684
त	-10.9685
武	-10.9685
help	-10.9688
}{\	-10.9689
膜	-10.9697
व	-10.9698
培训	-10.9699
▁제	-10.97
朝	-10.9702
▁medium	-10.9704
lay	-10.9706
▁Greek	-10.9707
▁className	-10.9708
期间	-10.9708
sign	-10.9708
drop	-10.9708
called	-10.9709
▁wood	-10.9711
▁Texas	-10.9712
هو	-10.9715
gr	-10.9715
Pre	-10.9716
▁opinion	-10.9723
▁edge	-10.9723
核心	-10.9725
▁internet	-10.9726
▁Hi	-10.9727
ky	-10.9729
▁meat	-10.9733
▁beautiful	-10.9734
▁enable	-10.9739
▁liquid	-10.9741
中国共产党	-10.9743
▁technical	-10.9745
支撑	-10.9746
▁False	-10.9746
进行了	-10.9748
▁Long	-10.9749
las	-10.9752
特点	-10.9752
▁Po	-10.9753
的哦亲	-10.9754
分类	-10.9762
▁appearance	-10.977
难	-10.9772
vert	-10.9773
▁Take	-10.9775
record	-10.9778
▁grade	-10.978
▁empty	-10.9782
教授	-10.9783
zen	-10.9784
▁Mac	-10.9786
复杂	-10.9786
▁Its	-10.9787
▁AI	-10.9787
SC	-10.9788
MA	-10.9791
tri	-10.9793
▁noise	-10.9794
▁divided	-10.9796
▁networks	-10.9796
キ	-10.9799
小时	-10.9801
规律	-10.9802
チ	-10.9803
Parameters	-10.9804
较	-10.9805
When	-10.9806
▁revealed	-10.981
you	-10.9813
▁при	-10.9813
▁forced	-10.9814
▁Technology	-10.9815
想	-10.9819
lik	-10.982
acc	-10.9821
gate	-10.9826
两用	-10.9826
限制	-10.9827
Right	-10.9832
ney	-10.9833
प	-10.9834
rus	-10.9837
▁joint	-10.9839
▁vehicle	-10.9843
▁NOT	-10.9843
う	-10.9844
ор	-10.9847
batch	-10.9848
▁{@	-10.9848
▁district	-10.9852
快速	-10.9853
测量	-10.9854
突出	-10.9854
report	-10.9863
▁Read	-10.9864
hl	-10.9865
很多	-10.9866
ول	-10.9868
▁Peter	-10.9869
expected	-10.987
Mock	-10.9871
▁유	-10.9873
▁seeds	-10.9874
▁symbol	-10.9876
▁worse	-10.9879
ных	-10.988
Policy	-10.9881
▁excellent	-10.9885
▁hospital	-10.9886
▁trust	-10.9889
normal	-10.9891
exec	-10.9893
▁quick	-10.9894
年に	-10.9895
▁ocean	-10.9897
▁الع	-10.9897
Schema	-10.9898
ag	-10.9903
▁session	-10.9904
商品	-10.9906
▁island	-10.9909
bl	-10.9909
▁soft	-10.9912
Krp	-10.9913
BC	-10.9916
Obj	-10.9917
pur	-10.9917
干	-10.9917
▁custom	-10.9918
说嘛	-10.9918
▁whatever	-10.9918
その	-10.992
晒图	-10.992
可以给您的	-10.9921
▁route	-10.9924
▁math	-10.9931
夫	-10.9931
install	-10.9934
{"	-10.9936
면	-10.9938
city	-10.9948
conv	-10.9949
quot	-10.9953
ris	-10.9953
上述	-10.9955
lic	-10.9957
激发	-10.9957
▁Good	-10.9959
▁Ka	-10.996
费	-10.9961
▁cat	-10.9961
▁latest	-10.9962
▁[[	-10.9969
unsigned	-10.997
物理	-10.9973
dl	-10.9974
▁primarily	-10.9975
Tab	-10.9978
Expression	-10.9978
exit	-10.998
green	-10.998
▁vaccine	-10.998
star	-10.9982
犯罪	-10.9983
▁Create	-10.9984
▁vital	-10.9985
▁existence	-10.9993
儿童	-10.9994
▁Charles	-10.9994
ث	-10.9997
▁healthcare	-10.9997
▁offered	-10.9999
▁institutions	-11.0001
된	-11.0002
▁rel	-11.0002
▁branch	-11.0003
判断	-11.0006
life	-11.0008
azure	-11.001
FS	-11.001
▁async	-11.0012
▁USA	-11.0012
ま	-11.0015
Parser	-11.0016
▁Will	-11.0017
storage	-11.0024
▁equivalent	-11.0026
▁App	-11.0027
▁score	-11.0028
component	-11.003
证明	-11.0039
▁explained	-11.004
及时	-11.0042
▁Anti	-11.0043
▁keeping	-11.0048
CI	-11.0048
列	-11.0049
死	-11.005
▁cognitive	-11.0054
▁atmosphere	-11.0055
▁Software	-11.0056
师	-11.0057
tin	-11.0057
Listener	-11.0058
▁survival	-11.0059
But	-11.006
▁continues	-11.0061
sing	-11.0062
ро	-11.0069
language	-11.0072
▁platform	-11.0074
ッ	-11.0074
short	-11.0077
而言	-11.0081
七	-11.0082
role	-11.0084
▁attacks	-11.0085
策略	-11.0087
신	-11.0089
的作用	-11.0091
帮助	-11.0092
Grid	-11.0094
亚	-11.0094
▁pollution	-11.0094
▁Add	-11.0095
▁thoughts	-11.0097
▁consequences	-11.0098
▁encourage	-11.0099
族	-11.01
▁drink	-11.0109
▁sector	-11.0111
route	-11.0114
manager	-11.0116
づ	-11.0118
血	-11.0119
▁citizens	-11.0119
甲	-11.012
▁usage	-11.012
▁Ro	-11.0128
▁glass	-11.0128
▁awareness	-11.0132
学者	-11.0132
SI	-11.0132
▁Kaynakça	-11.0133
az	-11.0133
▁−	-11.0134
▁exchange	-11.0136
▁seek	-11.0136
▁responses	-11.0136
widget	-11.0136
being	-11.0139
▁Dis	-11.0141
训练	-11.0143
▁visible	-11.015
脑	-11.0151
▁mission	-11.0157
▁valuable	-11.0158
Go	-11.0159
under	-11.016
智慧	-11.0162
识别	-11.0162
Msg	-11.0163
qua	-11.0164
security	-11.0164
SIZE	-11.0167
好呀	-11.0168
Auto	-11.0169
片	-11.0173
千	-11.0173
小客服	-11.0179
▁التي	-11.0179
▁illness	-11.018
重视	-11.018
交通	-11.018
체	-11.0181
▁seeing	-11.0184
碳	-11.0185
很满意	-11.0186
▁Vol	-11.0186
DS	-11.0189
Option	-11.019
article	-11.0195
罪	-11.0197
▁foot	-11.0198
▁Mexico	-11.0198
양	-11.0203
nın	-11.0205
tel	-11.0207
▁opening	-11.0207
lim	-11.0214
ische	-11.0216
▁Microsoft	-11.0216
住	-11.0219
코	-11.0224
▁wants	-11.0225
件	-11.0227
▁Medical	-11.0229
aws	-11.0233
sym	-11.0233
记录	-11.0234
▁Bi	-11.0236
▁syndrome	-11.0237
曲	-11.0239
▁fluid	-11.0239
▁consists	-11.0241
▁articles	-11.0242
queue	-11.0242
even	-11.0243
▁Before	-11.0245
fields	-11.0245
▁remained	-11.0245
▁leaving	-11.0247
ニ	-11.0247
하	-11.025
ast	-11.0252
rot	-11.0253
▁pull	-11.0256
▁Par	-11.0258
例	-11.0258
lip	-11.0259
Build	-11.0259
▁sides	-11.0264
重新	-11.0265
▁authority	-11.0269
▁fix	-11.027
RA	-11.0273
▁Te	-11.0275
▁sum	-11.0279
▁drop	-11.028
▁limitations	-11.028
▁pada	-11.0286
ban	-11.0286
▁principal	-11.0288
预测	-11.0289
ico	-11.0289
正在	-11.0289
▁Mary	-11.0293
▁Home	-11.0294
upload	-11.0296
figure	-11.0299
▁Furthermore	-11.0299
price	-11.0299
的追求	-11.03
词	-11.03
CT	-11.0301
▁traffic	-11.0302
docker	-11.0306
Game	-11.0307
逐步	-11.0307
Step	-11.0307
yan	-11.0311
サ	-11.0311
ford	-11.0311
cin	-11.0311
▁rapid	-11.0317
making	-11.0321
▁Food	-11.0322
▁topics	-11.0323
how	-11.0325
switch	-11.0326
投入	-11.0327
‐	-11.0331
▁letters	-11.0331
▁functional	-11.0334
asi	-11.0335
ace	-11.0335
Profile	-11.0335
▁girls	-11.0338
宝	-11.0339
落实	-11.034
下降	-11.034
band	-11.0343
Figure	-11.0343
gro	-11.0344
▁exception	-11.0345
TS	-11.0346
▁По	-11.0348
▁della	-11.0349
▁seed	-11.035
etc	-11.0353
▁Every	-11.0354
ни	-11.0355
▁remote	-11.0356
▁Windows	-11.0358
Ptr	-11.0361
▁refers	-11.0362
▁treatments	-11.0364
本文	-11.0366
▁flag	-11.0367
▁drinking	-11.037
ди	-11.0372
归	-11.0372
▁framework	-11.0373
▁parallel	-11.0374
更多	-11.0375
gov	-11.0382
导	-11.0385
输入	-11.0386
▁starts	-11.0386
保温	-11.0387
▁accept	-11.0387
nde	-11.0393
Values	-11.0395
▁returns	-11.0395
ero	-11.0398
▁Only	-11.0399
공	-11.04
▁paid	-11.0401
errors	-11.0402
في	-11.0402
▁engine	-11.0404
视	-11.0404
▁professor	-11.0406
不足	-11.0407
团队	-11.0408
Matrix	-11.0409
about	-11.0409
守	-11.0409
界	-11.0412
挑战	-11.0416
讨论	-11.0417
▁largely	-11.0418
pull	-11.0418
布	-11.0419
ane	-11.0426
▁hundred	-11.0434
▁detection	-11.0436
▁responsibility	-11.0439
▁journey	-11.0441
配	-11.0442
黄	-11.0444
▁investment	-11.0445
inner	-11.0445
▁unknown	-11.0449
arrow	-11.045
▁train	-11.0453
Font	-11.0453
▁reflect	-11.0455
▁exact	-11.0455
的关系	-11.0458
loop	-11.0463
EL	-11.0463
不可	-11.0464
▁installed	-11.0464
仍	-11.0464
▁году	-11.0465
material	-11.0467
▁conservation	-11.0468
osis	-11.0468
lit	-11.0468
▁percentage	-11.0469
Impl	-11.0475
结	-11.0476
▁touch	-11.0476
xd	-11.0477
▁homes	-11.0477
读	-11.048
▁query	-11.0481
tech	-11.0484
oc	-11.0486
Stack	-11.0488
LICENSE	-11.0488
Database	-11.0488
▁Cor	-11.0488
▁band	-11.0489
▁feelings	-11.0489
连	-11.0492
▁Second	-11.0492
토	-11.0492
▁doubt	-11.0494
▁Power	-11.0494
하여	-11.0496
▁begins	-11.0496
ग	-11.0497
▁Despite	-11.0498
▁Lake	-11.0499
联合	-11.05
ノ	-11.0501
tg	-11.0501
来说	-11.0505
提出了	-11.0511
via	-11.0512
▁Moreover	-11.0512
bal	-11.0513
pan	-11.0513
▁plays	-11.0513
ного	-11.0514
▁southern	-11.0515
당	-11.0515
high	-11.0515
ach	-11.0516
Script	-11.0518
▁channel	-11.0523
登记	-11.0524
cho	-11.0524
para	-11.0526
▁kinds	-11.0528
Use	-11.0529
▁Does	-11.0532
缺乏	-11.0534
▁Answer	-11.0534
och	-11.0544
▁suitable	-11.0545
Product	-11.0547
학	-11.0549
fully	-11.0554
▁typical	-11.0555
▁floor	-11.0556
Custom	-11.0559
mel	-11.056
▁derived	-11.0561
▁Ser	-11.0566
▁про	-11.0566
联	-11.0566
正常	-11.0567
▁Mi	-11.057
oyoung	-11.0571
广泛	-11.0573
night	-11.0573
team	-11.0574
▁expensive	-11.0574
▁click	-11.0577
财政	-11.0577
arm	-11.0579
▁evaluation	-11.058
▁emergency	-11.0581
▁filter	-11.0581
ти	-11.0583
▁remaining	-11.0583
ante	-11.0584
▁Bio	-11.0585
数量	-11.0586
宗	-11.0587
▁detect	-11.0587
▁LJ	-11.059
不会	-11.0591
▁surrounding	-11.0592
▁NASA	-11.0601
SA	-11.0602
▁Have	-11.0603
▁los	-11.0605
EP	-11.061
▁controlled	-11.061
▁port	-11.0611
λ	-11.0612
bound	-11.0612
▁entirely	-11.0615
▁True	-11.0621
监测	-11.0622
;&	-11.0624
▁updated	-11.0627
一次	-11.0628
▁bright	-11.0629
▁yılında	-11.0636
▁implemented	-11.0639
▁faith	-11.064
aries	-11.0642
乐	-11.0642
trans	-11.0642
▁infrastructure	-11.0643
▁massive	-11.0644
書	-11.0646
▁recovery	-11.0648
▁driving	-11.0648
CF	-11.0649
ии	-11.0649
▁diverse	-11.0655
谢谢	-11.0658
▁leader	-11.0658
道德	-11.0659
ole	-11.066
services	-11.0661
▁indicates	-11.0661
▁zu	-11.0663
▁affects	-11.0664
ose	-11.0667
pop	-11.0668
schema	-11.0671
ified	-11.0672
area	-11.0672
tain	-11.0673
バ	-11.0676
分别	-11.0677
▁taught	-11.0678
eo	-11.0678
▁evaluate	-11.0679
ischen	-11.0683
ves	-11.0683
ward	-11.0685
▁Women	-11.0686
▁northern	-11.0687
protobuf	-11.0687
▁wouldn	-11.0691
▁prepare	-11.0692
nie	-11.0692
Arg	-11.0693
til	-11.0695
首	-11.0696
▁implement	-11.0697
避免	-11.07
▁messages	-11.0701
▁gone	-11.0704
cher	-11.0704
▁twice	-11.0706
ブ	-11.0709
rows	-11.0711
▁mixed	-11.0711
oma	-11.0711
▁eggs	-11.0711
松	-11.0713
tive	-11.0713
month	-11.0715
▁su	-11.0717
lect	-11.0718
kel	-11.0718
余	-11.0722
cluster	-11.0725
倍	-11.0725
يون	-11.0727
▁Ja	-11.0728
需	-11.073
▁aim	-11.0735
Graph	-11.0736
红	-11.0736
blue	-11.0737
Return	-11.074
move	-11.0743
MP	-11.0744
할	-11.0744
▁opened	-11.0745
职业	-11.0746
▁biological	-11.0746
ew	-11.0747
复	-11.075
▁Medicine	-11.0751
▁farmers	-11.0752
▁fail	-11.0752
force	-11.0754
ский	-11.0755
за	-11.0755
流程	-11.076
aux	-11.0761
wrapper	-11.0762
▁tips	-11.0762
procedure	-11.0765
▁assume	-11.0765
▁Mal	-11.0767
▁army	-11.077
▁familiar	-11.0771
helper	-11.0772
MO	-11.0774
▁secondary	-11.0778
Float	-11.0779
▁till	-11.078
ин	-11.0781
技能	-11.0782
▁procedures	-11.0783
무	-11.0784
als	-11.0786
xb	-11.0787
FF	-11.0787
illa	-11.0788
▁trial	-11.0789
▁Kar	-11.0789
inter	-11.079
하였다	-11.0792
DA	-11.0792
▁sold	-11.0793
小时预约	-11.0793
▁campaign	-11.0794
有利于	-11.0797
▁extension	-11.0798
▁Azure	-11.0801
Auth	-11.0805
▁resolution	-11.0805
}/	-11.0807
▁Those	-11.0809
bra	-11.081
▁appeared	-11.0811
results	-11.0811
Callback	-11.0817
▁lesson	-11.082
不要	-11.082
▁Chi	-11.0821
Process	-11.0821
▁possibly	-11.0823
ual	-11.0824
▁prices	-11.083
▁mobile	-11.0834
bd	-11.0836
▁comprehensive	-11.0839
▁accuracy	-11.0841
定时	-11.0842
▁Mu	-11.0845
难以	-11.0845
▁periods	-11.0846
▁draw	-11.0846
ğ	-11.0848
学院	-11.085
Category	-11.085
▁transmission	-11.0851
▁threat	-11.0856
pkg	-11.0858
证	-11.0859
▁achieved	-11.086
事业	-11.0863
▁demonstrated	-11.0865
ная	-11.0868
▁pp	-11.087
来源	-11.087
AC	-11.087
tz	-11.0873
▁impossible	-11.0873
DNA	-11.0874
努力	-11.0877
▁Studies	-11.0877
▁documents	-11.0882
存储	-11.0882
Init	-11.0882
▁vol	-11.0883
▁Sp	-11.0883
方便	-11.0884
known	-11.0885
▁auch	-11.0886
▁'<	-11.0887
▁persons	-11.0891
limit	-11.0893
▁Natural	-11.0894
▁Henry	-11.0894
포	-11.0895
故	-11.0898
证据	-11.09
▁vegetables	-11.0902
▁whereas	-11.0904
▁portion	-11.0905
OP	-11.0908
▁employees	-11.0908
agent	-11.091
uz	-11.0911
▁mechanisms	-11.0914
ben	-11.0915
药物	-11.0915
ld	-11.0919
Debug	-11.0927
▁guess	-11.0927
equation	-11.0928
▁Sie	-11.0929
▁Ri	-11.093
▁wave	-11.093
▁plt	-11.0931
▁listed	-11.0936
起来	-11.0936
点亮	-11.0937
▁opposite	-11.0937
▁applicable	-11.0937
BS	-11.0938
차	-11.0939
お	-11.094
BE	-11.0941
▁до	-11.0941
精	-11.0942
▁assess	-11.0943
という	-11.0943
▁Company	-11.0945
ments	-11.0946
▁underlying	-11.0946
蛋白	-11.0947
▁equation	-11.095
▁Jo	-11.0951
東	-11.0951
剂	-11.0952
效应	-11.0953
die	-11.0958
Package	-11.0959
域	-11.0959
医疗	-11.096
RS	-11.0961
▁Jews	-11.0962
activity	-11.0963
Role	-11.0965
ations	-11.0966
▁conduct	-11.0968
csv	-11.0969
え	-11.097
▁respond	-11.0972
DD	-11.0972
abs	-11.0972
primary	-11.0975
AA	-11.0975
▁interests	-11.0976
黑色	-11.0976
ない	-11.0977
Con	-11.0977
▁como	-11.098
▁architecture	-11.0988
▁rural	-11.099
特定	-11.0993
高度	-11.0994
▁pregnancy	-11.0994
CB	-11.0995
▁grid	-11.0996
유	-11.0997
▁greatest	-11.0999
cent	-11.0999
kar	-11.1
▁latter	-11.1001
edge	-11.1002
▁Professor	-11.1002
▁vary	-11.1003
ри	-11.1006
details	-11.1006
的方式	-11.1007
▁vast	-11.1012
second	-11.1013
mean	-11.1014
▁Latin	-11.1014
▁capable	-11.1016
并不	-11.1016
selected	-11.1017
▁nice	-11.1018
竞争	-11.1019
▁inflammation	-11.102
Display	-11.1021
▁connect	-11.1021
▁buffer	-11.1022
panel	-11.1022
TA	-11.1022
▁principle	-11.1023
さ	-11.1027
快	-11.1028
▁concerned	-11.1032
screen	-11.1033
alt	-11.1034
SS	-11.1034
▁enhance	-11.1038
双层	-11.104
cut	-11.1042
▁extended	-11.1045
BA	-11.1047
support	-11.1048
ties	-11.1048
GA	-11.1049
▁tea	-11.105
会议	-11.1056
▁Britain	-11.1057
handler	-11.106
ious	-11.106
显著	-11.1068
watch	-11.1069
▁distinct	-11.1071
▁moral	-11.1071
宪法	-11.1071
▁Additionally	-11.1072
处于	-11.1073
▁camera	-11.1075
▁comments	-11.1076
自我	-11.1078
shared	-11.1078
▁increasingly	-11.1079
最右边	-11.1081
▁decide	-11.1081
▁prove	-11.1082
▁chemicals	-11.1084
curr	-11.1085
▁yellow	-11.1088
丰富	-11.1088
AR	-11.1088
您有一笔订单未付款	-11.1088
ح	-11.109
AT	-11.109
体现	-11.1091
评价服务	-11.1092
▁Find	-11.1093
▁recognized	-11.1093
送心	-11.1094
一个鼓励	-11.1095
lam	-11.1096
小时智能预约	-11.1098
性价比高哦	-11.1099
循环	-11.1099
您的满意就是我们	-11.11
licenses	-11.1101
可以给小	-11.1101
"❤	-11.1101
▁aspect	-11.1102
▁facts	-11.1104
AM	-11.1105
SP	-11.1105
tile	-11.1105
GZ	-11.1106
ва	-11.1106
曾	-11.1109
és	-11.1119
▁Which	-11.112
▁fair	-11.1121
後	-11.1122
ons	-11.1123
프	-11.1125
Ch	-11.1126
诗	-11.1127
▁muscles	-11.1127
^"	-11.1127
▁هي	-11.1128
的方法	-11.1129
▁closely	-11.113
▁PR	-11.1131
▁relation	-11.1131
ski	-11.1132
▁Sam	-11.1133
▁broken	-11.1136
▁Yet	-11.114
▁Russia	-11.114
▁youth	-11.1141
▁claims	-11.1141
异	-11.1142
mol	-11.1143
게	-11.1147
engine	-11.1149
ably	-11.115
歌	-11.1152
NC	-11.1154
植物	-11.1154
kind	-11.1156
>&	-11.1156
lig	-11.1157
▁bank	-11.1167
Show	-11.1169
▁possibility	-11.1171
▁accepted	-11.1171
note	-11.1171
ria	-11.1172
cer	-11.1172
▁COVID	-11.1174
mit	-11.1175
メ	-11.1176
▁compare	-11.1176
lie	-11.1178
stats	-11.1181
▁camp	-11.1183
▁marriage	-11.1183
▁oral	-11.1184
▁Under	-11.1185
▁flat	-11.1188
油	-11.119
Parent	-11.119
▁yield	-11.1192
▁answers	-11.1192
在于	-11.1197
▁creates	-11.1197
IM	-11.1197
ем	-11.1198
▁impacts	-11.1199
▁choices	-11.12
▁Michael	-11.1203
▁agreement	-11.1206
microsoft	-11.1207
▁args	-11.1207
▁runs	-11.1207
GO	-11.1208
▁businesses	-11.1211
wiki	-11.1212
레	-11.1214
▁automatically	-11.1214
▁III	-11.1214
转移	-11.1216
▁mono	-11.1221
person	-11.1222
"));	-11.1224
▁secret	-11.1225
社区	-11.1229
▁Martin	-11.1229
▁reader	-11.1234
hal	-11.1234
接	-11.1236
Comp	-11.1239
Col	-11.1241
gas	-11.1242
place	-11.1246
nas	-11.1248
铜匠厚釜	-11.1248
供	-11.1248
▁Mark	-11.1251
▁nutrients	-11.1251
Email	-11.1252
▁stock	-11.1253
Click	-11.1254
▁tooth	-11.1254
names	-11.1254
▁press	-11.1255
▁stated	-11.1257
fish	-11.1257
ct	-11.126
分布	-11.1261
▁colors	-11.1262
▁introduction	-11.1264
▁facilities	-11.1271
ض	-11.1272
share	-11.1275
▁administration	-11.1276
▁guidelines	-11.1276
га	-11.1278
Main	-11.1279
▁Management	-11.1282
▁stages	-11.1283
▁roots	-11.1285
▁domestic	-11.1291
▁Language	-11.1292
表明	-11.1293
done	-11.1294
▁Old	-11.1294
annotation	-11.1295
Register	-11.1295
▁improving	-11.1295
存	-11.1295
Editor	-11.1299
NET	-11.1304
Network	-11.131
▁instructions	-11.131
Users	-11.1311
▁Global	-11.1311
ware	-11.1314
▁intervention	-11.1315
▁rapidly	-11.1315
多用	-11.1315
Logger	-11.132
▁interactions	-11.132
礼	-11.1322
DM	-11.1323
グ	-11.1325
状况	-11.1326
▁Fr	-11.1327
▁crisis	-11.1329
▁convert	-11.1332
flag	-11.1332
ā	-11.1333
rule	-11.1337
통	-11.1339
▁Space	-11.1341
Len	-11.1347
▁detected	-11.1349
▁boost	-11.1349
apply	-11.135
▁probability	-11.1351
▁feedback	-11.1353
(){	-11.1354
来看	-11.1354
gg	-11.1357
▁için	-11.1357
▁angle	-11.1357
▁broad	-11.1359
▁intake	-11.1362
共享	-11.1363
▁Jan	-11.1364
▁района	-11.1366
////////////////	-11.1366
深化	-11.1366
현	-11.1367
物流	-11.1374
包	-11.1375
wing	-11.1375
cart	-11.1375
板	-11.1376
▁flowers	-11.1376
▁Where	-11.1378
tags	-11.1378
ale	-11.1378
▁normally	-11.1379
SET	-11.138
▁maintenance	-11.1382
println	-11.1392
大数据	-11.1392
▁sensitive	-11.1399
▁suffering	-11.1399
▁regularly	-11.1401
总结	-11.1403
ого	-11.1403
wAvS	-11.1406
▁tumor	-11.1406
的话	-11.1407
gihp	-11.1407
便	-11.1409
▁seconds	-11.141
干豆	-11.1415
▁justice	-11.1415
不妨您说下	-11.1417
对于机器的选择有哪些考虑	-11.1417
优先发货	-11.1418
亲喜欢的话	-11.1419
ula	-11.1419
▁signals	-11.1423
builder	-11.1424
只是	-11.1425
鼓励	-11.143
Internal	-11.1434
▁recognize	-11.1436
收	-11.1436
▁replaced	-11.1439
▁intelligence	-11.1439
▁dynamic	-11.1439
▁parties	-11.1442
식	-11.1443
ever	-11.1443
▁composition	-11.1445
Child	-11.1446
▁supports	-11.1446
▁О	-11.1446
▁behaviour	-11.1448
▁farm	-11.1449
▁director	-11.145
MI	-11.1452
نا	-11.1452
买	-11.1453
ジ	-11.1457
▁coast	-11.1459
ep	-11.1459
▁regional	-11.1459
具备	-11.1463
▁tradition	-11.1465
▁sufficient	-11.1465
▁depth	-11.1465
▁documentation	-11.1475
▁abstract	-11.1476
▁improvement	-11.1477
▁Army	-11.1477
VERSION	-11.1479
score	-11.1481
Note	-11.1482
▁obvious	-11.1484
▁describes	-11.1485
北京	-11.1487
液	-11.1491
▁CO	-11.1493
Route	-11.1494
هي	-11.1494
▁centuries	-11.1496
位置	-11.1498
临床	-11.1502
系统的	-11.1503
Invalid	-11.1507
American	-11.1508
▁journal	-11.1509
提	-11.1512
▁Los	-11.1513
Scale	-11.1519
▁pair	-11.152
Member	-11.1522
크	-11.1522
▁CD	-11.1523
А	-11.1523
▁Plan	-11.1524
污染	-11.1525
PM	-11.1527
Parse	-11.1529
房	-11.1529
▁poly	-11.153
▁sweet	-11.1535
ок	-11.1536
▁Middle	-11.1538
▁Bank	-11.1538
▁Design	-11.1539
vor	-11.1539
▁diversity	-11.1541
咱们	-11.1544
▁nations	-11.1546
▁creative	-11.1547
▁stem	-11.1547
ज	-11.1551
研发	-11.1551
▁categories	-11.1555
▁الج	-11.1557
▁walls	-11.1561
▁Richard	-11.1561
са	-11.1563
島	-11.1564
▁association	-11.1564
pet	-11.1564
▁battery	-11.1567
正确	-11.1569
Equal	-11.1572
▁narrow	-11.1573
مر	-11.1573
Active	-11.1574
▁attribute	-11.1577
▁Post	-11.158
ido	-11.1581
拥有	-11.1587
parser	-11.1588
副	-11.1588
▁habitat	-11.159
逐渐	-11.1593
database	-11.1594
late	-11.1596
▁sell	-11.1598
Pool	-11.1598
专家	-11.16
信用	-11.1604
▁explains	-11.1613
机关	-11.1613
방	-11.1614
▁managed	-11.1614
角	-11.1616
▁understood	-11.1617
把握	-11.1617
PI	-11.1619
▁Hu	-11.162
▁compliance	-11.1623
表现	-11.1624
▁views	-11.1626
人工智能	-11.163
▁Australian	-11.163
ِ	-11.1632
▁agricultural	-11.1633
ando	-11.1634
▁establish	-11.1634
Writer	-11.1634
库	-11.1638
一切	-11.1639
▁west	-11.1641
支	-11.1641
▁chosen	-11.1642
▁sit	-11.1642
状	-11.1646
引	-11.1647
▁naturally	-11.1648
TEST	-11.1649
ow	-11.1652
第四	-11.1654
▁का	-11.1654
▁Ga	-11.1656
的基础上	-11.1656
▁indeed	-11.166
▁steel	-11.1661
▁budget	-11.1664
协同	-11.1665
roll	-11.1666
cpp	-11.1666
论文	-11.1671
▁represented	-11.1671
▁{}	-11.1672
▁vector	-11.1674
ं	-11.1676
rum	-11.1677
aff	-11.1677
▁objective	-11.168
ün	-11.1682
我们将	-11.1683
造	-11.1688
exception	-11.1689
▁Study	-11.1693
保险	-11.1693
▁Ba	-11.1697
El	-11.1698
▁Street	-11.17
▁correctly	-11.1703
og	-11.1704
theme	-11.1705
落	-11.1708
SL	-11.1709
陈	-11.1712
CP	-11.1712
组成	-11.1713
matrix	-11.1714
突破	-11.1715
▁calculated	-11.1716
▁stable	-11.1717
nic	-11.1717
▁Star	-11.1719
修改	-11.172
ade	-11.1725
煲	-11.1726
▁Joseph	-11.173
分体式	-11.1731
ulate	-11.1732
加入	-11.1732
▁grown	-11.1732
一壶	-11.1734
INFO	-11.1738
fall	-11.1739
ме	-11.174
▁definitely	-11.1741
▁Book	-11.1744
town	-11.1746
没	-11.1747
▁considering	-11.1749
出版	-11.175
mt	-11.1752
stone	-11.1752
DI	-11.1753
差异	-11.1755
谷	-11.1755
▁thanks	-11.1759
观察	-11.1759
ette	-11.176
▁prefer	-11.1763
乡村	-11.1763
Top	-11.1763
▁Har	-11.1766
작	-11.1769
会计	-11.1772
新型	-11.1774
▁Van	-11.1775
▁Za	-11.1775
JS	-11.1777
可以打	-11.1778
请求	-11.1779
footer	-11.178
▁license	-11.178
That	-11.1781
Mo	-11.1782
▁Python	-11.1784
注	-11.1788
汉	-11.1789
▁horse	-11.179
ops	-11.1793
wo	-11.1794
▁spot	-11.1795
يات	-11.1797
▁measurement	-11.18
底	-11.1803
هم	-11.1805
▁fan	-11.1805
ая	-11.1807
▁vote	-11.1811
wan	-11.1811
▁truly	-11.1811
▁Ku	-11.1814
▁partner	-11.1814
Layer	-11.1815
然	-11.1815
普遍	-11.1817
Queue	-11.1817
定位	-11.1818
▁sports	-11.1818
logo	-11.1818
控	-11.1818
mini	-11.182
留	-11.1822
AB	-11.1823
gan	-11.1824
execute	-11.1826
负责	-11.1827
Total	-11.1827
▁転送	-11.1829
개	-11.1832
是在	-11.1833
Report	-11.1834
▁measurements	-11.1836
▁Inter	-11.1837
▁У	-11.1838
▁goods	-11.1841
pid	-11.1841
也可以	-11.1842
attribute	-11.1843
▁Ya	-11.1843
富	-11.1844
▁hundreds	-11.1846
▁harm	-11.1847
▁locations	-11.1848
▁Apache	-11.1849
take	-11.1849
two	-11.1851
merge	-11.1853
▁Rights	-11.1855
反映	-11.1855
英	-11.1857
▁Im	-11.1858
▁hyper	-11.1858
整合	-11.1858
rank	-11.1858
▁indicated	-11.1859
参加	-11.1861
▁calculate	-11.1861
▁Bur	-11.1862
feature	-11.1865
町	-11.1867
发货	-11.1869
▁chapter	-11.1871
▁coal	-11.1872
▁conclusion	-11.1873
track	-11.1874
Details	-11.1875
most	-11.1875
链	-11.1878
形态	-11.188
▁Bible	-11.1881
载	-11.1883
▁calling	-11.1884
公民	-11.1884
专	-11.1885
▁trouble	-11.1885
LA	-11.1885
▁области	-11.1893
Items	-11.1894
inline	-11.1895
▁bağlantılar	-11.1896
음	-11.1897
▁Civil	-11.1897
据	-11.1897
▁bu	-11.1898
Reg	-11.1901
多个	-11.1902
"{{	-11.1903
▁magnetic	-11.1903
属性	-11.1905
集体	-11.1905
统计	-11.1905
RO	-11.191
sy	-11.1913
ert	-11.1915
Err	-11.1916
nda	-11.1916
nan	-11.1918
性和	-11.1918
▁Smith	-11.192
front	-11.1922
"},	-11.1924
Kind	-11.1926
black	-11.1926
债务	-11.1928
など	-11.1931
▁Indonesia	-11.1933
cert	-11.1939
Bytes	-11.194
介绍	-11.1941
▁conventional	-11.1941
温度	-11.1943
▁alt	-11.1945
▁landscape	-11.1945
pb	-11.1946
道路	-11.1951
▁ease	-11.1951
▁voltage	-11.1953
耐高温	-11.1957
真正	-11.196
主要是	-11.1963
▁अ	-11.1965
PT	-11.1966
现代化	-11.1967
iso	-11.1969
应对	-11.197
IV	-11.1972
)}	-11.1972
节点	-11.1974
They	-11.1977
团	-11.1977
▁prevention	-11.1978
Meta	-11.1979
GC	-11.1981
感染	-11.1984
是的亲	-11.1986
▁husband	-11.1987
困难	-11.1989
]{	-11.199
▁cent	-11.199
fla	-11.1991
Directory	-11.1991
blog	-11.1991
▁confidence	-11.1992
▁è	-11.1994
▁assist	-11.1994
氏	-11.1995
称为	-11.1996
wise	-11.1999
▁outcome	-11.1999
▁dental	-11.1999
▁western	-11.2
NULL	-11.2
▁originally	-11.2002
vent	-11.2002
xFF	-11.2003
断	-11.2003
Empty	-11.2007
▁Step	-11.2008
용	-11.2008
▁cars	-11.2008
▁funding	-11.2012
Args	-11.2013
▁scene	-11.2015
aire	-11.2017
키	-11.2017
▁News	-11.2018
▁acts	-11.2018
▁representation	-11.2018
▁category	-11.2021
把手	-11.2024
▁cluster	-11.2025
加工	-11.2028
▁medication	-11.2029
루	-11.203
IR	-11.2031
▁molecules	-11.2031
ese	-11.2031
UP	-11.2033
▁Initialized	-11.2033
▁fruits	-11.2034
▁medications	-11.2034
bs	-11.2036
分钟	-11.2037
▁poverty	-11.2037
主张	-11.2037
▁transform	-11.2037
lor	-11.2038
▁skill	-11.2039
member	-11.204
law	-11.2041
isch	-11.2041
草	-11.2042
上盖	-11.2043
▁bird	-11.2044
页	-11.2044
英国	-11.2045
▁inline	-11.2047
▁seemed	-11.2048
平衡	-11.2049
▁environments	-11.205
▁criteria	-11.205
▁offset	-11.2051
▁vehicles	-11.2052
▁Office	-11.2052
直接打	-11.2053
द	-11.2053
战争	-11.2053
▁Question	-11.2054
体制	-11.2056
▁residents	-11.2057
▁experimental	-11.2057
▁loaded	-11.2057
▁Mc	-11.2059
tests	-11.2061
▁tells	-11.2061
切	-11.2062
conn	-11.2062
酸	-11.2065
▁moon	-11.2067
试验	-11.2067
三个	-11.2068
▁brother	-11.207
▁Part	-11.2073
SM	-11.2073
▁curriculum	-11.2075
TC	-11.2084
▁semi	-11.2085
chain	-11.2086
born	-11.2087
▁monitor	-11.2088
▁demonstrate	-11.2091
CL	-11.2093
パ	-11.2096
环节	-11.2097
变革	-11.2098
П	-11.2098
isi	-11.2099
contact	-11.21
Enum	-11.2101
وب	-11.2103
Panel	-11.2104
Password	-11.2107
▁writer	-11.2108
ene	-11.211
含	-11.2111
动力	-11.2112
neu	-11.2116
▁inner	-11.2117
فر	-11.2119
的新	-11.2121
Term	-11.2123
▁accounts	-11.2123
文章	-11.2124
ws	-11.2124
AF	-11.2128
▁competition	-11.2129
▁Son	-11.2129
"/>	-11.2132
医学	-11.2133
▁survive	-11.2133
Back	-11.2137
▁asking	-11.2138
▁Gra	-11.214
速度	-11.2141
▁figures	-11.2142
uni	-11.2143
▁universe	-11.2144
Lock	-11.2144
▁copyright	-11.2145
▁sand	-11.2147
points	-11.2147
深刻	-11.2147
以来	-11.2148
▁lifestyle	-11.2148
▁secure	-11.2151
fb	-11.2151
▁snow	-11.2153
ör	-11.2154
装	-11.2156
seq	-11.2158
▁movements	-11.2162
案例	-11.2162
им	-11.2166
▁supporting	-11.2166
multi	-11.2167
CE	-11.2173
▁beneficial	-11.2173
▁unable	-11.2175
`,	-11.2177
工艺	-11.218
zone	-11.2182
fo	-11.2182
안	-11.2183
▁formal	-11.2183
▁adopted	-11.2186
▁engage	-11.2188
▁Commission	-11.2189
GR	-11.219
tf	-11.2192
股东	-11.2195
How	-11.2196
▁substance	-11.2196
▁programming	-11.2198
exists	-11.2199
▁crops	-11.22
▁graph	-11.2201
controller	-11.2201
▁discovery	-11.2202
井	-11.2202
付款	-11.2203
ذ	-11.2204
간	-11.2205
▁deaths	-11.2207
▁extensive	-11.2207
主动	-11.2209
▁FOR	-11.2211
▁continuous	-11.2211
标	-11.2212
▁necessarily	-11.2219
Global	-11.222
ati	-11.2223
boolean	-11.2224
▁walking	-11.2225
比例	-11.223
义务	-11.2231
gon	-11.2231
▁observations	-11.2231
▁aid	-11.2231
met	-11.2232
▁realize	-11.2233
▁slowly	-11.2235
▁contract	-11.2238
BR	-11.2238
▁closed	-11.2238
▁lots	-11.2239
Dialog	-11.224
▁manufacturing	-11.224
▁المتحدة	-11.2243
され	-11.2244
▁Given	-11.2246
platform	-11.2246
Sc	-11.2247
CM	-11.2247
care	-11.2247
▁minor	-11.2248
▁bis	-11.2248
ी	-11.2251
pat	-11.2251
转型	-11.2251
ET	-11.2251
▁replace	-11.2252
▁Environmental	-11.2253
特殊	-11.2256
san	-11.2256
events	-11.2257
VI	-11.2259
疾病	-11.2259
linux	-11.2261
边	-11.2261
ery	-11.2263
▁Pacific	-11.2264
▁Einzelnachweise	-11.2269
何	-11.2272
▁infected	-11.2279
▁attached	-11.2279
在使用	-11.2283
▁era	-11.2284
SW	-11.2285
账号	-11.2289
ハ	-11.229
矛盾	-11.229
上海	-11.2296
▁к	-11.2299
▁sich	-11.2301
enable	-11.2303
等方面	-11.2303
▁leadership	-11.2304
▁Dan	-11.2306
▁werd	-11.2306
validate	-11.2308
▁suffer	-11.2311
▁pictures	-11.2314
cil	-11.2315
验证	-11.2318
▁Among	-11.2319
题	-11.2324
focus	-11.2324
▁القرن	-11.2326
几	-11.2326
盘	-11.2331
pu	-11.2333
▁estimate	-11.2333
▁Early	-11.2333
ская	-11.2334
▁expansion	-11.2334
之前	-11.2336
Cluster	-11.2337
海洋	-11.2339
▁filled	-11.2339
valid	-11.2341
▁controls	-11.2342
算	-11.2342
ना	-11.2342
語	-11.2345
▁arms	-11.2345
▁lessons	-11.2345
же	-11.2346
lon	-11.2347
HR	-11.2347
亦	-11.2349
/:^$^	-11.2351
▁officials	-11.2351
metadata	-11.2351
Metadata	-11.2352
▁tahun	-11.2357
ados	-11.2359
created	-11.236
兴	-11.2363
▁daughter	-11.2364
各类	-11.2364
▁connections	-11.2364
allow	-11.2367
러	-11.2368
▁Pan	-11.2369
▁Soviet	-11.237
意见	-11.2371
药品	-11.2371
TV	-11.2372
EM	-11.2372
nce	-11.2373
Adapter	-11.2377
▁bi	-11.2378
包含	-11.2379
元素	-11.238
reset	-11.2381
chen	-11.2386
▁не	-11.2387
depth	-11.2389
tas	-11.2389
logy	-11.2391
factor	-11.2391
▁flu	-11.2392
Bo	-11.2393
وي	-11.2393
bio	-11.2393
demo	-11.24
▁debt	-11.2401
ля	-11.2402
モ	-11.2403
zy	-11.2406
submit	-11.2409
框架	-11.241
数据库	-11.2412
三重	-11.2414
除了	-11.2414
▁thin	-11.2417
令	-11.2417
Files	-11.2418
Has	-11.242
销售	-11.2421
职	-11.2421
▁audience	-11.2421
▁Sometimes	-11.2422
原理	-11.2422
án	-11.2427
▁Brown	-11.2429
▁nodes	-11.2429
▁advance	-11.243
壶体	-11.2431
TE	-11.2433
RNA	-11.2434
这边看下图片哈	-11.2434
打磨细腻	-11.2434
售后质保	-11.2436
企业的	-11.2436
ear	-11.2437
천	-11.2437
简单	-11.2439
推	-11.244
properties	-11.2441
▁아	-11.2446
▁Library	-11.2448
▁spiritual	-11.2451
lı	-11.2453
▁sections	-11.2453
Generic	-11.2455
bad	-11.2456
眼	-11.2456
gra	-11.2456
▁song	-11.2459
ua	-11.246
ric	-11.246
▁struggle	-11.2463
▁waves	-11.2466
スト	-11.2468
kit	-11.2468
▁Tom	-11.2472
▁professionals	-11.2477
▁holds	-11.2482
▁stroke	-11.2482
商业	-11.2484
ador	-11.2487
▁difficulty	-11.2487
Bundle	-11.2487
皮	-11.249
▁examine	-11.249
▁greatly	-11.249
▁conversation	-11.249
恢复	-11.2491
▁park	-11.2492
(@	-11.2495
vol	-11.2497
哦亲	-11.2499
▁biggest	-11.2503
编	-11.2504
的关键	-11.2505
诉讼	-11.2508
▁speaking	-11.2509
▁relations	-11.2511
▁decline	-11.2511
▁desired	-11.2512
▁modified	-11.2513
▁closer	-11.2515
成员	-11.2515
▁olan	-11.2517
▁collect	-11.2517
▁electronic	-11.2518
相比	-11.2519
flags	-11.2523
▁millions	-11.2524
▁setup	-11.2527
Ma	-11.2535
下哦	-11.254
fire	-11.2541
观点	-11.2543
篇	-11.2544
动态	-11.2547
Space	-11.2552
个体	-11.2553
including	-11.2554
ção	-11.2556
▁WARRANTIES	-11.2557
род	-11.2558
super	-11.2558
▁grand	-11.2558
plan	-11.2558
▁driver	-11.256
往往	-11.2562
▁recognition	-11.2565
▁circuit	-11.2565
▁circumstances	-11.2565
食	-11.257
▁Д	-11.257
特色	-11.257
kt	-11.257
▁की	-11.2572
当地	-11.2574
used	-11.2575
出来	-11.2577
far	-11.2577
另一方面	-11.2579
审查	-11.258
▁communicate	-11.258
県	-11.258
ール	-11.2583
▁purchase	-11.2583
案件	-11.2584
inde	-11.2584
gram	-11.2585
损失	-11.2587
生成	-11.2588
fix	-11.2591
▁Hall	-11.2591
▁cutting	-11.2593
▁Virginia	-11.2594
▁married	-11.2595
bol	-11.2596
环	-11.2596
▁inches	-11.2598
tim	-11.2602
fetch	-11.2605
▁Mann	-11.2605
▁중	-11.2607
aka	-11.2607
▁download	-11.2609
MB	-11.2609
▁delivery	-11.2611
▁П	-11.2613
▁favorite	-11.2613
描述	-11.2617
进程	-11.2618
round	-11.2618
▁Cha	-11.2621
▁worldwide	-11.2621
参	-11.2623
现实	-11.2624
repeat	-11.2626
▁contained	-11.2626
▁Example	-11.2627
▁Guide	-11.2629
▁instrument	-11.2629
NE	-11.2632
Part	-11.2632
▁brown	-11.2633
块	-11.2635
né	-11.2637
学术	-11.2638
的行为	-11.2638
路径	-11.2638
се	-11.2638
toggle	-11.2639
テ	-11.2639
关	-11.2639
不得	-11.264
▁Try	-11.2641
图像	-11.2641
▁implied	-11.2641
される	-11.2642
Pa	-11.2642
while	-11.2645
▁Che	-11.2646
▁mention	-11.2647
alert	-11.2647
skip	-11.2647
▁duration	-11.2651
lb	-11.2651
▁artist	-11.2656
来自	-11.266
callback	-11.266
▁Returns	-11.2662
观念	-11.2667
自动	-11.2668
ned	-11.267
的能力	-11.2674
sig	-11.2674
cost	-11.2674
MD	-11.2675
tie	-11.2676
lot	-11.2679
pair	-11.268
▁Sur	-11.2681
pragma	-11.2681
这样的	-11.2681
年的	-11.2681
▁Florida	-11.2683
▁capture	-11.2683
こ	-11.2683
driver	-11.2684
zer	-11.2686
Move	-11.269
数字化	-11.2691
EX	-11.2691
料	-11.2693
▁decreased	-11.2693
▁putting	-11.2693
▁shot	-11.2694
▁Gar	-11.2697
▁reserved	-11.2698
′	-11.2698
ory	-11.2699
思考	-11.2699
▁Common	-11.2701
linear	-11.2702
▁ahead	-11.2703
wait	-11.2706
Microsoft	-11.2707
Flow	-11.2711
SQL	-11.2712
▁''	-11.2712
CODE	-11.2713
Copy	-11.2717
Java	-11.2717
▁trials	-11.2719
Multi	-11.2721
▁Royal	-11.2723
卡	-11.2723
参考	-11.2724
母	-11.2725
费用	-11.2726
▁division	-11.2726
▁hidden	-11.2726
▁tarafından	-11.2729
sl	-11.2729
▁couldn	-11.273
Descriptor	-11.2731
▁$$	-11.2733
▁blocks	-11.2733
委	-11.2734
▁knows	-11.2738
oo	-11.2738
▁holding	-11.2739
卷	-11.274
trace	-11.274
树	-11.2742
▁luar	-11.2742
▁stone	-11.2742
▁wealth	-11.2744
din	-11.2745
▁turns	-11.2745
▁university	-11.2746
▁significance	-11.2751
▁Committee	-11.2752
ising	-11.2755
ij	-11.2755
学生的	-11.2756
ind	-11.2757
▁proof	-11.2757
proxy	-11.2757
诊断	-11.2758
Cl	-11.2758
▁thread	-11.2758
▁taste	-11.276
外壳	-11.2763
阅读	-11.2767
rin	-11.2767
从事	-11.277
▁depend	-11.2771
▁interact	-11.2773
runtime	-11.2773
여	-11.2774
▁الح	-11.2774
和发展	-11.2776
ral	-11.2776
あ	-11.2777
sol	-11.2777
▁weak	-11.2778
安排	-11.2778
children	-11.2779
双方	-11.278
▁assistance	-11.278
native	-11.2783
▁apart	-11.2784
sqrt	-11.2784
跟	-11.2785
▁peak	-11.2786
▁haven	-11.2787
根本	-11.279
九	-11.2794
尽管	-11.2795
Find	-11.2795
Admin	-11.2796
紫砂内胆	-11.2796
非常方便哦	-11.2798
打完直接喝	-11.2799
▁soldiers	-11.28
叶	-11.2802
▁governments	-11.2803
zero	-11.2804
可预约	-11.2805
▁emotions	-11.2807
更新	-11.2808
hy	-11.281
AE	-11.281
独	-11.2812
创建	-11.2814
uff	-11.2815
ар	-11.2815
▁produces	-11.2817
▁migration	-11.2817
▁fiber	-11.2818
*)	-11.2819
健全	-11.2823
骨	-11.2824
Func	-11.2825
ios	-11.2825
nar	-11.2826
▁girl	-11.2827
▁TV	-11.2827
ação	-11.2828
▁maintaining	-11.2828
&#	-11.283
有机	-11.2832
另外	-11.2833
▁injuries	-11.2833
pf	-11.2835
▁customers	-11.2835
→	-11.2836
户	-11.2836
ute	-11.2837
té	-11.2839
Scope	-11.2839
Google	-11.2841
IE	-11.2841
▁ultimately	-11.2842
▁movie	-11.2842
步	-11.2842
Case	-11.2843
ú	-11.2843
Domain	-11.2848
▁gap	-11.285
ür	-11.2851
▁childhood	-11.2853
fff	-11.2854
бо	-11.2854
▁east	-11.2856
最高	-11.2858
Transaction	-11.286
▁Federal	-11.2863
▁Nor	-11.2864
Math	-11.2864
mid	-11.2865
▁machines	-11.2868
的过程	-11.2868
]\]	-11.287
▁smooth	-11.287
ians	-11.2871
教材	-11.2872
bat	-11.2874
爱	-11.2878
ков	-11.2884
经济发展	-11.2885
的核心	-11.2887
Statement	-11.2889
▁dedicated	-11.2892
征	-11.2893
회	-11.2897
十	-11.2897
Ex	-11.2901
▁immediate	-11.2905
ст	-11.2906
▁computers	-11.2906
▁younger	-11.2908
设立	-11.2909
▁Though	-11.2911
▁marked	-11.2911
<<	-11.2912
▁agriculture	-11.2912
▁flight	-11.2913
▁Ссылки	-11.2914
▁Dış	-11.2916
多种	-11.2917
▁organ	-11.2917
Boolean	-11.2918
TD	-11.292
namespace	-11.2921
▁decade	-11.2922
encode	-11.2924
SD	-11.2925
▁Nature	-11.2926
بل	-11.2927
病毒	-11.2927
#{	-11.2932
К	-11.2934
▁Ve	-11.2935
eng	-11.2939
dec	-11.294
▁Louis	-11.2941
Rate	-11.2941
▁render	-11.2942
▁basically	-11.2944
▁Boolean	-11.2945
Flag	-11.2946
HS	-11.2948
▁flex	-11.2949
▁ball	-11.295
▁insurance	-11.2954
gue	-11.2955
▁courses	-11.2955
致	-11.2957
融资	-11.2962
本身	-11.2965
▁producing	-11.2969
NT	-11.2971
Gen	-11.2975
▁elif	-11.2975
expr	-11.2975
棱	-11.2981
青年	-11.2982
바	-11.2984
的要求	-11.2984
基金	-11.2985
터	-11.2985
▁Sir	-11.2986
▁Big	-11.2989
Engine	-11.2989
sheet	-11.299
▁aircraft	-11.2991
ln	-11.2994
▁household	-11.2997
▁molecular	-11.2998
ネ	-11.3001
Enabled	-11.3003
事实	-11.3007
PD	-11.3008
▁الس	-11.3011
▁harmful	-11.3014
转变	-11.3015
what	-11.3017
セ	-11.3017
dimensional	-11.3018
▁limits	-11.3019
▁album	-11.302
▁Canadian	-11.3024
▁transportation	-11.3025
resources	-11.3027
collection	-11.3029
Limit	-11.303
utf	-11.3035
确认	-11.3035
य	-11.3036
▁arm	-11.3038
▁scope	-11.3039
Variable	-11.3039
▁studying	-11.3042
▁teams	-11.3043
ット	-11.3044
严格	-11.3044
制造业	-11.3044
站	-11.3048
ボ	-11.3049
公平	-11.3051
劳动者	-11.3052
물	-11.3053
▁carefully	-11.3054
library	-11.3055
sdk	-11.3057
▁king	-11.3057
也有	-11.3058
edu	-11.3058
▁九阳新款	-11.3059
▁fell	-11.3059
▁combat	-11.306
温馨提示	-11.3067
▁readers	-11.3069
업	-11.3069
▁%}	-11.3072
▁versions	-11.3072
公开	-11.3075
ér	-11.3075
▁neuro	-11.3076
junit	-11.3076
▁permission	-11.3078
▁master	-11.3081
▁involve	-11.3082
");	-11.3082
Ra	-11.3082
▁sharing	-11.3085
▁javax	-11.3087
▁cards	-11.309
Li	-11.309
汽车	-11.3091
▁coffee	-11.3093
eth	-11.3096
foot	-11.3098
▁resulted	-11.3099
thread	-11.3101
ALL	-11.3103
▁psychological	-11.3104
随	-11.3104
相关的	-11.3105
▁participate	-11.3108
▁Mars	-11.3108
注意	-11.3108
以后	-11.311
互	-11.311
Double	-11.3112
课堂	-11.3113
▁вы	-11.3114
▁nerve	-11.3115
一方面	-11.3117
ディ	-11.3117
hub	-11.3118
▁explanation	-11.3119
ets	-11.312
▁houses	-11.3121
ça	-11.3122
▁Ex	-11.3123
hen	-11.3124
▁desire	-11.3125
▁concrete	-11.3126
▁plot	-11.3127
▁layers	-11.3128
变量	-11.313
▁dust	-11.313
▁foundation	-11.3133
Null	-11.3134
的一个	-11.3134
Match	-11.3137
▁binary	-11.3138
▁Vo	-11.3138
设	-11.3138
生命	-11.3142
班	-11.3142
改造	-11.3143
good	-11.3147
▁Ed	-11.3147
▁dance	-11.3147
菌	-11.3148
▁dose	-11.3149
神经	-11.3151
كي	-11.3153
▁Learn	-11.3154
改革开放	-11.3158
owner	-11.3159
▁honor	-11.316
Condition	-11.3161
全部	-11.3161
setup	-11.3161
▁permanent	-11.3164
ку	-11.3165
▁tank	-11.3166
Common	-11.3166
Success	-11.3166
console	-11.3169
▁compounds	-11.317
meter	-11.3171
▁Through	-11.3171
▁spaces	-11.3172
▁zone	-11.3172
工作的	-11.3173
湿豆	-11.3176
泡豆	-11.3176
course	-11.3176
▁帮您转售后	-11.3177
电蒸锅	-11.3178
burg	-11.318
▁laboratory	-11.3182
ني	-11.3184
思	-11.3184
ire	-11.3187
运	-11.3188
pod	-11.3188
自主	-11.3189
▁cultures	-11.319
ischer	-11.319
counter	-11.319
lum	-11.319
ill	-11.3192
▁circle	-11.3192
ビ	-11.3193
packages	-11.3193
trim	-11.3195
▁strongly	-11.3197
办	-11.3198
面对	-11.3199
デ	-11.3199
▁Control	-11.3203
kwargs	-11.3205
即可	-11.3205
▁supposed	-11.3205
只能	-11.3206
的数据	-11.3207
▁optimal	-11.3209
▁doctors	-11.3209
群体	-11.321
機	-11.3211
▁Work	-11.3211
▁smoke	-11.3212
船	-11.3213
▁protocol	-11.3213
▁vertical	-11.3215
▁sp	-11.3216
tis	-11.3216
外部	-11.3217
▁card	-11.3221
tx	-11.3221
春	-11.3222
科研	-11.3224
干磨杯	-11.3224
▁raw	-11.3224
gy	-11.3225
mg	-11.3226
мо	-11.3227
▁passing	-11.3229
pay	-11.3231
▁chief	-11.3231
两种	-11.3234
▁defense	-11.3234
das	-11.3236
HTTP	-11.3236
ern	-11.3237
▁drawing	-11.3238
news	-11.3238
▁Three	-11.324
ici	-11.3241
▁targets	-11.3244
▁pet	-11.3245
注重	-11.3247
做好	-11.325
引领	-11.3252
quality	-11.3253
め	-11.3255
ダ	-11.3255
▁confirmed	-11.3256
养	-11.3258
generated	-11.3261
issues	-11.3261
降	-11.3262
tail	-11.3263
plus	-11.3264
▁Les	-11.3265
fu	-11.3266
消费者	-11.3267
增	-11.3269
▁instruction	-11.327
层面	-11.3272
Mar	-11.3273
Ro	-11.3273
▁neither	-11.3273
▁challenging	-11.3274
心理	-11.3274
mente	-11.3277
また	-11.3278
▁Italian	-11.3279
ult	-11.3279
调节	-11.3286
▁crop	-11.3286
军事	-11.3287
阳	-11.3288
bro	-11.3288
rain	-11.3289
压力	-11.3289
▁Catholic	-11.3289
cfg	-11.329
ali	-11.3291
('/	-11.3292
TM	-11.3293
prev	-11.3293
中国特色社会主义	-11.3296
че	-11.3298
download	-11.3299
▁mechanical	-11.33
▁belief	-11.33
partial	-11.33
bel	-11.3301
▁reliable	-11.3302
输出	-11.3302
▁toxic	-11.3302
eval	-11.3305
▁lung	-11.3305
(__	-11.3305
от	-11.3306
权力	-11.3307
▁trip	-11.3308
▁nano	-11.3308
青	-11.3309
▁delete	-11.331
▁investigate	-11.3315
▁loved	-11.3315
早期	-11.3316
刘	-11.3316
▁firm	-11.3317
司	-11.3317
界面	-11.3321
现	-11.3322
[$	-11.3325
▁Ce	-11.3328
▁tissues	-11.3328
▁thousand	-11.3331
▁$(	-11.3331
って	-11.3333
▁spirit	-11.3337
引起	-11.3338
▁musical	-11.3338
基础设施	-11.3339
▁dalam	-11.334
Send	-11.3342
発	-11.3343
表面	-11.3344
计	-11.3345
散	-11.3348
ал	-11.3353
lich	-11.3353
Car	-11.3355
肿瘤	-11.3355
▁repair	-11.3355
fast	-11.3356
DEFAULT	-11.3359
Def	-11.3359
ture	-11.336
著	-11.3361
▁centre	-11.3362
يد	-11.3363
供给	-11.3364
ais	-11.3365
▁stands	-11.3367
▁receiving	-11.3368
▁consumer	-11.3369
rig	-11.3371
연	-11.3372
ode	-11.3372
购买	-11.3374
土壤	-11.3376
una	-11.3377
Extension	-11.3377
Bean	-11.338
she	-11.3382
▁variation	-11.3382
▁estimates	-11.3383
ие	-11.3385
▁Wood	-11.3386
▁Ocean	-11.3388
tus	-11.3391
ティ	-11.3392
transition	-11.3392
Feature	-11.3393
趋势	-11.3393
的变化	-11.3393
▁dé	-11.3395
客户	-11.3395
▁expand	-11.3397
tron	-11.3399
乡	-11.3399
▁binding	-11.34
▁marine	-11.34
错	-11.3401
▁waiting	-11.3404
▁Para	-11.3404
FL	-11.3406
mc	-11.3409
mor	-11.3411
分为	-11.3412
ос	-11.3412
收集	-11.3412
▁involving	-11.3413
▁finished	-11.3417
▁acids	-11.3418
▁calcium	-11.3418
的亲	-11.3418
▁Th	-11.342
十分	-11.3426
press	-11.3427
Join	-11.3427
angle	-11.3428
▁agents	-11.3428
▁Va	-11.3429
ming	-11.3433
hard	-11.3435
▁보	-11.3435
罗	-11.3435
Area	-11.3437
置	-11.3437
غ	-11.3437
渠道	-11.344
▁debate	-11.3441
▁execution	-11.3441
记	-11.3442
э	-11.3445
▁accessible	-11.3445
च	-11.3447
▁Asian	-11.3447
藏	-11.3448
▁audio	-11.3449
▁examined	-11.345
额	-11.3451
▁artificial	-11.3454
息	-11.3457
rect	-11.3458
실	-11.3463
LS	-11.3464
正式	-11.3465
GB	-11.3465
堂	-11.3465
SELECT	-11.3466
▁subsequent	-11.3467
特别	-11.3469
▁somewhat	-11.3469
lower	-11.3471
▁Liste	-11.3471
وم	-11.3472
的人	-11.3472
脱	-11.3473
文献	-11.3474
▁reactions	-11.3474
/:)	-11.3478
▁Ch	-11.3479
イン	-11.348
_{\	-11.3482
▁fighting	-11.3486
▁consumers	-11.3486
的内容	-11.3489
▁mortality	-11.349
▁Egypt	-11.3493
ration	-11.3493
▁Cu	-11.3495
▁Cancer	-11.3497
▁Version	-11.3498
▁constantly	-11.3498
▁insulin	-11.35
tric	-11.35
▁Ti	-11.3503
▁enemy	-11.3503
▁attend	-11.3506
▁Republic	-11.3507
▁smart	-11.3508
Timeout	-11.3508
▁fewer	-11.3509
足	-11.351
́	-11.3511
米饭	-11.3511
ité	-11.3513
不锈钢	-11.3513
Widget	-11.3513
▁Nations	-11.3514
追求	-11.3514
▁Chapter	-11.3514
ika	-11.3517
hang	-11.3523
▁discover	-11.3524
▁hydrogen	-11.3525
leg	-11.3525
れ	-11.3526
阿	-11.3526
不太明显	-11.3527
人民法院	-11.3528
▁كان	-11.353
loader	-11.353
设施	-11.3533
gamma	-11.3537
induced	-11.3537
▁behaviors	-11.3539
发布	-11.354
DateTime	-11.3543
▁routine	-11.3544
的规定	-11.3544
dem	-11.3544
▁smoking	-11.3546
FD	-11.3547
▁roles	-11.3548
▁permissions	-11.3548
pages	-11.3548
特性	-11.3549
classes	-11.3549
yy	-11.3549
功	-11.355
贡献	-11.355
龙	-11.3551
재	-11.3551
"<	-11.3552
SH	-11.3555
▁stability	-11.3556
扰流	-11.3559
shift	-11.3563
Pattern	-11.3563
防止	-11.3566
随时享	-11.3567
重要的	-11.3568
售后网点	-11.3568
无需二次加热	-11.3568
物理保温时间长	-11.3568
九阳官方	-11.3569
小客服看下图片呢	-11.3569
定时预约	-11.3569
▁Mor	-11.357
近年来	-11.3571
▁dengan	-11.3571
its	-11.3571
ava	-11.3573
简化	-11.3573
iNdEx	-11.3574
branch	-11.3574
radi	-11.3574
▁drawn	-11.3575
定义	-11.3576
▁assigned	-11.3576
▁bones	-11.3576
분	-11.3576
容	-11.3578
▁absence	-11.358
Plugin	-11.358
Db	-11.3581
▁Rome	-11.3581
*/	-11.3582
▁Fire	-11.3583
ani	-11.3584
EF	-11.3585
欧洲	-11.3585
▁Wa	-11.3588
▁imagine	-11.3593
▁Whether	-11.3596
ili	-11.3596
mathcal	-11.3597
▁destroyed	-11.3598
ht	-11.3603
▁trend	-11.3604
ida	-11.3606
平均	-11.3606
▁collaboration	-11.3608
▁Gu	-11.3612
▁ship	-11.3613
维	-11.3613
HC	-11.3614
▁structural	-11.3615
演	-11.3616
试	-11.3617
mag	-11.3617
▁Keep	-11.3618
kal	-11.3619
密	-11.3619
imp	-11.3621
▁ear	-11.3621
모	-11.3623
parameters	-11.3623
考	-11.3624
▁joined	-11.3626
球	-11.3628
ور	-11.3628
一样	-11.3629
▁stomach	-11.363
bre	-11.3632
▁employed	-11.3632
プ	-11.3636
▁Unfortunately	-11.3641
体育	-11.3644
程	-11.3644
具	-11.3646
Edge	-11.365
itch	-11.3651
boot	-11.3652
▁espèce	-11.3653
▁regulations	-11.3653
▁Disease	-11.3654
▁Southern	-11.3655
就会	-11.3655
Collections	-11.3656
预	-11.3656
人物	-11.3656
▁authorities	-11.3657
▁integrated	-11.3658
fp	-11.3658
aa	-11.3661
▁grew	-11.3661
▁maps	-11.3661
▁diagnosed	-11.3663
cle	-11.3665
▁housing	-11.3666
FE	-11.3667
始终	-11.3668
kur	-11.3668
ón	-11.367
▁frequent	-11.3673
assertEquals	-11.3675
say	-11.3676
Book	-11.368
時	-11.368
▁roof	-11.3681
▁Kon	-11.3682
▁imaging	-11.3684
Po	-11.3687
▁Care	-11.3688
▁ourselves	-11.369
▁nutrition	-11.3691
▁mix	-11.3691
GS	-11.3693
▁provider	-11.3694
▁papers	-11.3695
▁yes	-11.3696
]	-11.3697
▁Plant	-11.3697
▁avec	-11.3699
久	-11.3703
임	-11.3705
▁happening	-11.3708
▁acute	-11.3708
행	-11.3712
待	-11.3714
▁mg	-11.3714
CV	-11.3715
▁breath	-11.3718
cam	-11.3719
Can	-11.3719
▁ends	-11.372
▁governing	-11.3721
Append	-11.3722
▁amazing	-11.3723
▁ended	-11.3723
Down	-11.3724
▁positions	-11.3725
cas	-11.3726
pot	-11.3727
▁entered	-11.3727
▁escape	-11.373
财务	-11.373
培育	-11.3731
₁	-11.3733
▁Bra	-11.3734
파	-11.3737
▁glucose	-11.3737
▁thick	-11.3737
Self	-11.3738
左	-11.3738
▁agencies	-11.3741
部署	-11.3741
①	-11.3742
▁plane	-11.3742
客观	-11.3743
軍	-11.3745
▁knowing	-11.3746
TP	-11.3747
势	-11.3747
▁constructed	-11.3748
▁laser	-11.3751
▁TO	-11.3751
latest	-11.3752
▁quarter	-11.3753
ев	-11.3757
made	-11.3757
cult	-11.3757
형	-11.376
до	-11.376
相应的	-11.3761
Remove	-11.3766
ा	-11.3768
LC	-11.3771
机械	-11.3773
social	-11.3773
▁fossil	-11.3773
▁colour	-11.3774
▁Naissance	-11.3775
ras	-11.3779
▁owner	-11.378
generate	-11.3781
私	-11.3781
▁trained	-11.3782
▁mouse	-11.3785
▁requests	-11.3786
城乡	-11.379
duct	-11.379
MT	-11.3791
▁vessels	-11.3792
沸腾	-11.3793
wp	-11.3794
他人	-11.3797
Temp	-11.3799
的情况下	-11.3802
▁mild	-11.3802
grade	-11.3804
ates	-11.3804
▁department	-11.3805
▁Sub	-11.3806
▁arrived	-11.3807
▁और	-11.3809
的工作	-11.381
け	-11.3811
▁На	-11.3811
普通	-11.3812
▁translation	-11.3814
blank	-11.3815
ах	-11.3815
repo	-11.3817
ket	-11.382
VM	-11.3821
▁Age	-11.3821
▁Pat	-11.3821
▁insect	-11.3825
▁habits	-11.3828
听	-11.3828
zz	-11.3829
▁Mon	-11.3831
throw	-11.3837
▁conversion	-11.3837
ay	-11.3837
▁Ph	-11.3839
ги	-11.384
▁logic	-11.384
▁integration	-11.3841
▁analyze	-11.3842
▁analyzed	-11.3845
DG	-11.3846
▁offering	-11.3852
希望	-11.3853
OUT	-11.3854
ير	-11.3855
eh	-11.3855
打磨	-11.3855
一致	-11.3857
ил	-11.3858
▁spectrum	-11.3861
have	-11.3862
▁Т	-11.3862
발	-11.3862
}^{	-11.3864
▁Security	-11.3866
ente	-11.3867
▁twenty	-11.3867
在煎药	-11.3871
rie	-11.3873
Delta	-11.3873
directory	-11.3878
rf	-11.3879
倒	-11.388
▁regard	-11.3882
谈	-11.3884
▁callback	-11.3885
pal	-11.3888
▁Ci	-11.3889
also	-11.3889
After	-11.3889
ック	-11.389
损害	-11.3894
awa	-11.3894
wave	-11.3895
▁troops	-11.39
bon	-11.3902
Com	-11.3904
运营	-11.3907
lies	-11.3908
ري	-11.3909
▁pure	-11.3909
及时与我们联系	-11.3911
uring	-11.3912
▁spending	-11.3914
ис	-11.3915
exports	-11.3919
yes	-11.3921
▁состав	-11.3922
面积	-11.3923
▁statistics	-11.3923
▁Board	-11.3925
stage	-11.3925
机器中	-11.3927
dependent	-11.3928
▁organized	-11.3928
▁Frank	-11.3929
야	-11.3932
▁nach	-11.3933
▁container	-11.3933
带来	-11.3941
rep	-11.3943
APP	-11.3944
▁crime	-11.3945
移	-11.3946
▁customer	-11.3947
printf	-11.3948
▁dealing	-11.3948
springframework	-11.3948
音乐	-11.3949
▁stopped	-11.395
今	-11.395
的一种	-11.3951
中华民族	-11.3951
▁comfortable	-11.3952
免疫	-11.3953
▁fairly	-11.3953
智	-11.3954
▁Academy	-11.3956
泡的形成	-11.3956
轮	-11.3957
Now	-11.3957
时看起来	-11.3957
▁strain	-11.396
程序设计是	-11.396
您在使用过程	-11.3961
遇到什么问题都	-11.3961
且沸	-11.3961
水与气	-11.3962
是正常的情况	-11.3962
decode	-11.3963
是比较微小的	-11.3963
rand	-11.3963
腾喷	-11.3963
的温度接近	-11.3963
状态以获取	-11.3964
留得更完	-11.3964
最佳药效	-11.3964
微沸腾	-11.3964
药性保	-11.3964
药材与水	-11.3964
药模式	-11.3965
▁contribution	-11.3965
▁wildlife	-11.3965
过程中所产生的热	-11.3965
量比较均匀	-11.3966
▁Chicago	-11.3966
▁bill	-11.3967
自动适应调	-11.3967
▁bear	-11.3968
▁Based	-11.3968
文武火	-11.3968
智能调节的	-11.3969
▁breathing	-11.3969
性质	-11.3972
속	-11.3972
高效	-11.3974
provider	-11.3974
sie	-11.3975
居民	-11.3975
جن	-11.3976
protected	-11.3976
流动	-11.3977
nodes	-11.3978
Symbol	-11.3979
javascript	-11.3979
最大	-11.3982
timeout	-11.3982
▁\[[@	-11.3983
▁literally	-11.3984
▁passage	-11.3984
ages	-11.3985
▁stack	-11.3987
……	-11.3987
镇	-11.3989
▁pointer	-11.3989
BL	-11.399
ub	-11.3993
▁Italy	-11.3993
comp	-11.3993
REDIRECT	-11.3994
负	-11.3996
▁District	-11.4
▁mountain	-11.4
大会	-11.4001
嘛	-11.4006
▁Ко	-11.4007
▁modify	-11.4007
▁presentation	-11.4012
Fields	-11.4014
代码	-11.4014
▁diameter	-11.4014
▁register	-11.4014
▁favor	-11.4015
localhost	-11.4016
今天	-11.4016
▁entre	-11.4016
害	-11.4016
▁revolution	-11.4017
ago	-11.4019
ima	-11.4022
Media	-11.4022
"$	-11.4023
SR	-11.4023
cpu	-11.4023
景	-11.4024
ett	-11.4028
pic	-11.4028
沟通	-11.4029
"${	-11.4031
▁Super	-11.4034
善	-11.4036
中国的	-11.4038
Pro	-11.4038
pub	-11.404
▁substantial	-11.4042
②	-11.4042
▁Micro	-11.4045
Support	-11.4046
认知	-11.4046
catch	-11.4046
dp	-11.4047
"],	-11.4047
▁complicated	-11.4048
▁signed	-11.4048
传感器	-11.4053
付	-11.4053
Save	-11.4056
AV	-11.4059
一直	-11.4059
酶	-11.4059
查	-11.406
收益	-11.406
▁operate	-11.406
Changed	-11.4063
▁instances	-11.4063
▁как	-11.4064
▁strict	-11.4065
更为	-11.4066
▁profile	-11.4066
columns	-11.4068
煎药的过程中	-11.407
sam	-11.4073
history	-11.4074
па	-11.4076
尤其是	-11.4079
LL	-11.4079
▁Bill	-11.4079
▁fever	-11.408
零	-11.4081
的社会	-11.4083
▁scores	-11.4086
架构	-11.4086
▁warming	-11.4091
▁expert	-11.4092
yr	-11.4093
各国	-11.4093
sup	-11.4094
做到	-11.4095
े	-11.4095
▁agency	-11.4095
▁characterized	-11.4096
有助于	-11.4097
)));	-11.4099
avi	-11.4099
Generator	-11.4101
平等	-11.4101
was	-11.4105
RC	-11.4105
▁forests	-11.4108
三是	-11.411
Work	-11.411
传输	-11.4111
에는	-11.4113
▁listen	-11.4114
座	-11.4115
▁एक	-11.4118
的基础	-11.4118
ो	-11.4118
▁manager	-11.4119
▁password	-11.4121
制作	-11.4122
▁foi	-11.4122
)|	-11.4123
▁WITHOUT	-11.4124
▁neck	-11.4126
▁Tu	-11.4126
▁curve	-11.4126
見	-11.4127
jan	-11.4127
▁observe	-11.4127
▁interpret	-11.4128
▁adds	-11.413
▁vulnerable	-11.413
照	-11.4131
Agent	-11.4131
ches	-11.4136
▁Med	-11.4137
OF	-11.4137
▁street	-11.4139
审	-11.4139
宗教	-11.4139
▁وصلات	-11.414
▁concentrations	-11.4141
整	-11.4142
pg	-11.4146
宣传	-11.4146
医	-11.4147
()	-11.4147
navbar	-11.4147
同样	-11.4148
▁classification	-11.4148
Background	-11.4148
▁Ten	-11.4149
히	-11.4152
brief	-11.4157
形成了	-11.4161
▁usual	-11.4162
如此	-11.4163
▁screening	-11.4165
▁investigation	-11.4166
▁segment	-11.4166
国务院	-11.4166
Errorf	-11.4168
实验室	-11.417
▁owners	-11.4171
▁philosophy	-11.4172
▁declared	-11.4175
Ka	-11.4176
▁agent	-11.4177
lands	-11.4179
围绕	-11.418
editor	-11.4186
FT	-11.4186
▁sie	-11.4189
▁Qu	-11.4189
▁Zu	-11.419
cri	-11.419
phy	-11.4191
▁Han	-11.4192
bootstrap	-11.4192
活	-11.4194
▁Northern	-11.4196
線	-11.4196
mond	-11.4197
驱动	-11.4199
ación	-11.4199
backend	-11.4201
▁tri	-11.4202
▁후	-11.4207
届	-11.4208
▁prime	-11.4208
shell	-11.4209
食品	-11.421
ash	-11.421
Selected	-11.4212
eau	-11.4214
EE	-11.4214
wi	-11.4217
▁feeding	-11.4219
Runtime	-11.4221
ERR	-11.4222
با	-11.4225
贷款	-11.4225
Events	-11.4228
▁undefined	-11.4231
yaml	-11.4231
uck	-11.4231
expect	-11.4232
wide	-11.4232
ib	-11.4233
export	-11.4234
▁plenty	-11.4238
ने	-11.4238
象	-11.4238
▁isolated	-11.4239
▁YÖNLENDİRME	-11.4239
중	-11.4239
说明书	-11.4239
金属	-11.4242
▁под	-11.4245
▁React	-11.4245
▁excess	-11.4246
▁beliefs	-11.4248
▁pool	-11.4248
endo	-11.4248
集团	-11.425
요	-11.4251
ович	-11.4257
وس	-11.4258
Names	-11.4259
▁essentially	-11.426
framework	-11.4262
▁entity	-11.4263
▁Write	-11.4264
than	-11.4265
▁tiny	-11.4265
simple	-11.4266
▁wine	-11.4268
يو	-11.4268
throws	-11.4269
▁أشخاص	-11.4271
症	-11.4273
▁Fe	-11.4274
Fragment	-11.4275
▁sensitivity	-11.4277
во	-11.4278
Man	-11.4278
▁legs	-11.428
▁coverage	-11.428
示	-11.4282
▁worst	-11.4283
ATION	-11.4283
Any	-11.4284
▁لاعبو	-11.4284
grad	-11.4285
▁moves	-11.4285
NA	-11.4286
ION	-11.4287
▁velocity	-11.4287
ست	-11.4288
▁province	-11.4288
▁있는	-11.429
されている	-11.4291
▁meal	-11.4291
rgb	-11.4293
Exp	-11.4293
▁Carolina	-11.4295
果汁	-11.4296
▁aussi	-11.4296
Na	-11.4297
▁standing	-11.4297
▁removal	-11.4298
的时候	-11.4299
▁nine	-11.4299
▁recommendations	-11.43
福	-11.4303
▁participation	-11.4308
BP	-11.4308
يت	-11.4308
Cloud	-11.4309
pd	-11.4311
bert	-11.4313
▁ongoing	-11.4314
▁hypothesis	-11.4314
▁Section	-11.4314
qu	-11.4314
ich	-11.4316
▁sonra	-11.4316
Mod	-11.4316
▁willing	-11.4317
rating	-11.4318
▁examination	-11.4319
virtual	-11.432
▁turning	-11.432
▁bigger	-11.4321
▁proportion	-11.4321
gs	-11.4323
模拟	-11.4323
▁politics	-11.4327
▁Empire	-11.4327
▁reduces	-11.4327
법	-11.433
school	-11.4331
▁Young	-11.4331
▁approved	-11.4331
▁영화	-11.4332
kat	-11.4332
破坏	-11.4333
▁reform	-11.4334
UL	-11.4334
▁sick	-11.4335
LI	-11.4335
吸收	-11.4335
subject	-11.4336
kon	-11.4336
영	-11.4337
Full	-11.434
聚	-11.4342
▁statements	-11.4343
Comment	-11.4343
▁Bre	-11.4344
▁funds	-11.4344
▁boy	-11.4345
纳入	-11.4345
实现了	-11.4347
secret	-11.4347
matic	-11.4348
LP	-11.4348
▁Non	-11.4348
bul	-11.4349
举	-11.4349
▁browser	-11.4351
피	-11.4356
▁advantages	-11.4357
进而	-11.4357
分离	-11.4358
▁guidance	-11.4359
▁Dec	-11.436
ao	-11.4361
年の	-11.4361
guide	-11.4362
現	-11.4362
▁saved	-11.4364
您看下	-11.4364
Pointer	-11.4366
▁matters	-11.4366
ama	-11.4367
▁UN	-11.4367
Ba	-11.4367
访问	-11.4368
ый	-11.4371
HA	-11.4371
▁deliver	-11.4371
巴	-11.4372
dst	-11.4373
hor	-11.4378
▁instruments	-11.4378
▁bug	-11.4378
▁Ze	-11.4378
给予	-11.4379
▁token	-11.4381
▁industries	-11.4384
快马加鞭	-11.4384
티	-11.4385
tent	-11.4385
人付款	-11.4385
传统的	-11.4387
▁fashion	-11.4388
▁Valley	-11.4389
▁temp	-11.439
只待	-11.4391
디	-11.4392
知识产权	-11.4393
府上	-11.4393
▁rely	-11.4395
店	-11.4395
已经准备就绪	-11.4396
易清洗	-11.4396
ami	-11.4397
送到您	-11.4399
TI	-11.44
▁win	-11.44
滴将	-11.4401
VR	-11.4401
亲爱滴	-11.4402
适用人数	-11.4402
亲爱哒	-11.4402
optional	-11.4402
您相	-11.4403
中的宝贝	-11.4403
わ	-11.4404
钱	-11.4405
▁fly	-11.4407
动物	-11.4407
▁كرة	-11.4408
▁Mag	-11.4409
▁Mer	-11.4409
▁Analysis	-11.441
EV	-11.4413
ular	-11.4415
▁cholesterol	-11.4415
▁interview	-11.4417
är	-11.4417
▁Referensi	-11.4417
▁videos	-11.4418
测	-11.4419
的同时	-11.442
bor	-11.442
▁sebagai	-11.4421
dataset	-11.4422
▁Spain	-11.4424
▁Several	-11.4425
doi	-11.4425
▁composed	-11.4431
依	-11.4433
▁absolutely	-11.4434
Mapping	-11.4436
▁Ber	-11.4436
▁eliminate	-11.4437
nen	-11.4437
投	-11.4439
预防	-11.4443
▁membrane	-11.4443
Detail	-11.4444
World	-11.4448
事务	-11.4448
mut	-11.4449
▁intensity	-11.445
干部	-11.445
▁ح	-11.4452
swing	-11.4452
如下	-11.4454
▁oleh	-11.4454
single	-11.4454
В	-11.4455
در	-11.4456
ax	-11.4457
层次	-11.4457
认定	-11.4457
▁attributes	-11.4458
metric	-11.4458
š	-11.4458
▁panel	-11.4459
CON	-11.4459
lation	-11.446
rn	-11.4461
RF	-11.4463
背景	-11.4463
LD	-11.4463
媒体	-11.4464
▁Java	-11.4466
▁Party	-11.4468
▁identification	-11.4469
▁Ireland	-11.447
graphic	-11.447
▁obesity	-11.4473
▁feels	-11.4474
oid	-11.4476
Secret	-11.4477
वा	-11.4477
基层	-11.4478
los	-11.4481
▁partners	-11.4481
▁preparation	-11.4481
▁Wi	-11.4481
▁Tan	-11.4482
▁effectiveness	-11.4482
▁美味	-11.4483
▁sales	-11.4483
文字	-11.4483
è	-11.4483
▁granted	-11.4484
▁Lee	-11.4485
dump	-11.4486
广	-11.4486
Ca	-11.4488
▁Club	-11.4488
▁FROM	-11.4489
是吗	-11.4489
qual	-11.449
主题	-11.4492
'];	-11.4493
MR	-11.4494
amount	-11.4495
▁mixture	-11.4498
服	-11.4499
argument	-11.4499
▁Centre	-11.4499
▁ile	-11.45
▁alert	-11.4501
▁committed	-11.4502
Raw	-11.4503
hide	-11.4504
德国	-11.4507
仍然	-11.4507
组合	-11.4508
ба	-11.4508
▁everyday	-11.4509
刻	-11.451
mate	-11.4514
布局	-11.4514
IA	-11.4518
▁predict	-11.4519
{})	-11.452
▁Music	-11.4521
XML	-11.4523
态	-11.4525
mont	-11.4525
周期	-11.4526
Effect	-11.4527
hit	-11.4528
▁colleagues	-11.4529
▁mathematical	-11.4529
▁mine	-11.453
ता	-11.453
ट	-11.4531
▁reverse	-11.4531
▁Main	-11.4531
▁Elle	-11.4531
▁insects	-11.4532
▁Grand	-11.4536
▁Times	-11.4538
variant	-11.4539
photo	-11.4539
▁territory	-11.454
Memory	-11.4542
東京	-11.4542
限	-11.4545
\_\	-11.4545
seed	-11.4548
▁equations	-11.4551
cv	-11.4552
mis	-11.4557
pel	-11.4559
kom	-11.4565
fail	-11.4565
资本主义	-11.4567
ツ	-11.4567
新闻	-11.4567
dal	-11.4567
HTML	-11.4567
plugins	-11.4569
human	-11.457
bp	-11.457
sar	-11.4571
direction	-11.4571
Tests	-11.4572
ब	-11.4575
▁stronger	-11.4576
▁RINVIA	-11.4577
Se	-11.4578
▁stick	-11.4581
▁Jean	-11.4584
ε	-11.4584
▁Auto	-11.4588
▁Help	-11.4589
▁Bal	-11.4589
yn	-11.459
Failed	-11.4591
"	-11.4593
sia	-11.4594
打造	-11.4596
好的亲	-11.4596
▁rising	-11.4599
▁외부	-11.46
▁kidney	-11.46
铁	-11.4601
Lib	-11.4603
ito	-11.4606
attributes	-11.4606
蒸汽	-11.4606
configuration	-11.4606
▁attempts	-11.4606
审计	-11.4607
领	-11.4609
bank	-11.4609
▁boys	-11.461
专利	-11.461
▁covers	-11.461
VA	-11.4614
まで	-11.4614
ident	-11.4616
▁anywhere	-11.462
AG	-11.462
▁cash	-11.4622
ads	-11.4628
▁initially	-11.4628
▁bound	-11.4629
▁inform	-11.4631
地球	-11.4632
▁minute	-11.4633
▁Native	-11.4633
▁dollars	-11.4634
▁copies	-11.4634
▁supplies	-11.4635
NOT	-11.4636
USER	-11.4636
役	-11.4637
▁quantum	-11.4639
cia	-11.464
▁nearby	-11.4641
▁informed	-11.4641
货	-11.4642
Login	-11.4642
▁guy	-11.4643
▁careful	-11.4643
mul	-11.4644
助	-11.4645
评	-11.4646
sus	-11.4646
返	-11.4648
▁hardware	-11.4651
▁seeking	-11.4651
跨	-11.4652
PER	-11.4654
▁Berlin	-11.4656
一条	-11.4658
バー	-11.466
生长	-11.4661
▁plate	-11.4662
▁observation	-11.4662
([]	-11.4662
▁respiratory	-11.4662
▁regardless	-11.4663
▁cleaning	-11.4664
▁Bir	-11.4667
▁Light	-11.4667
所谓	-11.4667
▁ensuring	-11.4671
▁±	-11.4672
▁Os	-11.4672
▁से	-11.4672
往	-11.4672
签收	-11.4674
▁compound	-11.4674
唐	-11.4674
Res	-11.4676
ター	-11.4676
tier	-11.4677
▁Organization	-11.4677
售后	-11.4678
▁oder	-11.4678
EQ	-11.468
ography	-11.4681
▁mood	-11.4681
En	-11.4682
错误	-11.4682
▁nervous	-11.4682
▁implications	-11.4683
basic	-11.4683
Day	-11.4687
▁universal	-11.469
ark	-11.4691
Screen	-11.4692
ся	-11.4693
ты	-11.4696
▁Sciences	-11.4696
rib	-11.4697
▁edition	-11.4697
who	-11.4698
▁cats	-11.47
▁Au	-11.47
تو	-11.4704
직	-11.4705
slide	-11.4706
▁Treatment	-11.4707
stitu	-11.4708
▁Further	-11.4709
SU	-11.4711
ground	-11.4711
▁extract	-11.4714
Character	-11.4717
Material	-11.4717
rust	-11.4719
▁powers	-11.472
oon	-11.4721
▁einer	-11.4721
speed	-11.4722
▁sight	-11.4722
▁election	-11.4723
当时	-11.4724
▁presents	-11.4724
▁proven	-11.4725
良	-11.4725
ソ	-11.4725
▁warning	-11.4726
▁Climate	-11.4727
吉	-11.4732
Н	-11.4734
乱	-11.4735
▁correlation	-11.4738
▁weapons	-11.474
من	-11.4741
成就	-11.4746
PORT	-11.4747
ρ	-11.4749
▁implements	-11.4749
Ge	-11.475
▁dream	-11.475
Models	-11.475
▁blog	-11.475
▁Blue	-11.4751
▁pairs	-11.4754
defined	-11.4754
rec	-11.4755
actions	-11.4756
ами	-11.4758
learn	-11.476
▁ou	-11.476
▁링크	-11.476
▁algorithms	-11.4761
有的	-11.4761
編	-11.4765
▁Fu	-11.4765
抑制	-11.4767
ple	-11.4769
齐	-11.477
Shape	-11.477
▁Community	-11.477
▁rgba	-11.4771
memory	-11.4771
Chat	-11.4773
▁issued	-11.4775
▁hence	-11.4775
▁Next	-11.478
▁employment	-11.478
يس	-11.4781
沙	-11.4782
▁justify	-11.4785
▁evaluated	-11.4786
▁generations	-11.4786
体验	-11.4786
▁maintained	-11.4786
operator	-11.4787
亿	-11.4789
▁announced	-11.4789
Free	-11.479
权益	-11.4791
▁sitting	-11.4791
▁intellectual	-11.4792
▁aims	-11.4794
▁county	-11.4794
ке	-11.4794
О	-11.4794
ending	-11.4795
纳	-11.4796
▁EU	-11.4797
危机	-11.4798
▁moderate	-11.4799
Lo	-11.4799
▁Ф	-11.48
pattern	-11.4805
▁watching	-11.4806
加大	-11.4807
생	-11.4808
▁branches	-11.481
ug	-11.4812
▁absorb	-11.4812
创	-11.4812
队	-11.4814
disabled	-11.4814
▁interpretation	-11.4818
ific	-11.4819
EA	-11.482
▁relief	-11.482
▁lay	-11.482
▁brings	-11.4821
Azure	-11.4821
▁بعد	-11.4824
永	-11.4827
▁exercises	-11.4827
领域的	-11.4829
▁destination	-11.483
SHA	-11.4831
容易	-11.4832
▁Das	-11.4836
ick	-11.4836
▁delay	-11.4836
">	-11.4836
bybtqdyh	-11.4836
▁pandemic	-11.4837
人可用	-11.4837
▁KIND	-11.4837
的概念	-11.4838
Identifier	-11.484
承	-11.484
Progress	-11.4842
Abstract	-11.4843
▁repeated	-11.4844
键	-11.4845
股	-11.4845
您可以点	-11.4846
升级款豆浆机可以打	-11.4846
▁scenario	-11.4848
}_{	-11.485
笔	-11.4851
▁ret	-11.4854
Home	-11.4855
تي	-11.4856
شر	-11.4856
下的	-11.4856
unt	-11.4857
▁adequate	-11.4857
clean	-11.4858
▁©	-11.486
headers	-11.4861
▁influenced	-11.4861
▁reasonable	-11.4862
▁Best	-11.4863
St	-11.4866
dx	-11.4866
typename	-11.4866
emia	-11.4866
▁meters	-11.4868
Die	-11.4868
样	-11.4869
▁caught	-11.4869
DP	-11.4871
▁Due	-11.4872
ige	-11.4874
reader	-11.4874
Transform	-11.4874
出发	-11.4876
销	-11.4877
DEBUG	-11.4877
▁activation	-11.4878
▁independence	-11.488
必然	-11.488
▁introduce	-11.4884
▁renewable	-11.4884
▁Maybe	-11.4888
生态环境	-11.4888
改进	-11.4889
Release	-11.489
句	-11.489
▁newly	-11.4893
Ha	-11.4894
ве	-11.4897
▁Kingdom	-11.49
dark	-11.4902
▁для	-11.4903
▁resolve	-11.4905
▁launch	-11.4905
iste	-11.4907
▁trigger	-11.4909
▁python	-11.4909
正是	-11.491
features	-11.4912
warning	-11.4914
تر	-11.4916
ites	-11.4918
ule	-11.492
olo	-11.4922
ics	-11.4922
ود	-11.4924
▁launched	-11.4926
▁„	-11.4928
▁intense	-11.4928
▁diagnostic	-11.4929
▁rain	-11.4932
prob	-11.4933
geo	-11.4933
PASSWORD	-11.4935
▁Christmas	-11.4935
秩序	-11.4937
uc	-11.4938
▁organisms	-11.4938
▁lean	-11.494
补	-11.4942
archive	-11.4943
Region	-11.4944
hour	-11.4946
resolve	-11.4947
▁paint	-11.4948
快递	-11.4952
▁wonder	-11.4952
的结果	-11.4952
ters	-11.4952
模块	-11.4953
ein	-11.4954
▁dataset	-11.4955
▁Hospital	-11.4956
folder	-11.4959
▁Standard	-11.496
iterator	-11.4962
▁hurt	-11.4965
▁stores	-11.4965
Draw	-11.4965
▁Dar	-11.4966
rap	-11.4966
▁pregnant	-11.4966
Import	-11.4968
program	-11.4968
▁brief	-11.4969
博	-11.497
▁spatial	-11.497
只要	-11.4974
Ver	-11.4974
▁handling	-11.4974
▁beauty	-11.4975
etti	-11.4976
nut	-11.4976
▁consume	-11.4978
▁silver	-11.4981
ings	-11.4982
▁evil	-11.4982
▁dependent	-11.4985
▁proved	-11.4986
▁preventing	-11.4989
▁Modern	-11.4992
移动	-11.4996
岩	-11.4998
▁worry	-11.4998
▁عدد	-11.5001
uch	-11.5003
كا	-11.5005
gui	-11.5005
▁substances	-11.5006
当然	-11.5008
单元	-11.5009
MIN	-11.501
bur	-11.501
teen	-11.501
▁seat	-11.5011
▁Last	-11.5011
abil	-11.5012
場	-11.5014
予以	-11.5014
▁replacement	-11.5016
turn	-11.5017
▁bed	-11.5017
▁mark	-11.5017
▁extend	-11.5021
▁forget	-11.5021
▁Ger	-11.5022
LY	-11.5023
Section	-11.5023
いた	-11.5024
是不是	-11.5024
▁che	-11.5024
▁Did	-11.5024
iş	-11.5025
▁Hence	-11.5025
श	-11.5027
▁Minister	-11.5028
Usage	-11.5028
Required	-11.5031
▁analyses	-11.5032
RI	-11.5035
有效的	-11.5035
▁artists	-11.5035
▁validate	-11.5037
tik	-11.5037
▁Moon	-11.5037
持	-11.5038
▁我来帮您推荐下哦	-11.5044
oli	-11.5044
信息化	-11.5045
variable	-11.5048
wind	-11.505
孔	-11.505
▁bağlı	-11.5051
转化	-11.5051
▁males	-11.5052
eri	-11.5053
volume	-11.5054
week	-11.5056
▁repeat	-11.5057
γ	-11.5057
▁Road	-11.5059
Sync	-11.5059
rad	-11.506
▁Shi	-11.5061
Video	-11.5062
职业教育	-11.5062
格局	-11.5062
▁ordered	-11.5064
上升	-11.5065
印	-11.5067
circle	-11.5067
面临	-11.5067
pha	-11.5068
一下	-11.5071
nis	-11.5072
▁Gi	-11.5073
▁chart	-11.5076
服务器	-11.508
▁الن	-11.5081
▁سنة	-11.5081
gem	-11.5083
LO	-11.5089
▁complications	-11.5089
policy	-11.509
▁ignore	-11.5091
rated	-11.5093
▁هذا	-11.5093
▁theories	-11.5094
("%	-11.5095
▁painting	-11.5097
▁characteristic	-11.5098
pred	-11.5098
▁markets	-11.51
rk	-11.51
▁divide	-11.5101
▁prominent	-11.5103
film	-11.5103
细	-11.5104
symbol	-11.5106
▁greenhouse	-11.5108
弱	-11.5108
略	-11.511
▁fourth	-11.5111
▁theme	-11.5112
▁Res	-11.5112
じ	-11.5114
Chart	-11.5116
破	-11.5117
Rect	-11.5117
ones	-11.5119
总体	-11.5124
连续	-11.5124
ガ	-11.5126
mak	-11.5128
ер	-11.5129
Mi	-11.513
员工	-11.5131
▁Ki	-11.5132
bri	-11.5135
▁pounds	-11.5136
▁Население	-11.5137
换	-11.5138
PO	-11.5139
▁noticed	-11.514
вод	-11.5141
Render	-11.5141
▁sizes	-11.5142
▁dimensions	-11.5143
侧	-11.5144
Simple	-11.5144
caption	-11.5145
▁bytes	-11.5146
▁surfaces	-11.5148
ivity	-11.515
lp	-11.5152
chan	-11.5152
障碍	-11.5156
ges	-11.5157
ses	-11.5161
▁Hill	-11.5162
▁bridge	-11.5163
▁preserve	-11.5164
Driver	-11.5165
因而	-11.5165
員	-11.5166
▁Sin	-11.5167
contains	-11.5169
途径	-11.517
fur	-11.517
▁outer	-11.5172
▁schedule	-11.5172
▁consideration	-11.5174
▁transformation	-11.5175
▁shapes	-11.5175
>();	-11.518
STR	-11.518
▁innovation	-11.5182
obs	-11.5182
▁processed	-11.5184
▁facility	-11.5184
typeof	-11.5185
▁TODO	-11.5186
▁corn	-11.5186
Notification	-11.5186
출	-11.519
检验	-11.5191
▁cup	-11.5193
▁reporting	-11.5193
继承	-11.5195
推广	-11.5195
kh	-11.5195
SB	-11.5196
▁Love	-11.5196
▁ages	-11.5198
▁Ra	-11.5202
合成	-11.5203
sw	-11.5205
▁rarely	-11.5205
▁Eastern	-11.5206
č	-11.5206
岁	-11.5207
▁وفيات	-11.5208
尼	-11.5209
▁separated	-11.5209
▁giant	-11.521
▁Services	-11.5211
{},	-11.5212
使用方法	-11.5213
لو	-11.5213
▁physics	-11.5213
友	-11.5214
ず	-11.5214
hold	-11.5215
Bi	-11.5217
▁오	-11.5218
担保	-11.5219
got	-11.5219
▁displayed	-11.522
▁killing	-11.5221
되어	-11.5222
rl	-11.5224
Price	-11.5226
rev	-11.5226
▁listening	-11.5227
▁captured	-11.5229
▁Islam	-11.5231
▁interval	-11.5231
▁Queen	-11.5231
:#	-11.5235
▁decay	-11.5238
▁대	-11.5238
▁sensor	-11.524
Print	-11.524
利率	-11.5241
▁Carl	-11.5242
nam	-11.5243
stock	-11.5243
▁soul	-11.5244
Byte	-11.5247
']['	-11.5247
▁scheme	-11.5249
dı	-11.5249
都有	-11.5252
Flags	-11.5255
UC	-11.5256
청	-11.5257
▁Э	-11.5259
严	-11.526
▁Consider	-11.526
Program	-11.526
validation	-11.5262
Marshal	-11.5262
▁founded	-11.5262
ν	-11.5263
冷	-11.5263
卫生	-11.5263
▁deeper	-11.5265
▁zum	-11.5265
的根本	-11.5273
赠品	-11.5273
Forms	-11.5275
新款	-11.5275
実	-11.5275
socket	-11.5277
▁بن	-11.5277
▁folder	-11.5281
unique	-11.5281
▁Having	-11.5282
evo	-11.5285
▁trauma	-11.5289
▁disc	-11.5292
必要	-11.5293
▁constructor	-11.5293
pes	-11.5295
tig	-11.5295
eta	-11.5298
▁Director	-11.5299
MAP	-11.5299
▁minimize	-11.5301
SN	-11.5301
▁widespread	-11.5303
遵循	-11.5304
ی	-11.5305
ında	-11.5307
pVMkl	-11.5308
sigma	-11.5308
打果汁	-11.531
尚	-11.531
Texture	-11.531
尽	-11.5311
ур	-11.5319
▁Unless	-11.5319
네	-11.532
pol	-11.5321
▁phenomenon	-11.5322
▁legislation	-11.5322
基地	-11.5325
▁dioxide	-11.5327
肉	-11.5329
▁Mil	-11.5331
运输	-11.5332
▁Network	-11.5332
▁Constitution	-11.5333
▁assumed	-11.5333
▁females	-11.5335
转换	-11.5336
inc	-11.5336
进步	-11.5337
dur	-11.5339
NF	-11.5339
▁Description	-11.534
量子	-11.534
▁sizeof	-11.534
▁И	-11.5342
▁columns	-11.5342
▁complexity	-11.5342
▁carrying	-11.5343
▁Article	-11.5343
建议亲	-11.5344
▁publication	-11.5344
▁damaged	-11.5345
冲突	-11.5346
History	-11.5347
▁Pen	-11.5349
▁League	-11.5349
▁thermal	-11.5352
喜欢带走哈亲亲	-11.5352
live	-11.5353
GDP	-11.5353
▁equally	-11.5354
是由	-11.5354
▁Cre	-11.5357
gest	-11.5357
رو	-11.5359
▁bringing	-11.536
GM	-11.5361
加速	-11.5361
▁Amazon	-11.5363
nik	-11.5363
父	-11.5364
▁delivered	-11.5366
Volume	-11.5366
问	-11.5367
为主	-11.537
▁Cal	-11.5373
izer	-11.5373
▁신	-11.5376
hood	-11.5379
▁kid	-11.538
▁gut	-11.538
▁``	-11.5381
到了	-11.5382
Д	-11.5382
某些	-11.5383
▁puts	-11.5384
locale	-11.5384
ces	-11.5384
约定	-11.5389
fin	-11.539
▁Korea	-11.539
Ad	-11.5391
▁Remember	-11.5392
▁bought	-11.5392
物联网	-11.5393
▁mining	-11.5393
els	-11.5395
bits	-11.5395
감	-11.5396
▁emphasis	-11.5396
tool	-11.5399
mission	-11.54
___	-11.54
ته	-11.5401
psi	-11.5401
▁shell	-11.5406
ен	-11.5406
▁Dia	-11.5408
准确	-11.541
香	-11.541
▁engaged	-11.541
▁بين	-11.5413
旅游	-11.5413
▁ولد	-11.5414
nat	-11.5414
深度	-11.5415
▁Report	-11.5415
▁serves	-11.5416
REDIRECIONAMENTO	-11.5417
tc	-11.5418
▁verify	-11.5418
创业	-11.5419
hol	-11.542
▁burning	-11.5421
▁aux	-11.5422
▁merely	-11.5424
dos	-11.5425
▁Engineering	-11.5425
windows	-11.5429
objects	-11.5429
▁Gen	-11.5435
关联	-11.5437
癌	-11.5438
▁clock	-11.5439
best	-11.544
▁sport	-11.5441
Origin	-11.5441
▁Gold	-11.5443
र्	-11.5446
▁Bat	-11.5448
女性	-11.5448
structure	-11.5449
▁steam	-11.5449
Binding	-11.545
zon	-11.545
General	-11.545
拓展	-11.545
▁opposed	-11.5451
tv	-11.5452
▁banks	-11.5453
▁Oxford	-11.5453
Protocol	-11.5454
▁Johnson	-11.5456
统筹	-11.5457
CHECK	-11.5457
▁finish	-11.5457
订单	-11.5457
▁Mel	-11.5457
▁gradually	-11.5462
Dev	-11.5464
延	-11.5467
cro	-11.5468
▁corner	-11.5469
▁providers	-11.547
목	-11.547
▁Online	-11.5474
mobile	-11.5476
▁contents	-11.5476
▁Place	-11.5478
動	-11.5478
Wrapper	-11.5479
▁nose	-11.548
ND	-11.548
ario	-11.548
▁Forest	-11.5482
▁lowest	-11.5485
integer	-11.5485
▁moisture	-11.5485
▁overcome	-11.5485
▁leaf	-11.5487
▁사람	-11.5487
等等	-11.5487
uid	-11.5488
Hello	-11.5488
排	-11.5488
Props	-11.549
▁Researchers	-11.5492
别	-11.5493
سا	-11.5495
century	-11.5495
views	-11.5496
once	-11.5496
死亡	-11.5496
raise	-11.5497
使用时	-11.5497
行使	-11.5499
优先	-11.5499
▁serving	-11.5504
▁motivation	-11.5504
研究人员	-11.5506
命	-11.5506
▁healing	-11.5507
力度	-11.5507
离	-11.5508
产生的	-11.5509
▁Pol	-11.551
صر	-11.551
▁references	-11.551
▁Out	-11.5511
税收	-11.5516
iki	-11.5516
▁identifying	-11.5518
仁	-11.5518
退货	-11.5519
▁Family	-11.5519
country	-11.5519
▁Division	-11.552
timestamp	-11.5521
lık	-11.5521
TT	-11.5522
DF	-11.5522
准备	-11.5523
")]	-11.5523
▁sin	-11.5523
nc	-11.5524
素质	-11.5524
日益	-11.5527
▁strings	-11.5527
▁نسمة	-11.5527
بي	-11.5528
异常	-11.553
BB	-11.5531
NP	-11.5531
ala	-11.5533
▁centers	-11.5535
Security	-11.5537
距离	-11.5538
▁destruction	-11.5538
craft	-11.5538
Platform	-11.5539
Sort	-11.5541
中华人民共和国	-11.5545
▁gained	-11.5546
▁bias	-11.5546
▁tube	-11.5547
▁tip	-11.5549
cross	-11.5549
ural	-11.555
runner	-11.5551
资	-11.5551
右	-11.5553
Socket	-11.5553
Declaration	-11.5553
▁argue	-11.5553
PH	-11.5553
研究所	-11.5555
PL	-11.5556
▁hydro	-11.5557
▁М	-11.5558
석	-11.5561
GE	-11.5562
▁Rock	-11.5562
统	-11.5563
;">	-11.5563
▁focuses	-11.5564
▁quantity	-11.5564
▁organs	-11.5566
condition	-11.5567
展开	-11.5568
labels	-11.5568
っ	-11.5569
允许	-11.557
atom	-11.5571
mé	-11.5571
▁Fig	-11.5572
▁Business	-11.5574
帝	-11.5576
اد	-11.5576
deg	-11.5577
▁Santa	-11.5578
extra	-11.5578
Non	-11.5578
▁sought	-11.5582
Drawing	-11.5583
TAG	-11.5583
tensor	-11.5585
데	-11.5586
내	-11.5587
ithubusercontent	-11.5588
here	-11.5588
▁Holy	-11.5588
▁threshold	-11.5588
补充	-11.5589
▁Pu	-11.559
Sec	-11.5591
Audio	-11.5591
一定的	-11.5591
授权	-11.5592
▁designs	-11.5593
ु	-11.5594
氧化	-11.5595
▁공	-11.5596
▁Computer	-11.5598
Tool	-11.5599
रा	-11.5599
活性	-11.56
UTF	-11.5601
DT	-11.5603
郡	-11.5604
trial	-11.5604
越来越	-11.5605
刊	-11.5606
▁정	-11.5607
▁부	-11.5607
groups	-11.5607
一系列	-11.561
invalid	-11.5612
▁Building	-11.5612
▁eastern	-11.5615
rio	-11.5616
▁considerable	-11.5618
▁Reading	-11.5618
Tr	-11.562
Desc	-11.562
wer	-11.5622
▁Maria	-11.5622
▁concerning	-11.5624
▁enables	-11.5624
▁egg	-11.5625
能量	-11.5625
▁leg	-11.5627
▁statistical	-11.5627
的思想	-11.5627
▁dates	-11.5629
▁rose	-11.563
▁trends	-11.563
invoke	-11.5631
Pass	-11.5631
男	-11.5632
мен	-11.5632
▁union	-11.5632
vx	-11.5633
▁axis	-11.5634
▁marks	-11.5635
mathbf	-11.5635
▁Fort	-11.5637
▁wire	-11.564
Language	-11.564
oh	-11.564
过去	-11.5641
▁Pranala	-11.5641
▁Introduction	-11.5643
patch	-11.5646
]))	-11.5647
▁fellow	-11.5647
▁mathematics	-11.5648
▁heavily	-11.565
▁각주	-11.565
相同	-11.5655
▁computing	-11.5656
博士	-11.5657
▁NO	-11.5658
们	-11.5659
自定义	-11.566
▁hole	-11.5661
果	-11.5662
它的	-11.5663
Stop	-11.5664
出口	-11.5666
ators	-11.5668
▁exhibit	-11.5668
risk	-11.5669
有着	-11.5672
▁applying	-11.5673
固定	-11.5674
сто	-11.5674
factory	-11.5674
:**	-11.5676
坚定	-11.5676
▁converted	-11.5678
нов	-11.5681
▁versus	-11.5681
gun	-11.5681
▁simulation	-11.5682
诉	-11.5682
Normal	-11.5685
î	-11.5686
USE	-11.5686
ord	-11.5687
Т	-11.5688
sun	-11.5688
▁appeal	-11.5689
prim	-11.5689
内涵	-11.569
ska	-11.5691
▁regulation	-11.5691
BQ	-11.5691
omega	-11.5694
▁representing	-11.5695
Example	-11.5695
ное	-11.5696
▁werden	-11.5698
▁enabled	-11.5698
时保温	-11.5703
science	-11.5705
ों	-11.5705
▁Following	-11.5708
tam	-11.5708
急	-11.5709
▁facing	-11.5709
▁Yu	-11.571
之中	-11.5712
▁grass	-11.5712
▁pop	-11.5714
analysis	-11.5715
lusion	-11.5716
奥	-11.5716
friendly	-11.5717
▁measuring	-11.5718
个月	-11.572
▁Cross	-11.5724
rho	-11.5726
Namespace	-11.5727
들	-11.5729
▁Irish	-11.5731
Pair	-11.5732
Prefix	-11.5733
▁개	-11.5734
▁Band	-11.5734
CPU	-11.574
Pod	-11.5741
AND	-11.5742
▁ع	-11.5744
▁JSON	-11.5748
③	-11.5748
电话	-11.5749
▁'/	-11.5749
▁television	-11.575
▁sont	-11.5751
▁Sha	-11.5751
▁declare	-11.5754
名称	-11.5755
▁Low	-11.5755
▁الق	-11.5755
ensis	-11.5758
奇	-11.5761
swap	-11.5762
▁excessive	-11.5763
LT	-11.5765
▁difficulties	-11.5767
▁Linux	-11.5768
▁planned	-11.5769
强度	-11.5769
▁lies	-11.577
John	-11.577
ition	-11.577
Bit	-11.5771
Only	-11.5771
yer	-11.5771
atic	-11.5772
进展	-11.5772
▁senior	-11.5773
ACT	-11.5774
دا	-11.5777
▁harder	-11.5777
stein	-11.5777
看到	-11.5778
ox	-11.5778
凉水	-11.578
Tools	-11.5781
的理论	-11.5781
gray	-11.5782
角度	-11.5782
集成	-11.5782
Sequence	-11.5782
▁fraction	-11.5783
cookie	-11.5783
gp	-11.5786
航	-11.5786
독	-11.5786
progress	-11.5787
▁burden	-11.5787
▁officers	-11.5787
times	-11.5788
cout	-11.5789
PB	-11.579
▁victims	-11.579
后的	-11.5793
斗争	-11.5794
inger	-11.5795
交换	-11.5796
ला	-11.5796
lev	-11.5796
omitempty	-11.5796
有什么问题都是可以咨询小客服的亲	-11.5798
▁boundaries	-11.5798
）（	-11.5798
开网址	-11.5799
PDF	-11.5799
的时间	-11.5799
遇到售后问题	-11.5799
Single	-11.5799
就近网点	-11.5799
小程序查询	-11.58
电话联系一下	-11.58
mil	-11.58
或者直接扫描	-11.58
到货晒图	-11.58
以免跑	-11.58
▁preferred	-11.5801
scan	-11.5802
ロー	-11.5802
视频哈	-11.5802
升大容量	-11.5803
▁Special	-11.5803
▁treating	-11.5804
bt	-11.5805
dropdown	-11.5807
▁clients	-11.5808
pie	-11.5809
▁Has	-11.5809
▁Boston	-11.581
flush	-11.581
▁priority	-11.581
咨询	-11.581
kor	-11.5811
tale	-11.5812
▁roughly	-11.5813
▁jump	-11.5813
▁>>	-11.5814
▁gun	-11.5816
▁falls	-11.582
iel	-11.5821
指定	-11.5823
▁Administration	-11.5824
展	-11.5826
▁untuk	-11.5827
问题的	-11.5829
▁وت	-11.583
ToString	-11.5831
述	-11.5832
▁Force	-11.5834
Sql	-11.5834
▁Pea	-11.5835
Prop	-11.5837
ENT	-11.5838
亲先	-11.5839
的政治	-11.584
남	-11.5842
寺	-11.5843
▁bei	-11.5843
境	-11.5844
兰	-11.5848
▁commands	-11.5848
Connect	-11.5849
▁neural	-11.5857
▁пере	-11.5857
BASE	-11.5858
ラー	-11.586
emp	-11.5861
메	-11.5862
地域	-11.5863
▁Year	-11.5863
高质量发展	-11.5864
约束	-11.5865
▁ingredients	-11.5869
▁extern	-11.587
▁bread	-11.5871
▁printed	-11.5871
映画	-11.5872
▁contributions	-11.5873
屋	-11.5874
Б	-11.5875
▁المراجع	-11.5876
Rest	-11.5876
真的	-11.5877
▁forth	-11.5879
标志	-11.5881
▁Perhaps	-11.5881
저	-11.5883
bone	-11.5885
Put	-11.5886
其次	-11.5886
Light	-11.5887
▁removing	-11.5888
利润	-11.589
redirect	-11.589
▁Mat	-11.5891
▁evening	-11.5895
▁Ag	-11.5895
理性	-11.5896
ви	-11.59
▁totally	-11.5902
▁copper	-11.5902
由此	-11.5904
▁Assert	-11.5904
▁Problem	-11.5905
▁superior	-11.5907
▁temporary	-11.5907
▁Ada	-11.5907
年生	-11.5908
▁heating	-11.591
▁plasma	-11.591
Before	-11.5912
▁confirm	-11.5912
▁magnitude	-11.5912
▁Systems	-11.5912
ит	-11.5913
▁unsigned	-11.5913
▁minimal	-11.5914
lag	-11.5915
▁contemporary	-11.5916
▁chest	-11.5916
苏	-11.5917
▁waters	-11.5919
地理	-11.592
▁criminal	-11.5922
aga	-11.5922
설	-11.5923
▁laid	-11.5923
Xml	-11.5923
enabled	-11.5926
Scroll	-11.593
hn	-11.593
成长	-11.5931
utter	-11.5931
湖	-11.5932
▁Hal	-11.5933
CG	-11.5934
▁desert	-11.5937
▁ships	-11.5938
dat	-11.5941
uma	-11.5942
▁Without	-11.5945
▁Survey	-11.5945
opts	-11.5946
预期	-11.5949
和平	-11.595
较为	-11.5951
▁telling	-11.5952
▁capabilities	-11.5952
slice	-11.5953
ena	-11.5953
▁addressed	-11.5954
▁managing	-11.5957
му	-11.596
创作	-11.5961
▁performing	-11.5963
日本の	-11.5963
disable	-11.5964
▁committee	-11.5966
vy	-11.5966
专门	-11.5967
▁Tur	-11.5967
Mask	-11.5968
dAtA	-11.597
Results	-11.5971
▁Licensed	-11.5974
후	-11.5974
▁club	-11.5975
▁wird	-11.5975
review	-11.5976
电池	-11.5976
FI	-11.5976
简	-11.5976
客	-11.5978
▁babies	-11.5979
typ	-11.5979
添加	-11.5981
LINE	-11.5981
▁ser	-11.5982
▁acquired	-11.5982
iya	-11.5986
▁retain	-11.5986
规定的	-11.5989
▁claimed	-11.599
icons	-11.5992
▁predicted	-11.5993
によって	-11.5994
convert	-11.5994
mathrm	-11.5995
just	-11.5996
▁calories	-11.5997
(`	-11.5998
Selection	-11.5998
森	-11.5999
▁football	-11.6
必	-11.6002
▁Heart	-11.6003
▁clothing	-11.6004
transaction	-11.6007
▁optical	-11.6008
Env	-11.601
▁satellite	-11.6011
▁transparent	-11.6013
▁같이	-11.6013
مة	-11.6014
固	-11.6014
plant	-11.6016
parameter	-11.6016
更多的	-11.6018
尊重	-11.6018
nia	-11.602
verse	-11.6021
▁destroy	-11.6023
Elements	-11.6023
ヒ	-11.6023
▁photos	-11.6025
覆盖	-11.6027
PG	-11.6029
▁Trans	-11.603
فا	-11.6032
▁minerals	-11.6033
mos	-11.6034
Focus	-11.6034
ista	-11.6035
ient	-11.6035
▁reveal	-11.6035
Face	-11.6035
▁Far	-11.6036
onder	-11.6036
ベ	-11.6037
気	-11.6037
oz	-11.6037
Instruction	-11.6038
▁Zealand	-11.6039
▁investigated	-11.604
PCR	-11.6042
面向	-11.6045
Attributes	-11.6046
will	-11.6047
pra	-11.6047
▁drought	-11.6049
Score	-11.6049
▁Understanding	-11.6049
▁differ	-11.6049
Resources	-11.6052
相当	-11.6053
追	-11.6054
無	-11.6054
▁interventions	-11.6054
广大	-11.6054
tone	-11.6058
那些	-11.6059
▁AD	-11.6061
▁Word	-11.6062
их	-11.6062
▁Indeed	-11.6064
wen	-11.6064
vet	-11.6066
Enable	-11.6067
▁realized	-11.6068
RD	-11.607
宽	-11.607
ruby	-11.6072
▁adapt	-11.6073
square	-11.6073
[@	-11.6075
▁mapping	-11.6075
▁{{	-11.6076
▁pot	-11.6079
lia	-11.6079
fat	-11.608
方面的	-11.6081
answer	-11.6083
ख	-11.6085
▁사용	-11.6088
▁neurons	-11.609
原子	-11.609
几个	-11.609
▁horses	-11.609
▁Fund	-11.6091
▁viruses	-11.6092
偏	-11.6095
▁hormone	-11.6097
dra	-11.6098
稳	-11.6101
öl	-11.6104
▁illegal	-11.6104
法规	-11.6107
▁Facebook	-11.6108
▁Convention	-11.6111
▁promise	-11.6111
dig	-11.6111
▁printing	-11.6113
Cr	-11.6113
합	-11.6119
激励	-11.612
URI	-11.612
stra	-11.6122
Proxy	-11.6122
化的	-11.6123
解放	-11.6124
•	-11.6126
黑	-11.6128
医院	-11.613
▁Still	-11.6132
▁Ol	-11.6132
码	-11.6132
badge	-11.6133
マン	-11.6135
▁shouldn	-11.6135
▁labels	-11.6137
hex	-11.6137
mir	-11.6138
▁été	-11.6139
erg	-11.614
버	-11.6141
tl	-11.6143
夜	-11.6143
spi	-11.6143
症状	-11.6143
Proto	-11.6146
SO	-11.6146
لا	-11.6148
▁Click	-11.615
▁brand	-11.6151
▁Examples	-11.6151
习近平总书记	-11.6152
▁specify	-11.6153
▁boundary	-11.6153
▁guys	-11.6154
指数	-11.6155
机身	-11.6158
worth	-11.6159
construct	-11.6159
▁apparent	-11.616
▁doi	-11.616
▁texts	-11.616
جر	-11.6161
▁Agency	-11.6162
protocol	-11.6162
Subject	-11.6165
▁calm	-11.6166
▁rocks	-11.6166
▁windows	-11.6167
stand	-11.6167
套	-11.6168
burn	-11.6168
实体	-11.6169
▁Should	-11.617
▁Pakistan	-11.6171
▁integral	-11.6175
▁addresses	-11.6176
▁aimed	-11.6177
Bus	-11.618
▁asthma	-11.618
迅速	-11.6181
ön	-11.6184
RAM	-11.6184
▁ما	-11.6186
▁Show	-11.6186
Services	-11.6186
▁requirement	-11.6187
Л	-11.6188
▁cord	-11.6188
探究	-11.6188
绿	-11.6189
arc	-11.6193
ır	-11.6193
▁discrimination	-11.6193
▁[];	-11.6194
▁farming	-11.6194
▁recall	-11.6195
Library	-11.6197
goto	-11.62
▁sharp	-11.6202
Keys	-11.6202
assertTrue	-11.6203
▁sister	-11.6203
▁Edward	-11.6204
▁historic	-11.6204
效	-11.6206
₂	-11.621
expression	-11.6211
により	-11.6211
▁arts	-11.6212
▁comfort	-11.6212
一体化	-11.6215
async	-11.6217
▁BC	-11.6217
电力	-11.6221
uh	-11.6222
Plan	-11.6224
▁Apple	-11.6225
是对	-11.6227
考试	-11.6227
VALUE	-11.6228
μ	-11.6229
▁disk	-11.6232
عمل	-11.6232
RM	-11.6233
Track	-11.6237
▁Pal	-11.6237
▁perception	-11.6237
职责	-11.6237
▁strange	-11.6238
▁Revolution	-11.6239
▁также	-11.624
▁Sta	-11.6241
互动	-11.6242
금	-11.6242
がある	-11.6243
found	-11.6243
FM	-11.6243
sti	-11.6245
各个	-11.6246
민	-11.6246
做出	-11.6247
hum	-11.6249
而不是	-11.6249
▁integer	-11.625
VS	-11.6251
shaped	-11.6252
▁Ма	-11.6253
▁sheet	-11.6257
▁Columbia	-11.6257
作业	-11.6258
▁alive	-11.6258
▁updates	-11.6259
▁Being	-11.626
▁interactive	-11.626
假	-11.626
BI	-11.6261
争	-11.6262
dic	-11.6262
▁variations	-11.6266
▁translate	-11.6266
logging	-11.6266
▁ethical	-11.6266
▁HTML	-11.6267
hin	-11.6267
DO	-11.6267
▁sequences	-11.627
▁Daniel	-11.6271
▁#####	-11.6272
اق	-11.6272
▁buying	-11.6272
adapter	-11.6275
▁editor	-11.6277
writer	-11.6278
Uri	-11.628
▁rec	-11.6281
▁Sal	-11.6283
wire	-11.6286
▁learners	-11.6287
NI	-11.6287
strip	-11.6289
▁merupakan	-11.6289
活力	-11.6289
Doc	-11.6291
▁über	-11.6292
▁sua	-11.6293
▁Support	-11.6293
anne	-11.6294
pk	-11.6294
煎药	-11.6294
▁channels	-11.6296
▁Geboren	-11.6297
网络安全	-11.6298
▁victim	-11.6299
▁contributed	-11.6299
▁sending	-11.6301
ゴ	-11.6301
));	-11.6301
▁bacterial	-11.6302
小客服看下	-11.6302
▁consent	-11.6304
▁temple	-11.6305
dTf	-11.6307
刑	-11.6307
origin	-11.6307
▁Environment	-11.6309
encia	-11.631
小客服看下订单呢	-11.6313
有所	-11.6314
ahcF	-11.6314
권	-11.6314
▁Ка	-11.6315
elem	-11.6315
港	-11.6315
▁shock	-11.6316
▁هذه	-11.6316
hole	-11.6319
在优惠	-11.6319
数据的	-11.632
▁identical	-11.6321
纠纷	-11.6321
Real	-11.6321
hir	-11.6322
▁covering	-11.6324
▁adjust	-11.6325
Assoc	-11.6326
▁IV	-11.6327
ready	-11.6328
vue	-11.6331
▁programme	-11.6334
▁bond	-11.6334
普	-11.6335
▁Türk	-11.6335
▁rotation	-11.6338
Dis	-11.6338
ए	-11.6339
Switch	-11.6341
へ	-11.6341
ня	-11.6343
▁nel	-11.6344
▁faced	-11.6347
▁sa	-11.6347
vs	-11.6348
Contract	-11.6348
sil	-11.6349
残	-11.635
Sa	-11.6351
Insert	-11.6351
ore	-11.6351
승	-11.6352
预算	-11.6354
▁storm	-11.6358
▁Digital	-11.6359
▁partial	-11.6359
vir	-11.636
场景	-11.6361
巨大	-11.6362
▁stations	-11.6363
禁	-11.6364
▁Could	-11.6365
집	-11.6365
hot	-11.6366
▁tall	-11.6366
▁exploration	-11.6367
complete	-11.6368
َّ	-11.6369
是什么	-11.6369
▁Tra	-11.6374
▁racial	-11.6374
▁пункты	-11.6377
design	-11.6377
▁Bro	-11.6377
▁prison	-11.6377
Zero	-11.6381
lem	-11.6382
▁smell	-11.6383
Year	-11.6384
就可以	-11.6385
尾	-11.6386
▁sensors	-11.6388
resp	-11.639
▁disaster	-11.639
▁surgical	-11.6391
▁affecting	-11.6391
▁indicating	-11.6392
compare	-11.6393
present	-11.6394
▁encouraged	-11.6397
▁lab	-11.6397
각	-11.6398
Setting	-11.6398
▁technological	-11.6401
cursor	-11.6402
aging	-11.6403
可以在	-11.6404
Constants	-11.6404
▁improvements	-11.6405
走向	-11.6405
夏	-11.6407
ча	-11.6407
記	-11.6409
だ	-11.6409
dest	-11.6409
▁unusual	-11.6409
范围内	-11.6409
chart	-11.641
운	-11.6411
▁الولايات	-11.6411
卫星	-11.6411
▁Francisco	-11.6411
▁incidence	-11.6412
による	-11.6412
argv	-11.6412
▁personality	-11.6413
探讨	-11.6414
vr	-11.6417
▁Mass	-11.6418
▁registered	-11.6418
dialog	-11.6419
ère	-11.642
Big	-11.6423
standard	-11.6424
▁sudo	-11.6428
职能	-11.6429
▁demands	-11.6432
条例	-11.6432
ight	-11.6435
▁threats	-11.6436
mathbb	-11.6437
▁losing	-11.6437
▁torch	-11.6437
▁danger	-11.6438
考核	-11.6439
powered	-11.644
▁typedef	-11.6442
▁flexible	-11.6443
uuid	-11.6444
ち	-11.6444
▁famille	-11.6445
angular	-11.6445
Р	-11.6445
▁executive	-11.6445
▁cooking	-11.6446
▁Photo	-11.6446
一批	-11.6446
▁commitment	-11.6447
▁rice	-11.6449
▁ethnic	-11.6449
▁layout	-11.645
imo	-11.6451
序	-11.6452
▁hate	-11.6452
kernel	-11.6453
依赖	-11.6454
的特点	-11.6454
remote	-11.6455
▁Atlantic	-11.6457
推荐	-11.6459
▁orders	-11.6462
在吗	-11.6463
Duration	-11.6465
ego	-11.6466
▁Kom	-11.6468
ения	-11.647
▁crew	-11.647
扩展	-11.6471
▁Bon	-11.6471
经济学	-11.6472
▁Master	-11.6472
▁powder	-11.6473
bib	-11.6473
▁candidate	-11.6474
ام	-11.6478
Acc	-11.6479
▁availability	-11.6479
styles	-11.648
ため	-11.6481
serv	-11.6482
yu	-11.6486
cus	-11.6487
Argument	-11.649
▁symbols	-11.6495
력	-11.6496
cdot	-11.6496
▁Safety	-11.6496
▁promoting	-11.6497
府	-11.6497
让学生	-11.6499
▁mais	-11.65
▁Sunday	-11.65
▁pH	-11.6503
大型	-11.6503
점	-11.6504
gz	-11.6506
DL	-11.6506
▁abilities	-11.6507
▁elected	-11.6507
▁Multi	-11.6511
精准	-11.6514
反对	-11.6515
Nodes	-11.6521
그	-11.6521
اح	-11.6521
ц	-11.6522
▁tags	-11.6524
▁prevalence	-11.6524
▁chances	-11.6525
ther	-11.6526
▁colon	-11.6526
▁innovative	-11.6527
▁lens	-11.6528
payment	-11.6528
▁directed	-11.6528
宋	-11.6528
REG	-11.6528
▁murder	-11.6529
▁objectives	-11.6529
末	-11.6535
▁herself	-11.6538
▁Literatur	-11.6538
norm	-11.6538
▁engagement	-11.6538
▁lights	-11.654
quant	-11.654
sequence	-11.6541
learning	-11.6541
oy	-11.6542
dır	-11.6543
ison	-11.6544
玉	-11.6544
▁Tre	-11.6545
▁dimension	-11.6545
ía	-11.6547
▁pilot	-11.6547
CONFIG	-11.6548
車	-11.655
京	-11.6555
gang	-11.6556
▁Cambridge	-11.6557
sz	-11.6561
法定	-11.6561
▁concluded	-11.6562
ont	-11.6562
xi	-11.6565
original	-11.6565
▁thereby	-11.6568
实际上	-11.6568
▁narrative	-11.6569
▁poll	-11.657
نو	-11.6571
静	-11.6571
▁yer	-11.6572
;</	-11.6574
sche	-11.6575
aba	-11.6576
▁req	-11.6576
Environment	-11.6576
执法	-11.6577
Nav	-11.6578
Py	-11.6578
消	-11.6579
▁losses	-11.658
ている	-11.658
extbf	-11.6582
Vec	-11.6583
▁terminal	-11.6584
prod	-11.6586
紧	-11.6586
▁worship	-11.6588
uv	-11.6589
▁paying	-11.659
▁insights	-11.659
人才培养	-11.659
▁coastal	-11.6591
GT	-11.6596
▁adopt	-11.6596
厚	-11.6597
preview	-11.6597
Fe	-11.6598
▁dropped	-11.6599
的目标	-11.6601
精心	-11.6601
▁exam	-11.6602
▁songs	-11.6602
health	-11.6602
▁Real	-11.6603
▁pointed	-11.6604
有些	-11.6604
ción	-11.6605
击	-11.6606
cls	-11.6606
▁Ali	-11.6607
逆	-11.6607
▁rid	-11.6608
考察	-11.6611
gua	-11.6611
▁writers	-11.6611
린	-11.6612
books	-11.6613
ello	-11.6613
▁epi	-11.6616
getName	-11.6616
▁حيث	-11.6618
mr	-11.6619
园	-11.662
呈现	-11.6621
Ac	-11.6621
Si	-11.6622
▁visitors	-11.6623
▁sind	-11.6624
▁ecosystem	-11.6624
▁institution	-11.6625
形象	-11.6626
▁nitrogen	-11.6629
heim	-11.6629
操作简单	-11.6631
mine	-11.6631
▁Cy	-11.6631
FR	-11.6632
safe	-11.6632
▁roads	-11.6634
▁Fre	-11.6635
ridge	-11.6635
som	-11.6635
▁"",	-11.6636
بار	-11.6636
eff	-11.6636
ئ	-11.6637
TF	-11.6638
▁falling	-11.6638
upper	-11.6638
和社会	-11.6639
▁experiencing	-11.6639
▁classic	-11.664
▁cardiovascular	-11.6641
▁grain	-11.6641
功率	-11.6641
itu	-11.6642
重复	-11.6642
▁wonderful	-11.6642
▁Similarly	-11.6643
▁Top	-11.6644
▁logging	-11.6645
rol	-11.6646
▁drivers	-11.6646
Iterator	-11.6647
tw	-11.6648
引入	-11.6649
iness	-11.665
充分发挥	-11.6651
典	-11.6653
payload	-11.6654
Folder	-11.6655
▁rational	-11.6655
糖	-11.6657
Static	-11.6657
洋	-11.6657
ulation	-11.666
▁rivers	-11.6661
tum	-11.6662
▁आ	-11.6664
brand	-11.6665
SF	-11.6665
duration	-11.6667
nm	-11.667
人工	-11.6671
Random	-11.6672
aceae	-11.6673
育	-11.6673
phase	-11.6674
▁faces	-11.6677
gn	-11.6678
▁restore	-11.6679
ines	-11.6679
可以的	-11.6679
▁Col	-11.6679
▁Personen	-11.6681
良好的	-11.6681
exe	-11.6682
rv	-11.6682
▁cur	-11.6683
▁taxes	-11.6684
dies	-11.6684
▁draft	-11.6686
伊	-11.6687
Loader	-11.6687
Loop	-11.6688
logical	-11.6688
ат	-11.6688
테	-11.6688
▁permit	-11.6689
COM	-11.669
▁был	-11.6691
}^	-11.6691
▁تم	-11.6694
托	-11.6695
Fill	-11.6696
्	-11.6697
ungen	-11.6697
scroll	-11.6698
因材施	-11.6699
▁mineral	-11.67
▁suffered	-11.67
▁particle	-11.6703
▁trail	-11.6704
形势	-11.6704
切实	-11.6709
▁dont	-11.6709
▁fails	-11.6709
sine	-11.6709
党员	-11.671
可持续发展	-11.6711
operation	-11.6712
▁suggesting	-11.6712
▁acting	-11.6713
rak	-11.6713
▁CONDITIONS	-11.6715
▁perfectly	-11.6716
▁electro	-11.6717
selector	-11.6719
쿠	-11.6724
assign	-11.6725
된다	-11.6726
$\	-11.6727
RR	-11.6727
onia	-11.6728
iva	-11.6728
daki	-11.6731
雄	-11.6731
▁classical	-11.6731
Identity	-11.6733
▁interior	-11.6733
Framework	-11.6733
もの	-11.6734
eye	-11.6736
▁scientifique	-11.6736
务	-11.6738
BD	-11.6738
▁Tor	-11.6738
▁Thank	-11.6739
▁determining	-11.6742
HP	-11.6743
▁الذي	-11.6744
一方	-11.6744
相应	-11.6744
즈	-11.6745
مراجع	-11.6745
▁sessions	-11.6746
destroy	-11.6747
▁Unlike	-11.6748
▁labour	-11.6749
▁installation	-11.6749
▁mold	-11.6752
▁whenever	-11.6752
▁Conference	-11.6752
Export	-11.6753
virus	-11.6754
PRO	-11.6754
▁Media	-11.6756
条款	-11.6758
▁Little	-11.6758
&&	-11.6758
发行	-11.6759
':'	-11.6762
ination	-11.6762
维持	-11.6763
实时	-11.6765
▁Ein	-11.6767
▁Hor	-11.6767
补偿	-11.6768
▁tract	-11.6768
▁precise	-11.677
▁expectations	-11.6771
항	-11.6772
▁charged	-11.6773
ering	-11.6774
since	-11.6774
▁collapse	-11.6778
fen	-11.6779
oper	-11.6781
bil	-11.6782
href	-11.6782
▁habit	-11.6783
moz	-11.6783
▁wet	-11.6784
▁establishment	-11.6785
▁'@	-11.6785
▁Run	-11.6785
TABLE	-11.6786
▁BASIS	-11.6787
تا	-11.679
azione	-11.6791
和谐	-11.6793
コン	-11.6793
成分	-11.6795
anı	-11.6796
▁afford	-11.6796
stan	-11.6796
响应	-11.6797
确立	-11.6798
味	-11.68
"})	-11.6802
▁directions	-11.6802
actual	-11.6802
cont	-11.6803
▁keeps	-11.6805
sis	-11.6806
▁transaction	-11.6806
yi	-11.6807
▁Ram	-11.6808
危害	-11.6809
your	-11.681
PY	-11.6812
接口	-11.6813
east	-11.6813
Remote	-11.6813
ova	-11.6814
▁phrase	-11.6814
▁breed	-11.6814
▁قدم	-11.6815
▁dietary	-11.6817
▁diagram	-11.6818
registry	-11.6823
相结合	-11.6824
▁shelter	-11.6825
복	-11.6827
试点	-11.683
ifies	-11.6832
虚拟	-11.6832
sent	-11.6834
人文	-11.6835
自觉	-11.6836
CK	-11.6837
混合	-11.6838
ые	-11.6839
▁god	-11.6839
毛泽东	-11.684
钢刀	-11.6842
▁mock	-11.6844
sı	-11.6848
▁Kra	-11.6853
先进	-11.6853
溢锅	-11.6854
Kru	-11.6854
Counter	-11.6855
ых	-11.6855
▁Avoid	-11.6856
ском	-11.6857
▁spin	-11.6858
▁peer	-11.6859
▁associate	-11.6862
条件下	-11.6863
一年	-11.6865
▁Alexander	-11.6865
轴	-11.6869
compile	-11.687
ona	-11.6871
keyword	-11.6873
英语	-11.6874
vic	-11.6876
ポ	-11.6876
WS	-11.6877
▁Zo	-11.6878
▁Des	-11.688
宣	-11.688
毛	-11.6882
离子	-11.6882
调控	-11.6882
間	-11.6883
党中央	-11.6883
▁gear	-11.6883
▁plain	-11.6883
▁classified	-11.6884
▁varieties	-11.6884
ei	-11.6885
▁marketing	-11.6887
▁apparently	-11.6888
科技创新	-11.6888
ō	-11.6889
dm	-11.6889
mass	-11.689
ides	-11.6891
مي	-11.6891
成熟	-11.6893
Objects	-11.6895
configure	-11.6896
▁focusing	-11.6896
Reset	-11.6897
دو	-11.6897
nel	-11.6898
heta	-11.6899
Ne	-11.6901
▁meaningful	-11.6902
ulating	-11.6904
own	-11.6904
▁tough	-11.6904
多功能	-11.6907
▁flows	-11.6908
σ	-11.6912
TIME	-11.6913
este	-11.6914
我们党	-11.6915
日に	-11.6915
▁assembly	-11.6917
repository	-11.6917
证券	-11.6918
第一次	-11.6918
放送	-11.6918
ense	-11.6918
▁حسب	-11.692
▁Ban	-11.692
▁tail	-11.6921
tune	-11.6922
▁applies	-11.6923
Endpoint	-11.6924
▁unter	-11.6925
借	-11.6925
NN	-11.6926
打豆浆	-11.6927
炎	-11.6931
我们的	-11.6931
aut	-11.6933
samples	-11.6936
station	-11.6936
▁Pra	-11.6937
products	-11.6937
▁anyway	-11.6938
▁assertEquals	-11.6939
▁chose	-11.6939
▁Gre	-11.6942
▁seriously	-11.6942
▁targeted	-11.6943
▁officer	-11.6944
AN	-11.6944
▁со	-11.6945
步骤	-11.6945
mysql	-11.6946
▁Muslim	-11.6946
hello	-11.6948
团结	-11.695
prov	-11.6951
HE	-11.6952
unk	-11.6952
▁therapeutic	-11.6954
索	-11.6955
▁pan	-11.6956
台湾	-11.6958
Registry	-11.696
昭和	-11.6964
question	-11.6964
iger	-11.6965
传承	-11.6966
Chain	-11.6967
▁Battle	-11.6967
▁productivity	-11.6967
ि	-11.6969
批	-11.6969
▁Indians	-11.6969
業	-11.6971
▁reflection	-11.6972
OH	-11.6972
wd	-11.6973
compose	-11.6973
▁evolved	-11.6977
Person	-11.6978
datetime	-11.6978
att	-11.6979
uro	-11.698
习惯	-11.6981
logic	-11.6981
▁sat	-11.6981
商标	-11.6983
STATE	-11.6983
▁duty	-11.6987
▁stood	-11.6988
▁ownership	-11.6992
ман	-11.6993
协商	-11.6995
▁mask	-11.6996
▁platforms	-11.6996
bee	-11.6997
cop	-11.6997
▁severity	-11.6997
▁engaging	-11.6998
▁الإ	-11.6999
▁recover	-11.6999
更好地	-11.7
()))	-11.7
大多数	-11.7
▁Amerika	-11.7
Intent	-11.7
▁blind	-11.7002
▁dynamics	-11.7003
同一	-11.7004
▁Scotland	-11.7005
▁burn	-11.7006
▁physically	-11.7006
▁PM	-11.7007
现有	-11.7008
▁Mus	-11.7009
加以	-11.701
binding	-11.701
verb	-11.701
Trace	-11.7012
香港	-11.7012
第五	-11.7013
oxy	-11.7014
より	-11.7014
较大	-11.7014
ela	-11.7016
▁theoretical	-11.7017
▁genre	-11.7019
bold	-11.7021
靠	-11.7025
▁viewed	-11.7025
▁assessed	-11.7025
▁biology	-11.7027
cra	-11.7027
▁Later	-11.7029
▁Het	-11.703
▁inspired	-11.7031
fel	-11.7034
▁incident	-11.7034
停	-11.7036
Arr	-11.7037
营养	-11.7038
강	-11.7039
▁fabric	-11.7039
转让	-11.7039
decoration	-11.7039
Demo	-11.7039
▁مقاطعة	-11.704
Interval	-11.7041
▁Change	-11.7042
Ni	-11.7043
奖	-11.7044
И	-11.7048
▁reaching	-11.7049
ラン	-11.7051
▁attitude	-11.7051
oil	-11.7051
▁sul	-11.7053
▁SQL	-11.7054
的信息	-11.7055
ном	-11.7055
▁Ohio	-11.7056
license	-11.7058
Fixed	-11.7059
▁orientation	-11.7059
Basic	-11.7059
務	-11.7059
▁lifetime	-11.7061
words	-11.7061
记忆	-11.7063
wal	-11.7063
VC	-11.7064
返回	-11.7065
ira	-11.7067
▁wearing	-11.7068
▁juice	-11.7071
imes	-11.7071
以前	-11.7072
hem	-11.7072
▁differently	-11.7072
شي	-11.7073
rit	-11.7073
▁elsewhere	-11.7073
▁Back	-11.7074
apt	-11.7074
album	-11.7074
▁physician	-11.7077
▁spoke	-11.7077
▁cooling	-11.7078
Batch	-11.7078
▁bottle	-11.7078
▁ignored	-11.7079
sized	-11.7079
▁obviously	-11.7079
TL	-11.708
▁tons	-11.7081
▁Small	-11.7082
Г	-11.7083
aş	-11.7084
情况下	-11.7085
刑法	-11.7085
▁أيضا	-11.7085
large	-11.7085
ete	-11.7086
▁functioning	-11.7086
是以	-11.7086
▁suddenly	-11.7086
Allow	-11.7087
アル	-11.7088
审判	-11.7088
▁Ly	-11.7089
warn	-11.7089
盐	-11.709
▁occurring	-11.7091
dynamic	-11.7093
马克思	-11.7093
▁mill	-11.7093
ци	-11.7094
▁somewhere	-11.7094
在线	-11.7096
▁Jack	-11.7097
呀	-11.7098
gradient	-11.7099
▁bag	-11.7102
Word	-11.7103
▁Need	-11.7105
▁Marine	-11.7107
Mark	-11.7107
▁SOFTWARE	-11.7107
pipe	-11.7108
general	-11.7108
▁lake	-11.7109
extensions	-11.711
虚	-11.711
接触	-11.7111
θ	-11.7114
▁pas	-11.7116
away	-11.7117
圆	-11.7119
tex	-11.7122
oven	-11.7123
▁panels	-11.7123
assertEqual	-11.7124
▁fatty	-11.7124
频率	-11.7125
Operator	-11.7126
dor	-11.7127
顶	-11.7127
▁recording	-11.713
▁Look	-11.713
▁museum	-11.713
首次	-11.713
▁appreciate	-11.7132
Binary	-11.7133
▁breaking	-11.7134
Speed	-11.7139
▁utility	-11.714
rant	-11.7142
▁×	-11.7142
▁conference	-11.7142
spring	-11.7142
威	-11.7143
往下	-11.7145
Sample	-11.7145
setting	-11.7147
Valid	-11.7148
enum	-11.7148
▁actively	-11.715
▁traditions	-11.7151
▁cure	-11.7153
▁breeding	-11.7153
tp	-11.7153
▁protective	-11.7153
身份	-11.7154
Experiment	-11.7156
▁Bel	-11.7157
▁manual	-11.7157
nest	-11.7159
▁Michigan	-11.7159
tens	-11.716
GI	-11.716
ظ	-11.7161
generator	-11.7161
ICE	-11.7162
су	-11.7163
▁등	-11.7163
人用	-11.7165
▁protecting	-11.7167
ora	-11.7168
序列	-11.7168
▁judge	-11.7169
夏季	-11.7169
vier	-11.717
▁writes	-11.7172
▁islands	-11.7173
事故	-11.7174
▁regression	-11.7176
Mail	-11.7176
심	-11.7177
▁orbit	-11.7177
▁ordinary	-11.7178
악	-11.7178
可见	-11.7178
berry	-11.7179
▁Ak	-11.718
router	-11.7181
▁tropical	-11.7181
kes	-11.7182
rp	-11.7185
▁equality	-11.7185
▁sky	-11.7185
▁facilitate	-11.7185
修复	-11.7185
▁Bell	-11.7186
▁sebuah	-11.7188
ピ	-11.719
▁Gro	-11.719
▁Sen	-11.7192
extension	-11.7194
HOME	-11.7194
为什么	-11.7195
poly	-11.7201
▁enhanced	-11.7201
▁repository	-11.7201
vendor	-11.7201
▁finds	-11.7201
▁fishing	-11.7202
Cor	-11.7203
лен	-11.7205
判决	-11.7206
▁Mit	-11.7206
在中国	-11.7207
quote	-11.7208
再次	-11.7209
▁uniform	-11.7209
Download	-11.7209
国家的	-11.7211
▁fin	-11.7213
经常	-11.7213
▁tables	-11.7215
▁clothes	-11.7219
公众	-11.722
Mu	-11.7223
accept	-11.7223
▁robust	-11.7224
Center	-11.7224
Native	-11.7227
▁dominant	-11.7228
Factor	-11.7228
HO	-11.7228
west	-11.7229
▁patch	-11.723
Direction	-11.723
硬	-11.7233
▁pump	-11.7234
▁kingdom	-11.7234
办法	-11.7234
▁antibiotics	-11.7234
Camera	-11.7235
▁Brazil	-11.7235
贵	-11.7235
依靠	-11.7237
ше	-11.7237
▁sentences	-11.7237
冰	-11.7237
ignore	-11.7237
▁Vitamin	-11.7238
π	-11.724
aya	-11.7241
射	-11.7241
装备	-11.7243
External	-11.7243
的位置	-11.7243
▁royal	-11.7244
Permission	-11.7244
▁expanded	-11.7245
原始	-11.7246
中间	-11.7247
ere	-11.7248
▁mutations	-11.725
▁trace	-11.725
▁viral	-11.7252
Transfer	-11.7253
▁perceived	-11.7256
Gr	-11.7256
proof	-11.7258
flat	-11.726
▁Camp	-11.7261
wy	-11.7266
▁driven	-11.7269
rian	-11.7269
煮	-11.727
fro	-11.727
STATUS	-11.7272
ザ	-11.7274
جي	-11.7275
▁Ur	-11.7278
检	-11.728
他们的	-11.728
TX	-11.7282
▁honey	-11.7283
▁strike	-11.7283
伤	-11.7284
markdown	-11.7287
▁functionality	-11.7288
的价值	-11.7289
▁literacy	-11.729
▁[@	-11.7292
Vi	-11.7294
素养	-11.7296
高级	-11.7296
圈	-11.7296
示范	-11.7297
▁engineers	-11.7297
认证	-11.7297
delay	-11.7299
UT	-11.7299
的需求	-11.73
▁Eu	-11.7302
environment	-11.7304
▁scholars	-11.7305
Yes	-11.7307
machine	-11.7307
lle	-11.7307
▁checking	-11.7311
Sign	-11.7311
▁보기	-11.7312
브	-11.7312
SDK	-11.7313
EVENT	-11.7313
cycle	-11.7313
▁Would	-11.7314
SK	-11.7314
▁Alzheimer	-11.7314
他的	-11.7315
初步	-11.7315
ded	-11.7316
aan	-11.7317
endpoint	-11.7319
positive	-11.7319
望	-11.7319
▁electron	-11.7321
aud	-11.7324
▁behavioral	-11.7324
pac	-11.7325
iti	-11.7325
aj	-11.7326
gc	-11.7328
energy	-11.7329
▁hash	-11.7329
▁fatigue	-11.7329
▁readonly	-11.7331
盛	-11.7331
思路	-11.7336
▁deficiency	-11.7336
▁execute	-11.7337
▁earliest	-11.7341
▁Ste	-11.7341
▁tumors	-11.7343
并非	-11.7344
arian	-11.7346
bay	-11.7346
▁प्र	-11.7347
探	-11.7347
▁insight	-11.7348
strat	-11.735
initial	-11.735
▁reproduce	-11.7352
сти	-11.7353
▁Lab	-11.7355
trigger	-11.7356
nb	-11.7358
road	-11.7359
timer	-11.7359
enter	-11.7364
ifdef	-11.7364
装置	-11.7365
ality	-11.7366
قر	-11.7368
dam	-11.7369
▁pathway	-11.737
links	-11.7372
atory	-11.7372
▁poem	-11.7376
▁Georgia	-11.7378
micro	-11.738
asset	-11.738
▁Nov	-11.7381
rá	-11.7382
ancy	-11.7382
Information	-11.7382
▁optional	-11.7383
odor	-11.7385
学会	-11.7385
▁choosing	-11.7385
▁intent	-11.7385
Ü	-11.7385
▁encounter	-11.7386
一起	-11.7387
▁£	-11.7387
となった	-11.7388
distance	-11.7389
▁meals	-11.7391
▁progression	-11.7393
▁invention	-11.7393
准	-11.7394
工资	-11.7394
的情况	-11.7394
rah	-11.7395
旗舰店	-11.7397
积	-11.7398
Customer	-11.7398
释放	-11.7399
Warning	-11.7399
▁emerging	-11.74
▁receptor	-11.7401
备	-11.7403
享有	-11.7404
ば	-11.7404
'));	-11.7406
Mapper	-11.7406
Constant	-11.7407
纪	-11.7407
可以通过	-11.7408
仲裁	-11.7409
▁surprise	-11.741
▁consumed	-11.7411
ín	-11.7412
anni	-11.7412
▁об	-11.7413
池	-11.7413
嗯是的	-11.7416
无异味	-11.7416
轻音	-11.7416
Where	-11.7417
同步	-11.7418
生产力	-11.7418
积累	-11.7418
▁precision	-11.7418
pending	-11.7418
监控	-11.7418
▁Ju	-11.7419
visible	-11.7419
丝滑	-11.7419
BO	-11.742
智能变频	-11.742
很高兴为您服务	-11.7421
▁Kan	-11.7421
功能面板	-11.7422
shi	-11.7422
▁대한민국의	-11.7422
▁metabolism	-11.7422
▁hybrid	-11.7423
刀座	-11.7423
您在本店购买的商品已	-11.7424
饭煲	-11.7424
新款小型	-11.7425
子往上	-11.7425
连续快速双击两下开关启动	-11.7425
mL	-11.7425
果汁杯	-11.7425
杯座	-11.7425
She	-11.7425
▁crowd	-11.7425
大小	-11.7426
的形式	-11.7426
上蒸下煮	-11.7426
Room	-11.7427
▁zur	-11.7427
欧	-11.7428
▁arise	-11.7428
▁holes	-11.7428
▁involvement	-11.7428
了吗	-11.7429
▁sodium	-11.7429
Created	-11.7431
cid	-11.7434
ONE	-11.7434
▁regarded	-11.7434
▁DO	-11.7436
ası	-11.7436
▁slave	-11.7438
浓度	-11.7438
▁Again	-11.7439
电路	-11.744
®	-11.7441
lap	-11.7441
议	-11.7442
Ho	-11.7442
kra	-11.7442
ASSERT	-11.7444
gene	-11.7444
話	-11.7444
▁developers	-11.7445
esi	-11.7445
威胁	-11.7446
不需要	-11.7447
scripts	-11.7448
тор	-11.7449
民事	-11.7451
▁Lincoln	-11.7452
▁Solar	-11.7454
HI	-11.7455
▁batteries	-11.7455
radio	-11.7457
sey	-11.7457
▁Dutch	-11.7458
文本	-11.7458
▁Cell	-11.7458
课题	-11.7458
▁pipeline	-11.746
▁français	-11.746
▁RNA	-11.746
Tags	-11.746
▁loud	-11.746
▁Sar	-11.7461
rules	-11.7462
▁exciting	-11.7463
▁disability	-11.7463
▁representative	-11.7466
hpp	-11.7469
bridge	-11.7469
就有	-11.7469
传递	-11.747
▁shorter	-11.7475
事项	-11.7478
customer	-11.7478
▁edges	-11.7479
的过程中	-11.7481
schaft	-11.7482
▁Radio	-11.7484
poll	-11.7484
Timer	-11.7484
segment	-11.7485
▁fund	-11.7487
credit	-11.7488
sleep	-11.7488
적인	-11.7489
zel	-11.749
updated	-11.749
刺激	-11.7491
实践中	-11.7491
▁planting	-11.7492
going	-11.7492
信息技术	-11.7492
区分	-11.7492
用人单位	-11.7493
▁rats	-11.7493
▁ecological	-11.7494
使用的	-11.7495
Dynamic	-11.7495
消除	-11.7497
inal	-11.7499
亮	-11.7499
▁Basic	-11.75
注册	-11.7501
的目的	-11.7501
gre	-11.7501
发表	-11.7502
▁vocabulary	-11.7503
对外	-11.7508
▁accident	-11.7509
▁Pr	-11.7511
▁succeed	-11.7512
▁cache	-11.7514
▁logger	-11.7515
unda	-11.7515
왕	-11.7515
▁passes	-11.7515
生存	-11.7515
▁Elizabeth	-11.7517
rent	-11.7518
▁addiction	-11.7521
牛	-11.7521
攻击	-11.7523
وع	-11.7523
lv	-11.7523
pon	-11.7523
▁Team	-11.7524
isa	-11.7524
relative	-11.7524
descriptor	-11.7525
rod	-11.7526
▁{};	-11.7526
外交	-11.7527
CLASS	-11.7527
」（	-11.7527
雷	-11.7529
iate	-11.7531
▁Hand	-11.7531
Segment	-11.7534
ров	-11.7534
atan	-11.7534
Mat	-11.7536
▁Scott	-11.7538
they	-11.754
اس	-11.754
▁Resources	-11.7541
▁Supreme	-11.7542
茶	-11.7542
▁dating	-11.7543
거	-11.7543
hw	-11.7543
▁Fair	-11.7544
▁Books	-11.7544
판	-11.7546
Python	-11.7547
这里	-11.7549
endl	-11.755
rac	-11.755
Our	-11.7551
Site	-11.7551
的精神	-11.7552
介	-11.7552
▁posted	-11.7553
▁boat	-11.7554
保存	-11.7555
施工	-11.7556
wn	-11.7556
自治	-11.7556
>",	-11.7557
していた	-11.7558
▁Protection	-11.756
pers	-11.756
makers	-11.7561
ibility	-11.7563
缺陷	-11.7564
▁executed	-11.7564
Power	-11.7564
▁slavery	-11.7565
▁Neu	-11.7565
▁Wall	-11.7566
▁visited	-11.7568
▁cheap	-11.7568
Населённые	-11.7569
▁suggestions	-11.7571
태	-11.7572
▁sunlight	-11.7572
▁genus	-11.7575
▁genome	-11.7575
templates	-11.7576
▁Scientists	-11.7577
Cmd	-11.7578
▁Oct	-11.7579
提出的	-11.758
cel	-11.7581
▁separation	-11.7582
▁barrier	-11.7585
**:	-11.7586
▁horizontal	-11.7586
当代	-11.7586
▁deeply	-11.7587
▁End	-11.7589
▁oldest	-11.7589
制约	-11.7589
cover	-11.7591
的权利	-11.7591
▁estate	-11.7592
rag	-11.7592
gin	-11.7593
quar	-11.7593
▁'',	-11.7595
▁worker	-11.7595
环保	-11.7598
TCP	-11.7599
▁safely	-11.7601
▁Fish	-11.7601
▁الف	-11.7602
▁flying	-11.7602
机会	-11.7603
知道	-11.7603
scene	-11.7603
▁HTTP	-11.7605
Ext	-11.7606
▁및	-11.7608
definition	-11.7608
Over	-11.7609
▁fmt	-11.7609
ille	-11.761
始	-11.761
dw	-11.761
inch	-11.7611
消息	-11.7611
▁reviews	-11.7611
NR	-11.7611
▁keys	-11.7612
▁﻿	-11.7612
had	-11.7612
اب	-11.7612
RP	-11.7613
犯	-11.7613
技术的	-11.7614
guard	-11.7614
肺	-11.7615
批准	-11.7617
gd	-11.7617
Sum	-11.7619
▁Results	-11.7619
”“	-11.7619
ус	-11.7619
▁Cho	-11.762
密度	-11.762
aver	-11.7624
▁को	-11.7627
▁autism	-11.7627
Ru	-11.7628
告	-11.7628
▁Berg	-11.7628
▁Mrs	-11.7629
也会	-11.7633
por	-11.7633
tang	-11.7634
绝对	-11.7634
sex	-11.7635
Stats	-11.7636
▁competitive	-11.7636
争议	-11.7636
Ar	-11.7637
事物	-11.7638
▁vaccines	-11.7638
Begin	-11.7639
▁resist	-11.764
▁animation	-11.764
shire	-11.764
▁heritage	-11.764
ancing	-11.7641
}[	-11.7641
▁rows	-11.7642
▁controlling	-11.7643
STRING	-11.7643
Wait	-11.7644
▁suit	-11.7646
tir	-11.765
ß	-11.7653
Unknown	-11.7653
▁Writing	-11.7653
▁matches	-11.7654
вер	-11.7655
效益	-11.7656
▁foreach	-11.7659
▁definitions	-11.766
▁libraries	-11.766
▁entering	-11.7661
Jo	-11.7661
▁intra	-11.7661
nail	-11.7661
▁paths	-11.7663
Span	-11.7663
和其他	-11.7667
period	-11.767
plane	-11.7671
ih	-11.7672
护	-11.7672
多元	-11.7673
PF	-11.7673
赔偿	-11.7674
료	-11.7674
rim	-11.7675
indent	-11.7675
fun	-11.7676
▁adverse	-11.7676
▁parser	-11.7677
ambi	-11.7677
XX	-11.7678
尺寸	-11.7678
▁MD	-11.7682
▁heads	-11.7684
▁Prevention	-11.7684
DU	-11.7687
methyl	-11.7688
ania	-11.7688
▁finger	-11.7688
的な	-11.769
eş	-11.7691
▁scan	-11.7692
twitter	-11.7693
bucket	-11.7693
▁Sol	-11.7694
income	-11.7694
keywords	-11.7695
gus	-11.7695
Transport	-11.7696
ха	-11.7696
Clear	-11.7697
clock	-11.7698
救	-11.7698
continue	-11.7698
collapse	-11.7699
▁Within	-11.7699
国外	-11.7699
アン	-11.77
▁assignment	-11.7701
rush	-11.7705
paper	-11.7705
▁drama	-11.7705
▁possess	-11.7706
▁小客服看下呢	-11.7707
▁constraints	-11.7708
stmt	-11.7708
▁aggressive	-11.7708
piece	-11.7708
ран	-11.7709
tip	-11.7709
ys	-11.771
▁Blood	-11.771
training	-11.7712
兼	-11.7712
Execute	-11.7713
情感	-11.7714
▁gravity	-11.7715
пер	-11.7717
伯	-11.7717
lis	-11.7718
▁consult	-11.7721
▁الص	-11.7722
▁remarkable	-11.7723
批判	-11.7723
▁slide	-11.7723
▁violent	-11.7724
同意	-11.7724
▁construct	-11.7724
四个	-11.7724
▁websites	-11.7725
▁불	-11.7725
激	-11.7727
所在	-11.7727
▁grows	-11.7727
):	-11.7727
则是	-11.7728
▁Jacob	-11.773
열	-11.7731
的具体	-11.7733
▁wider	-11.7733
▁celebrate	-11.7734
IG	-11.7739
tak	-11.774
展示	-11.7741
ペ	-11.7742
Am	-11.7742
一旦	-11.7743
▁discharge	-11.7745
WA	-11.7745
hop	-11.7746
▁painful	-11.7748
ups	-11.775
Setup	-11.7751
▁styles	-11.7752
▁Aus	-11.7753
viv	-11.7753
▁([@	-11.7755
Short	-11.7755
▁saving	-11.7759
民间	-11.7759
BF	-11.7759
▁thank	-11.7759
▁tracking	-11.7762
这个是	-11.7763
RN	-11.7763
▁orange	-11.7766
卖	-11.7767
▁김	-11.7767
wall	-11.7769
lists	-11.7769
▁Justice	-11.7769
振	-11.777
个人信息	-11.7771
cup	-11.7772
古代	-11.7773
lü	-11.7774
▁opinions	-11.7775
融入	-11.7776
stylesheet	-11.7777
amine	-11.7778
may	-11.7779
的技术	-11.7779
▁invasion	-11.778
>{	-11.778
Some	-11.778
▁أيض	-11.7783
horn	-11.7783
animation	-11.7784
audio	-11.7785
软	-11.7785
▁abnormal	-11.7786
ход	-11.7786
▁opposition	-11.7787
quad	-11.7788
▁mom	-11.7788
▁Massachusetts	-11.7789
collect	-11.779
READ	-11.7792
▁Del	-11.7792
REDIRECTION	-11.7793
各地	-11.7796
▁때	-11.7798
feed	-11.7798
▁Four	-11.7798
Consumer	-11.78
▁Kam	-11.7803
▁broke	-11.7804
Ko	-11.7804
mesh	-11.7805
management	-11.7809
eder	-11.7809
即使	-11.781
سي	-11.7811
립	-11.7811
ол	-11.7811
carbon	-11.7811
▁fault	-11.7811
▁وي	-11.7811
translate	-11.7813
可能会	-11.7814
Attr	-11.7815
Reason	-11.7816
▁breaks	-11.7816
lua	-11.7816
worm	-11.7817
自动化	-11.7817
口味	-11.7819
电压	-11.7819
Strategy	-11.782
minute	-11.782
Validation	-11.782
Eq	-11.782
랑	-11.7821
继	-11.7821
金融机构	-11.7822
▁strengthen	-11.7823
]*	-11.7824
otic	-11.7826
疫情	-11.7826
Border	-11.7826
であり	-11.7826
hm	-11.7827
inject	-11.7827
▁Play	-11.7827
▁bits	-11.7828
▁scientist	-11.7828
etic	-11.7829
려	-11.7829
ヤ	-11.783
▁privacy	-11.7831
氧	-11.7831
▁atoms	-11.7832
▁cattle	-11.7833
▁Pennsylvania	-11.7834
替代	-11.7835
rey	-11.7835
tiny	-11.7835
频	-11.7837
▁films	-11.7837
Standard	-11.7838
SSL	-11.7839
▁traits	-11.784
▁simultaneously	-11.7844
Generated	-11.7845
Bool	-11.7846
▁metabolic	-11.7847
▁aged	-11.7847
ception	-11.7847
ну	-11.7848
ком	-11.7849
▁وأ	-11.7849
▁mature	-11.7849
▁Father	-11.7851
▁balanced	-11.7851
lung	-11.7853
Upload	-11.7853
▁geo	-11.7854
▁enormous	-11.7854
मा	-11.7855
▁workplace	-11.7857
Enter	-11.7857
贫困	-11.7858
forEach	-11.7859
culture	-11.786
▁occurrence	-11.7863
巧便捷	-11.7863
众	-11.7864
▁км	-11.7865
Red	-11.7866
▁accurately	-11.7867
Router	-11.7868
意味着	-11.7868
Drop	-11.787
door	-11.787
anim	-11.787
理想	-11.7871
架	-11.7872
bundle	-11.7872
▁disabilities	-11.7873
hill	-11.7876
近代	-11.7878
▁Pet	-11.7878
Other	-11.7879
载体	-11.788
반	-11.788
nun	-11.7882
▁ill	-11.7882
理由	-11.7884
▁appointed	-11.7885
▁Hy	-11.7887
compute	-11.7888
样本	-11.7888
xxx	-11.789
▁payment	-11.7891
▁*)	-11.7892
catalog	-11.7892
▁blow	-11.7892
▁expressions	-11.7893
▁Bureau	-11.7894
곡	-11.7894
loading	-11.7895
ened	-11.7895
▁locally	-11.7897
May	-11.7898
urge	-11.79
▁distinction	-11.7901
▁macro	-11.7904
秒	-11.7906
▁É	-11.791
("/	-11.7911
يل	-11.7911
▁Р	-11.7911
nl	-11.7912
▁Kur	-11.7914
▁sampling	-11.7915
杀	-11.7916
▁mountains	-11.7916
alloc	-11.7916
▁democracy	-11.7916
分钟左右	-11.7918
▁Matt	-11.7919
▁matching	-11.792
▁Christians	-11.7924
▁contributing	-11.7925
▁Friday	-11.7926
▁cellular	-11.7928
Cancel	-11.7928
▁الر	-11.7929
▁instanceof	-11.793
▁suicide	-11.7931
▁Tro	-11.7933
雨	-11.7933
▁Andrew	-11.7933
yard	-11.7935
有限	-11.7935
▁indigenous	-11.7936
导向	-11.7936
»,	-11.7937
▁Pur	-11.7937
智能化	-11.794
▁slaves	-11.794
ート	-11.7941
打开	-11.7946
▁posts	-11.7946
мер	-11.7947
Alt	-11.7949
▁notion	-11.7949
真实	-11.7949
巩固	-11.7949
▁lists	-11.795
岗位	-11.795
▁Author	-11.7951
▁everywhere	-11.7951
▁flower	-11.7951
heading	-11.7951
الي	-11.7954
اني	-11.7954
▁attractive	-11.7955
Der	-11.7955
吴	-11.7959
inflammatory	-11.7962
signal	-11.7963
Scan	-11.7964
宇宙	-11.7965
雅	-11.7966
的原则	-11.7968
▁knee	-11.797
系列	-11.797
某种	-11.7976
▁manufacturers	-11.7978
']);	-11.7979
局部	-11.7979
Topic	-11.7979
Struct	-11.7979
▁Py	-11.7981
▁amino	-11.7981
灯	-11.7981
igen	-11.7982
Krt	-11.7982
杨	-11.7982
Ta	-11.7983
▁accompanied	-11.7984
▁flash	-11.7986
Compare	-11.7988
ction	-11.7989
宮	-11.7989
EB	-11.7989
projects	-11.7989
▁attract	-11.7989
ै	-11.799
▁drain	-11.7991
ё	-11.7992
▁varying	-11.7992
须	-11.7993
snapshot	-11.7993
""|	-11.7994
Pack	-11.7994
calc	-11.7995
▁folgender	-11.7998
ving	-11.7999
Contact	-11.8
▁compact	-11.8
Dict	-11.8001
▁synthesis	-11.8001
ağı	-11.8002
放在	-11.8003
律	-11.8004
bis	-11.8005
▁Translate	-11.8006
▁neutral	-11.8008
▁Economic	-11.8008
鉴定	-11.8009
vit	-11.801
ным	-11.801
社会的	-11.801
▁Trump	-11.801
▁vaccination	-11.8012
施	-11.8013
▁районе	-11.8013
▁humanity	-11.8014
▁Angeles	-11.8015
▁Ort	-11.8015
呈	-11.8017
ink	-11.8017
cond	-11.8017
LM	-11.8017
▁rotate	-11.8017
▁urine	-11.8019
MAC	-11.8021
遗传	-11.8022
desktop	-11.8023
Should	-11.8024
醇香	-11.8024
verify	-11.8025
按键操作	-11.8026
▁wisdom	-11.8028
subscribe	-11.8029
环绕加	-11.803
金属拉丝	-11.8031
火力持	-11.8031
纹理设计	-11.8031
焖煮	-11.8031
搭配多项	-11.8031
的法律	-11.8031
▁esterni	-11.8031
续沸腾	-11.8031
家人一起享用	-11.8031
满足挑剔	-11.8031
洁机身	-11.8031
▁expertise	-11.8031
小时随时预约	-11.8031
方形简	-11.8031
直接点击最后一个星星就可以了亲	-11.8032
的应用	-11.8032
سم	-11.8034
▁flood	-11.8036
▁Пе	-11.8037
▁sed	-11.8037
Initial	-11.8038
▁controller	-11.8038
▁varied	-11.8038
▁lighting	-11.8039
▁chair	-11.804
▁Poly	-11.8042
Scene	-11.8042
из	-11.8044
▁Ham	-11.8044
▁Physical	-11.8045
Push	-11.8049
▁discussions	-11.805
lets	-11.8051
▁brush	-11.8051
▁pipe	-11.8053
dirname	-11.8058
▁Colorado	-11.8059
مل	-11.8059
binary	-11.8059
▁systematic	-11.806
편	-11.806
lf	-11.8061
forward	-11.8062
blo	-11.8062
third	-11.8062
▁creatures	-11.8063
ifying	-11.8064
ам	-11.8065
其它	-11.8066
▁'#	-11.8067
▁profit	-11.8067
▁sudden	-11.8069
▁belong	-11.8069
ство	-11.807
▁purchased	-11.807
eva	-11.807
▁wheat	-11.8071
▁spoken	-11.8071
▁Islamic	-11.8071
▁checked	-11.8072
▁harvest	-11.8073
喜	-11.8073
▁Machine	-11.8073
纯	-11.8073
Extra	-11.8073
▁Parliament	-11.8074
▁Cham	-11.8076
▁Mai	-11.8077
▁Mount	-11.8077
tick	-11.8078
Rec	-11.8081
▁suspect	-11.8081
includes	-11.8081
▁cursor	-11.8082
rous	-11.8083
ways	-11.8084
潮	-11.8084
▁Gas	-11.8084
▁adapted	-11.8085
å	-11.8086
chin	-11.8087
气候	-11.8087
ть	-11.8088
搜索	-11.809
sep	-11.8092
chy	-11.8092
最低	-11.8092
weg	-11.8092
verbose	-11.8093
▁Mos	-11.8094
VE	-11.8095
ej	-11.8097
▁infants	-11.8098
Failure	-11.8098
Ed	-11.8103
responsive	-11.8105
▁lungs	-11.8107
▁Je	-11.8107
建构	-11.8107
onic	-11.8107
▁Route	-11.8108
であった	-11.8109
tura	-11.811
▁gift	-11.8111
▁sale	-11.8112
Amount	-11.8112
▁Zi	-11.8114
اع	-11.8114
ema	-11.8114
floor	-11.8115
박	-11.8116
there	-11.8118
游	-11.8119
Split	-11.8119
▁Up	-11.8119
pointer	-11.812
▁Print	-11.8121
vc	-11.8121
ру	-11.8121
▁sustainability	-11.8122
▁hunting	-11.8126
取得了	-11.813
DH	-11.813
▁inputs	-11.8133
▁psychology	-11.8134
▁أمريكيون	-11.8134
Expr	-11.8134
▁antibodies	-11.8136
▁Often	-11.8138
▁comparing	-11.814
)](	-11.8141
▁achievement	-11.8141
认同	-11.8141
违反	-11.8142
フィ	-11.8144
▁barriers	-11.8145
README	-11.8146
tte	-11.8147
Packet	-11.8148
determin	-11.8149
Modal	-11.8149
产业链	-11.815
胜利	-11.8151
ston	-11.8151
▁Right	-11.8151
大国	-11.8152
▁GL	-11.8154
▁pod	-11.8154
▁cap	-11.8155
Selector	-11.8155
▁Sil	-11.8156
▁Mid	-11.8157
愛	-11.8157
▁initiative	-11.8158
투	-11.8161
▁Kat	-11.8163
▁describing	-11.8163
投资者	-11.8163
▁integrity	-11.8163
▁transferred	-11.8164
주의	-11.8164
gie	-11.8166
ण	-11.8168
pit	-11.8168
君	-11.8171
怎样	-11.8173
ounce	-11.8174
▁vessel	-11.8176
character	-11.8176
gia	-11.8176
電	-11.8177
债权	-11.8177
合法	-11.8182
▁Currently	-11.8182
▁texture	-11.8182
▁solving	-11.8186
ifndef	-11.8187
▁specialized	-11.8189
▁candidates	-11.8191
lr	-11.8191
纸	-11.8193
辅助	-11.8194
▁ride	-11.8195
康	-11.8196
stance	-11.8196
▁vice	-11.8196
▁towns	-11.8198
▁Harvard	-11.8199
expand	-11.8199
▁defines	-11.8201
More	-11.8201
大家	-11.8204
Animation	-11.8205
▁Navy	-11.8206
招	-11.8206
▁implementing	-11.8207
▁'''	-11.821
absolute	-11.821
航空	-11.821
▁settlement	-11.8211
▁spots	-11.8213
▁provision	-11.8213
▁durch	-11.8213
▁Unit	-11.8214
xy	-11.8214
▁consciousness	-11.8214
進	-11.8215
Win	-11.8215
〜	-11.8215
notify	-11.8217
的重大	-11.8218
▁grant	-11.8219
▁Jackson	-11.822
搞	-11.822
▁vitamins	-11.8222
办理	-11.8222
终	-11.8224
发出	-11.8226
Expected	-11.8226
كس	-11.8226
▁Person	-11.8227
▁exploring	-11.8229
±	-11.8229
优	-11.8229
察	-11.823
▁restrictions	-11.8231
通知	-11.8232
Don	-11.8233
▁dell	-11.8235
bach	-11.8235
▁Head	-11.8237
enc	-11.824
tem	-11.824
▁Pin	-11.8241
OC	-11.8241
▁educators	-11.8241
HD	-11.8242
危险	-11.8243
gateway	-11.8243
▁cotton	-11.8247
▁personally	-11.8247
dashboard	-11.8247
▁Conservation	-11.8249
(['	-11.825
ically	-11.825
▁argued	-11.8252
كر	-11.8252
▁raising	-11.8254
▁numerical	-11.8256
拍	-11.8257
Vertex	-11.8258
街	-11.8258
▁hide	-11.8259
layers	-11.826
微生物	-11.8261
달	-11.8262
▁GNU	-11.8265
yle	-11.8265
別	-11.8267
▁researcher	-11.8268
禁止	-11.8269
▁heaven	-11.8269
▁scenarios	-11.827
命令	-11.827
lookup	-11.827
ess	-11.8272
elli	-11.8273
due	-11.8274
Signal	-11.8275
}]	-11.8276
об	-11.8277
창	-11.8278
解决方案	-11.8283
レー	-11.8283
zione	-11.8284
lio	-11.8284
▁alter	-11.8284
假设	-11.8284
ssh	-11.8284
▁efficiently	-11.8284
国民	-11.8285
并在	-11.8287
mile	-11.8288
▁Kim	-11.8288
▁dramatic	-11.8293
译	-11.8294
или	-11.8297
▁buried	-11.8297
加热	-11.8297
▁CI	-11.8298
其实	-11.8298
살	-11.8299
sensor	-11.8302
▁Tour	-11.8303
▁ré	-11.8303
尽快	-11.8303
▁cycles	-11.8304
顺	-11.8304
isset	-11.8305
工人	-11.8305
Tensor	-11.8306
▁tobacco	-11.8307
▁deutscher	-11.8309
强国	-11.831
lining	-11.831
▁supplements	-11.8312
▁literary	-11.8312
▁personnel	-11.8313
##	-11.8314
故障	-11.8314
路线	-11.8317
流通	-11.8319
▁Iran	-11.832
晶	-11.8322
借鉴	-11.8322
LIST	-11.8322
MODE	-11.8322
≡	-11.8322
经济社会发展	-11.8324
▁factory	-11.8325
▁Corporation	-11.8328
空载转速	-11.8329
▁unlike	-11.8331
との	-11.8332
代谢	-11.8332
矿	-11.8332
▁baseline	-11.8333
▁acceptable	-11.8334
▁Live	-11.8336
使命	-11.8336
كون	-11.8338
产品的	-11.8339
▁communications	-11.8339
▁chemistry	-11.834
loom	-11.834
亿元	-11.8341
fort	-11.8341
▁continuing	-11.8342
series	-11.8342
区别	-11.8342
▁possibilities	-11.8343
▁essays	-11.8343
▁welcome	-11.8344
quit	-11.8345
fly	-11.8345
乘	-11.8345
▁Ken	-11.8346
priv	-11.8349
金额	-11.8351
rica	-11.8351
▁DC	-11.8354
▁kernel	-11.8356
▁Return	-11.8356
庭	-11.8357
▁وقد	-11.8358
有了	-11.8358
slug	-11.8358
examples	-11.8359
▁anymore	-11.836
磁	-11.836
▁calculation	-11.8362
steps	-11.8363
rup	-11.8363
▁hypo	-11.8365
си	-11.8365
▁consequence	-11.8366
期限	-11.8366
津	-11.8366
Expect	-11.8366
▁Different	-11.8367
▁पर	-11.837
人民群众	-11.837
▁strategic	-11.837
▁collective	-11.837
▁Major	-11.837
Te	-11.8372
through	-11.8373
▁spinal	-11.8373
zoom	-11.8375
со	-11.8376
将其	-11.8378
Apply	-11.8379
Theme	-11.8379
ड	-11.838
▁fought	-11.8381
胜	-11.8382
oriented	-11.8383
brew	-11.8385
▁gases	-11.8386
多少	-11.8388
▁Br	-11.8388
▁pathways	-11.8389
에게	-11.839
▁elevated	-11.8391
大学生	-11.8391
▁substitute	-11.8394
▁Bor	-11.8395
低至	-11.8396
峰	-11.8396
▁sad	-11.8398
Two	-11.8398
▁implies	-11.8399
间的	-11.84
馆	-11.84
▁guarantee	-11.84
▁wheel	-11.8401
래	-11.8401
available	-11.8402
虫	-11.8403
forms	-11.8403
δ	-11.8405
▁tongue	-11.8406
▁requiring	-11.8407
▁headers	-11.8407
▁Town	-11.8408
warm	-11.8409
▁Sh	-11.8409
▁Voir	-11.8409
担当	-11.8412
ROOT	-11.8412
Public	-11.8413
反馈	-11.8413
▁episode	-11.8417
حد	-11.8417
▁Visual	-11.8417
▁magic	-11.8418
▁Lin	-11.8419
GPIO	-11.842
ache	-11.8421
▁emerged	-11.8421
氢	-11.8422
three	-11.8424
posts	-11.8424
债权人	-11.8426
년에	-11.8427
inae	-11.8427
▁differential	-11.8428
▁injection	-11.8428
kw	-11.8429
ò	-11.8431
ough	-11.8434
cigarette	-11.8434
▁streets	-11.8435
▁Integer	-11.8436
]}	-11.8436
▁Mexican	-11.8437
apps	-11.8437
大部分	-11.8437
external	-11.8438
带动	-11.844
▁раз	-11.844
acy	-11.844
mun	-11.8441
诸	-11.8443
▁settled	-11.8443
Children	-11.8443
的大	-11.8444
foreach	-11.8444
▁Third	-11.8444
▁quantities	-11.8444
皇	-11.8445
metrics	-11.8446
▁İ	-11.8446
▁unlikely	-11.8448
dog	-11.8448
▁requested	-11.8449
▁Laboratory	-11.845
今年	-11.845
館	-11.845
ائ	-11.8451
内存	-11.8453
▁coding	-11.8453
iated	-11.8454
▁Arab	-11.8459
封	-11.846
▁Station	-11.846
▁regime	-11.8461
▁validation	-11.8461
▁flexibility	-11.8461
sea	-11.8461
▁colonial	-11.8462
因子	-11.8462
▁{%	-11.8462
▁abundance	-11.8463
▁council	-11.8465
tell	-11.8466
@{	-11.8467
MU	-11.8467
▁admit	-11.8468
Author	-11.8469
ヴィ	-11.847
主导	-11.847
▁Child	-11.847
谁	-11.847
▁Scholar	-11.8471
辐射	-11.8474
▁infant	-11.8475
Sch	-11.8476
▁Dictionary	-11.8476
tax	-11.8478
mouse	-11.8478
在此	-11.8478
▁Ask	-11.8478
网站	-11.8478
飞	-11.8482
失败	-11.8482
▁strains	-11.8483
적으로	-11.8484
▁gathered	-11.8484
▁Arts	-11.8486
血管	-11.8486
▁publish	-11.8488
▁engines	-11.8488
▁انظر	-11.8489
▁Cri	-11.8492
slider	-11.8493
These	-11.8494
▁составляет	-11.8494
Art	-11.8495
団	-11.8496
▁aside	-11.8496
lur	-11.8496
choice	-11.8497
一项	-11.8498
Round	-11.8502
▁mothers	-11.8505
▁여	-11.8505
▁reflected	-11.8506
鲁	-11.8506
▁owned	-11.8507
最大的	-11.8508
negative	-11.8509
uda	-11.8509
Updated	-11.851
Points	-11.8511
▁Francis	-11.8511
编制	-11.8512
▁discipline	-11.8513
▁Hebrew	-11.8513
Accept	-11.8514
吃	-11.8515
Mean	-11.8516
hero	-11.8516
▁cream	-11.8517
复杂的	-11.8518
cate	-11.8519
干预	-11.8519
▁ranging	-11.852
company	-11.8521
谋	-11.8522
Many	-11.8522
话	-11.8524
桥	-11.8526
ī	-11.853
▁nutritional	-11.8531
ADD	-11.8531
▁reaches	-11.8535
▁Challenge	-11.8535
***	-11.8537
安装	-11.8537
maker	-11.8538
▁compute	-11.8538
FB	-11.8538
▁partition	-11.8538
▁markers	-11.8541
食谱	-11.8541
dad	-11.8542
▁reject	-11.8542
▁enjoyed	-11.8543
▁Risk	-11.8544
▁combine	-11.8545
▁batch	-11.8546
▁hip	-11.8546
▁varies	-11.8547
非法	-11.8547
Monitor	-11.8548
一带一路	-11.8548
का	-11.8549
▁cancers	-11.855
▁robot	-11.8551
party	-11.8552
stub	-11.8554
دة	-11.8557
▁grains	-11.8559
▁Temple	-11.8559
▁addressing	-11.8561
抓	-11.8562
等级	-11.8562
weed	-11.8563
法人	-11.8563
▁MS	-11.8565
▁rear	-11.8566
▁victory	-11.8566
杂	-11.8566
Mouse	-11.8569
IOException	-11.8569
WEITERLEITUNG	-11.8569
▁kitchen	-11.857
▁человек	-11.857
▁einen	-11.8571
不少	-11.8572
编辑	-11.8574
▁inclusion	-11.8574
突	-11.8574
Di	-11.8576
大力	-11.8576
劳动力	-11.8577
经典	-11.8578
Plot	-11.8578
youtube	-11.858
kill	-11.8581
fixed	-11.8583
▁shut	-11.8583
プロ	-11.8584
Master	-11.8587
有序	-11.8587
tenant	-11.8587
Cap	-11.8589
ист	-11.8589
his	-11.8589
▁proposal	-11.859
pla	-11.859
▁returning	-11.8591
▁hospitals	-11.8592
▁Patients	-11.8592
▁Culture	-11.8592
不可能	-11.8593
▁cooperation	-11.8594
▁calculations	-11.8594
enberg	-11.8595
▁transmitted	-11.8595
werk	-11.8595
PRE	-11.8597
▁bleeding	-11.8597
标准化	-11.8598
kn	-11.8598
alias	-11.8599
▁dictionary	-11.86
▁farms	-11.86
▁Studio	-11.8602
charge	-11.8602
▁forming	-11.8604
▁🌟	-11.8605
年龄	-11.8605
ologie	-11.8605
▁serum	-11.8605
▁busy	-11.8605
Make	-11.8606
了呢	-11.8606
▁existed	-11.8607
ked	-11.8607
bag	-11.8607
每年	-11.8607
▁savings	-11.8611
▁Islands	-11.8612
幅	-11.8613
inst	-11.8613
▁believes	-11.8614
Ab	-11.8614
rou	-11.8614
▁Garden	-11.8615
楼	-11.8615
Bl	-11.8615
调用	-11.8616
▁earn	-11.8617
ency	-11.8619
▁nutrient	-11.8619
З	-11.862
▁его	-11.8621
￣	-11.8621
";	-11.8621
朱	-11.8622
股权	-11.8622
ْ	-11.8623
▁Harry	-11.8624
cip	-11.8624
▁spray	-11.8627
Running	-11.8628
lane	-11.8628
त्र	-11.8629
への	-11.8629
公正	-11.863
リア	-11.8632
营	-11.8632
▁confusion	-11.8634
〉	-11.8635
▁prey	-11.8635
interval	-11.8636
thing	-11.8637
▁completion	-11.8638
形成的	-11.8638
hack	-11.8639
Question	-11.8639
лов	-11.8639
▁societies	-11.8641
亡	-11.8641
纳米	-11.8643
bru	-11.8643
▁recycling	-11.8644
酒	-11.8645
BM	-11.8646
▁Jerusalem	-11.8647
▁operators	-11.8647
随机	-11.865
mill	-11.8651
Returns	-11.8651
▁سكانها	-11.8652
▁modeling	-11.8653
登	-11.8653
▁Adam	-11.8654
运费险	-11.8657
姓名	-11.8658
kle	-11.8659
UM	-11.8659
术	-11.866
ome	-11.866
巴氏杀菌	-11.866
animate	-11.8661
sten	-11.8662
责	-11.8662
spor	-11.8662
直饮	-11.8662
配合	-11.8663
む	-11.8663
ту	-11.8664
]),	-11.8664
你所需	-11.8664
GP	-11.8665
subscription	-11.8666
▁MIT	-11.8667
▁hormones	-11.8667
까지	-11.8667
原浆	-11.8667
HT	-11.8668
未回复	-11.8668
的风险	-11.867
Html	-11.867
更安静	-11.867
▁regulatory	-11.8671
minus	-11.8671
▁Self	-11.8671
▁Much	-11.8672
用久	-11.8672
净	-11.8673
▁Future	-11.8673
煲汤	-11.8673
抑菌率	-11.8673
您可以放心	-11.8673
NOTE	-11.8674
akan	-11.8674
ener	-11.8675
cancel	-11.8675
立享	-11.8676
惊喜价	-11.8676
可变容量	-11.8676
▁во	-11.8676
不怕变	-11.8677
轻音破壁	-11.8677
减震动	-11.8677
叶立体	-11.8677
Optional	-11.8677
▁containers	-11.8677
高速搅	-11.8677
打造贴心	-11.8677
找到	-11.8677
个工作日到账	-11.8677
▁Décès	-11.8678
美味不	-11.8678
╭～	-11.8678
财务休息	-11.8678
High	-11.8678
支出	-11.8679
本质	-11.868
Branch	-11.8682
〈	-11.8682
￣）	-11.8682
Exit	-11.8683
▁beam	-11.8684
browser	-11.8684
▁grave	-11.8684
年新款	-11.8684
tica	-11.8685
职工	-11.8687
▁universities	-11.8688
ás	-11.869
▁scales	-11.8691
weak	-11.8691
Original	-11.8691
中国人民	-11.8692
出现了	-11.8692
几乎	-11.8693
▁Questions	-11.8693
kul	-11.8693
oni	-11.8694
▁Mont	-11.8695
经济增长	-11.8695
▁Monday	-11.8695
лет	-11.8695
infra	-11.8697
ое	-11.8699
سب	-11.87
ENV	-11.87
▁transactions	-11.8703
鱼	-11.8703
▁circulation	-11.8704
▁tolerance	-11.8704
▁lands	-11.8704
ISO	-11.8705
▁enzyme	-11.8705
OT	-11.8706
▁assistant	-11.8706
種	-11.8709
▁stuck	-11.871
▁acres	-11.8711
▁foster	-11.8711
▁Den	-11.8712
sound	-11.8713
story	-11.8713
▁Practice	-11.8714
大规模	-11.8714
Merge	-11.8714
▁checks	-11.8715
显	-11.8716
详细	-11.8717
병	-11.8719
hel	-11.8719
Commit	-11.872
ender	-11.8721
农产品	-11.8722
▁dentist	-11.8723
▁crown	-11.8723
绝	-11.8724
سل	-11.8724
Stat	-11.8724
▁Г	-11.8725
▁무	-11.8725
look	-11.8726
lc	-11.8727
▁enum	-11.8727
Phone	-11.8727
▁Jones	-11.8728
nor	-11.8728
▁infinite	-11.873
▁currency	-11.873
Health	-11.8732
▁Jahrhundert	-11.8733
Month	-11.8734
▁tap	-11.8736
Tile	-11.8736
ры	-11.8736
borne	-11.8737
历	-11.8738
تش	-11.8739
▁reveals	-11.8739
▁vom	-11.874
building	-11.8743
▁readily	-11.8743
毒	-11.8744
▁happiness	-11.8744
▁Win	-11.8747
▁Level	-11.8747
BT	-11.8748
suite	-11.8748
法国	-11.8748
fusion	-11.8749
亲参考	-11.8749
区块链	-11.8749
Ja	-11.875
father	-11.875
ların	-11.8751
▁Vietnam	-11.8751
kr	-11.8751
▁ArrayList	-11.8751
eck	-11.8754
品质	-11.8756
▁apps	-11.8756
▁commune	-11.8759
▁ف	-11.8761
ening	-11.8761
▁Tar	-11.8763
RED	-11.8764
processing	-11.8766
spacing	-11.8766
ワ	-11.8768
too	-11.8769
通道	-11.877
백	-11.8771
优秀	-11.8772
اف	-11.8772
correct	-11.8773
▁gather	-11.8773
予	-11.8773
▁Yo	-11.8774
▁merge	-11.8775
DJ	-11.8775
▁Ren	-11.8776
▁μ	-11.8777
▁median	-11.8777
秋	-11.8778
rice	-11.8778
abc	-11.8779
mobil	-11.8779
touch	-11.878
Phy	-11.878
▁conflicts	-11.8781
▁وهو	-11.8782
Arc	-11.8782
▁rescue	-11.8784
베	-11.8785
Actions	-11.8786
▁excited	-11.8787
▁planets	-11.8787
Mesh	-11.8787
▁أماكن	-11.8788
▁poetry	-11.8788
采	-11.8788
脚	-11.879
▁hunt	-11.8792
seg	-11.8794
▁radical	-11.8794
▁protest	-11.8795
▁reinforce	-11.8796
▁throat	-11.8796
▁Neuro	-11.8797
▁joints	-11.8798
same	-11.8798
▁routes	-11.8799
的经济	-11.88
alis	-11.8801
▁absorption	-11.8805
不过	-11.8806
▁regulate	-11.8807
习	-11.8807
ут	-11.8808
▁tends	-11.8808
polis	-11.8809
pus	-11.8809
Conc	-11.8811
defer	-11.8813
▁Promise	-11.8813
▁"%	-11.8813
▁quiet	-11.8814
▁cancel	-11.8815
▁influences	-11.8815
ライ	-11.8815
▁Hol	-11.8815
类似	-11.8816
了哈	-11.8817
▁convenient	-11.8818
▁prediction	-11.8818
Groups	-11.8818
▁streams	-11.8819
या	-11.8819
▁جامعة	-11.8819
▁threatened	-11.882
▁consistently	-11.882
▁einem	-11.8822
oph	-11.8823
thr	-11.8824
▁vegetation	-11.8825
大的	-11.8826
hon	-11.8826
▁Cur	-11.8827
共识	-11.8827
enti	-11.8827
failed	-11.8828
dots	-11.8828
▁Albert	-11.8829
rx	-11.8831
▁Ter	-11.8833
▁Put	-11.8835
ienne	-11.8835
bic	-11.8836
Replace	-11.8836
pil	-11.8836
student	-11.8837
melt	-11.8837
را	-11.8839
special	-11.8839
中药	-11.8839
Conf	-11.8841
▁liberal	-11.8842
快浆	-11.8844
▁Week	-11.8845
anz	-11.8848
▁Wikipedia	-11.8848
▁Clinical	-11.885
情形	-11.8851
danger	-11.8852
▁Gemeinde	-11.8852
转化为	-11.8853
npm	-11.8853
▁loose	-11.8853
▁हैं	-11.8856
▁qu	-11.8857
mbox	-11.886
elements	-11.8862
ду	-11.8863
的原因	-11.8864
مو	-11.8864
而不	-11.8864
كم	-11.8865
sidebar	-11.8865
至少	-11.8866
스트	-11.8867
▁finance	-11.8867
petition	-11.8867
▁Mas	-11.8867
横	-11.8868
▁что	-11.8869
感知	-11.8869
▁relate	-11.887
▁partially	-11.887
▁isolation	-11.887
[...]
